#version: 0.2
Ġ Ġ
ĠĠ ĠĠ
ĠĠ Ġ
ĠĠĠĠ ĠĠĠĠ
ĠĠĠĠ ĠĠĠ
i n
s e
r e
o n
a t
Ġ t
e r
o r
s t
e n
Ġ a
Ġ =
ĠĠĠĠĠĠĠĠ ĠĠĠ
Ġ i
d e
h e
a r
a l
l e
m e
Ġ f
Ġ c
" "
i on
Ġ re
l f
se lf
Ġ p
u r
Ġ n
i t
Ġ in
c t
a n
Ġt he
c e
Ġ o
Ġ s
r o
g e
ĠĠĠĠĠĠĠĠ ĠĠĠĠĠĠĠĠ
Ġ e
a me
Ġi f
u t
in g
l o
Ġ '
u e
Ġ d
Ġ b
Ġ self
) :
en t
p e
- -
ur n
l i
"" "
t urn
ĠĠĠĠĠĠĠĠ ĠĠĠĠĠĠĠ
at e
Ġ w
f i
o t
Ġ m
s s
u n
Ġ """
r a
Ġt o
i d
Ġ #
de f
Ġf or
c o
m p
Ġi s
e d
Ġre turn
a d
on e
u l
l a
v al
Ġ (
Ġa n
Ġo f
Ġ :
p t
at a
c h
Ġ st
r i
y pe
k e
i s
u m
ge t
n ame
( )
N one
i l
t er
e s
Ġ T
c k
a m
d i
Ġ "
e x
at ion
o l
e l
Ġn ot
. _
' ,
u p
Ġ se
p ar
t h
m a
g s
v er
at h
val ue
Ġan d
Ġc on
) )
ul t
a s
Ġt h
ct ion
[ '
' ]
o de
( '
Ġe x
-- --
c on
ĠĠĠĠĠĠĠĠ ĠĠĠĠĠĠĠĠĠĠĠ
v e
Ġ l
Ġ h
ke y
r or
t ype
b le
Ġb e
li st
en d
se r
Ġ None
t a
Ġf i
Ġ g
or m
Ġ +
i me
in t
Ġ or
p p
e ct
Ġ u
it h
Ġc o
b j
' :
Ġ 1
Ġ A
' )
i g
o d
par am
s p
pt ion
ex t
Ġ [
t o
an d
m ent
i z
R e
Ġ *
Ġ _
Ġ I
q u
Ġ de
or t
Ġ -
Ġ lo
se t
p ath
t e
a ge
Ġe l
Ġ {
Ġd i
` `
f orm
Ġel se
ar gs
st r
fi le
Ġst r
v i
ro m
Ġ r
Ġd ata
l y
Ġ me
p o
Ġ S
i se
( "
an ce
Ġ 0
d ata
e t
Ġa s
n t
Ġ C
Ġ %
Ġ value
r ue
p ut
Ġ= =
r ror
E rror
ĠĠĠĠ Ġ
Ġn ame
re s
Ġp ro
Ġp ar
r y
in e
or d
Ġw ith
Ġa r
a ble
u b
Ġa l
q ue
a se
c al
Ġ F
Ġ ra
it e
Ġ P
Ġre s
i st
e w
p er
st ance
Ġfi le
bj ect
c he
Ġm a
Ġ v
" ,
c i
al se
u s
> >
) ,
iz e
o ut
fi g
o w
a ck
Ġ list
f o
Ġf rom
ĠĠĠĠĠĠĠĠĠĠĠĠĠĠĠĠ ĠĠĠĠĠĠĠĠĠĠĠĠĠĠĠĠ
p ro
at t
re d
a pp
er s
mp le
ar t
a ult
k w
ĠT he
el d
o ur
Ġra ise
t ime
Ġ def
form at
Ġ Re
m s
Ġ on
. .
Ġ y
Ġ key
u re
que st
Ġ D
h t
Ġ E
kw args
ĠĠĠĠĠĠĠĠĠĠĠĠĠĠĠĠ ĠĠĠĠĠĠĠ
d ate
de x
" )
r an
i c
la ss
re nt
] )
al l
s ion
ra y
f f
Ġc h
s h
Ġth at
0 0
Ġw h
in d
] ,
our ce
Ġ x
Ġ get
un t
Ġth is
Ġl en
Ġ 2
Ġo ut
co de
se d
t ext
Ġlo g
un d
il l
Ġse t
l en
= '
i v
ad d
m m
Ġ N
p re
at ch
Ġ `
ce ss
app end
u st
ur l
er ror
Ġi t
Ġp o
it y
Ġ ``
Ġp a
ame ter
ce pt
th od
Ġs h
Ġb y
i m
ode l
ct or
' '
i p
co l
j o
d d
p a
re ate
i le
p y
g er
it ion
Ġa re
o c
lo w
u g
Ġ en
Ġres ult
c l
m o
an ge
_ _
turn s
li f
i ve
um ent
s c
b er
ar y
b o
un ction
p i
ce s
Ġo bject
ĠT rue
) .
= =
Ġ M
in stance
Ġn p
ut e
re ad
Ġt ime
Ġt ype
Ġc ol
Ġ he
ro up
Ġ ro
Ġe lif
d er
a mple
sp on
Ġ V
di ct
Ġn ew
p h
ĠI f
Ġt ry
Ġ la
Ġw e
u le
---- ----
o m
r int
Ġp re
ri b
Ġ* *
val id
Ġp ath
Ġ <
de d
ss age
Ġw ill
ig n
Ġex cept
in fo
ĠĠĠĠĠĠĠĠĠĠĠĠĠĠĠĠ ĠĠĠĠĠĠĠĠ
lo g
o p
Ġstr ing
pe ci
Ġn um
p ort
ss ion
Ġ un
di r
ver sion
T rue
Ġ{ }
Ġal l
at or
or k
ar i
v ent
Ġ R
Ġ >>
Ġ L
Ġ )
Ġ O
att r
ĠF alse
# #
c lass
b el
Ġ' ''
" :
Ġin t
ĠĠĠĠ ĠĠ
spon se
a pe
Ġ G
Ġ>> >
ta in
Ġ U
er y
a ve
il d
s ize
Ġcon t
f a
Ġdef ault
y s
con fig
f e
o re
m b
[ "
p s
ĉ ĉ
F alse
ce ption
up date
le ment
' .
ate d
lo ck
m in
c a
c ation
lo ad
k en
t s
ĠRe turns
I n
Ġis instance
Ġre quest
ameter s
p la
Ġ k
re n
ma ge
al ue
lo at
n s
g ument
o s
Ġo ption
str ing
Ġ >
Ġo s
Ġf unction
ur rent
l it
vi ce
l ine
Ġ W
: `
in dex
o st
Ġi d
Ġme thod
he ck
n e
ran s
Ġd o
en er
i al
s on
qu ery
Ġb o
Ġh as
Ġa dd
st art
jo in
Ġu ser
Ġs peci
ar ray
" ]
Ġp rint
i es
Ġ j
re turn
ar get
Ġ[ ]
Ġ B
Ġre t
st e
ul d
Ġ+ =
t ra
( ):
ĠT h
r ite
mm and
Ġc an
co unt
Ġf il
m at
th er
o k
E R
b ack
Ġcon fig
n um
i f
Ġdi ct
Ġl ine
ĠĠĠĠĠĠĠĠ Ġ
Ġu se
a g
._ _
ut h
Ġ at
Ġout put
li ent
iv en
i r
Ġco mp
Ġ /
Ġs ub
Ġ le
w ord
mp ort
Ġn ode
at us
ar d
n ode
an t
un c
Ġt e
i fi
ig ht
g th
O N
Ġ \
re ss
t y
l in
b ase
ĠTh is
l l
Ġn e
od ule
C on
] .
as k
o uld
ma x
Ġfi eld
ĠE x
Ġvalue s
ĠĠĠĠĠĠĠĠĠĠĠĠĠĠĠĠ ĠĠĠĠĠĠĠĠĠĠĠ
fi x
n ot
* *
Ġ ..
= "
mp l
ate s
qu i
n d
a b
Ġ 3
Ġ H
Ġg iven
Ġa pp
m it
ĠV alue
ow n
e c
Ġ error
b y
" .
u ser
r ame
t ing
lo t
y n
ad er
c ord
. """
m l
b ug
Ġn o
d a
i ch
Ġst art
Ġi te
fi eld
o bj
re e
u mp
g ra
li c
g roup
I N
Ġma x
Ġc all
po s
po int
Ġre sponse
v el
Ġ !
ar ch
w ork
sc ri
Ġ |
ĠValue Error
a c
up le
Ġ li
Ġs o
u de
a ch
Ġspeci fi
ma p
sp lit
Ġar gs
Ġ kwargs
an g
Ġ! =
r st
( [
n ing
l s
ĠI n
A T
att rib
a ct
Ġin put
en ce
Ġa c
Ġm odel
ari able
ver t
Ġnum ber
Ġin stance
Ġcon tain
t t
m d
def ault
Ġwh ich
s ub
u ct
c ur
Ġ z
Ġin dex
res ult
Ġc heck
Ġar ray
w e
S t
E x
ser t
or y
m odel
Ġu sed
co mp
{ }
S T
ul l
Ġc urrent
value s
ation s
o und
param s
Ġse r
f rom
Ġc reate
Ġ end
' s
R E
Ġi mport
Ġme ssage
se s
Ġ one
st ate
e p
ĠA r
ter n
r on
it er
t ri
il s
Ġpa ss
b u
Ġpar am
o ption
sp a
it s
pla ce
Ġa x
Ġf a
re quest
Ġr ange
Ġf loat
d s
Ġ --------
f or
c s
la bel
() )
s ing
ctor y
d ing
j ect
ĠP ar
mo ve
[ :
n el
con t
ro w
Ġ }
Ġp er
pe ct
o bject
Ġb ase
de bug
co m
ke t
Ġm ust
w rite
a x
sh ape
u al
' ):
w a
Ġon ly
== ==
p en
w ith
Ġdi re
at ure
Ġc al
ite ms
Ġar gument
o u
um n
Ġsh ould
Ġc a
Ġc ode
se nt
in ter
Ġs u
Ġ version
b s
Ġ url
Ġ ent
Ġr un
o g
0 1
Ġh ave
e f
al t
' t
en sion
Ġb u
Ġt ext
Ġre g
Ġd is
a k
i cal
le d
Ġ valid
ot e
r un
re am
Ġm in
n p
T ype
spa ce
re g
key s
Ġin ter
## ##
Ġe ach
Ġex ist
in al
Ġst ate
Ġ query
d f
ction s
t es
Ġs up
g n
'] ,
j son
Ġite m
Ġe vent
Ġre ad
Ġro w
ad ata
Ġm at
l at
ar g
Ġan y
mpl ate
cal l
Ġm atch
fe ren
Ġt arget
la y
] [
Ġ @
Ġp y
re f
Ġfor mat
Ġs ource
i eld
Ġlog ger
K e
th on
en ame
ment s
f unc
Ġi mage
name s
id th
/ /
L E
len ame
: :
out put
i x
Ġl in
I D
fi l
Ġ up
Ġo ther
en s
N ame
s um
( (
Ġspecifi ed
cl ude
ut ion
ent s
O R
f t
Ġc lass
it le
ta ble
and l
Ġg roup
ĠĠĠĠĠĠĠĠ ĠĠ
ad ers
s o
fi lename
b e
M E
le ct
Ġoption al
b lock
he re
ma in
Ġ 4
Ġe lement
la ble
Ġfi rst
Ġd ate
n ew
to ken
par se
ĠPar ameters
ĠAr gs
Ġt rans
a p
pt s
and le
r id
Ġparam s
st ri
lo b
et work
st atus
me ssage
Ġbo ol
Ġco mmand
che d
Ġo ver
vi ew
ur ation
Ġwh en
an nel
y ste
t adata
ite m
s i
Ġ-------- --
'] )
Ke y
in put
: //
Ġ{ '
s k
ut es
me thod
Ġin to
D ata
or re
Ġ update
a v
Ġt uple
Ġt able
ction ary
Ġfile s
Ġt ra
Ġs ize
Ġla bel
che ck
ne ction
li b
Ġpo s
Ġ attrib
Ġcont in
ample s
ri g
s ource
ĠC on
ri x
a pi
D E
Ġfil ename
Ġ Ċ
r c
u se
ar ning
ri es
on g
as h
() .
s g
le te
a in
scri ption
Ġ X
ol d
Ġpo int
type s
fil ter
Ġf ound
v ar
pe c
fa ce
Ġg ener
m i
Ġs p
Ġv ariable
Ġto ken
n o
od y
ump y
c reate
or s
u me
le an
o us
a mp
h ost
ot h
o ff
um ns
it ial
C o
Ġd oc
d o
n ect
ting s
Ġcontin ue
c lo
d oc
ack age
u res
ar k
Ġ ----
feren ce
res h
Ġex t
yste m
Ġ_ _
a ction
() ,
pro cess
A R
c re
Ġp l
c y
a i
m odule
A L
Ġo pen
id s
file s
I d
a y
Ġo bj
P ar
g ing
ĠĠĠĠĠĠĠĠ ĠĠĠĠĠ
re sponse
-- -
e vent
P ro
P I
m t
Ġu sing
un k
Ġdo es
ra w
in s
A N
S E
Ġb ut
orm al
Ġth en
qu ence
)) )
Ġa ss
1 0
d b
jo b
Ġ.. .
c lient
andl er
d is
Ġ- >
len gth
i mage
po p
ms g
qui red
Ġfil ter
Ġw ork
ĠĠĠĠĠĠĠĠĠĠĠĠĠĠĠĠ ĠĠĠĠĠĠĠĠĠĠĠĠĠĠĠ
Ġm o
f loat
a st
Ġm odule
Ġi ter
Ġcon text
Ġpar t
co re
iz ed
l p
ht t
pp ing
h o
Ġdef in
id x
Ġg ra
ot al
c ent
Ġs ign
Ġresult s
t arget
] :
Ġdi ctionary
er r
Ġpa rent
Ġt a
Ġf e
pe d
le ction
at s
a uth
m atch
Ġ J
che s
cl s
Ġm sg
ut ils
c ul
di re
r type
t rans
Ġ ['
Ġ --
p l
che ma
Ġ ver
p lot
ile d
Ġas sert
Ġlen gth
` .
lin k
con text
p r
i ble
Ġs ort
ind ow
Ġres ource
mp ty
and om
ri al
Ġb lock
Ġoption s
a re
cal e
Ġma ke
le vel
Ġy ou
ta g
Ġco unt
l d
p ri
G et
R es
u d
re ak
fo re
t x
Ġc lient
Ġ .
S e
Ġwh ile
co mmand
Ġj son
ĠS e
Ġc ls
Ġcont ent
v ed
f ind
Ġa uth
Ġc ur
cont ent
T E
Ġreturn s
Ġh ost
Ġpar ameters
option s
t ed
Ġor der
o f
i o
ran ge
Ġargument s
ent ifi
Ġre cord
Ġof f
Ġp ri
Ġpar ameter
Ġw as
at ing
mb da
Ġ val
Ġc orre
con d
Ġun i
Ġs c
Ġpro vi
) ]
pre sent
Ġla st
Ġa v
s ign
c cess
Ġ 5
Ġ Q
Ġ Y
Ġfor m
Ġ qu
p end
F ile
Ġ( '
Ġpro cess
ig h
x y
Ġex tra
ro ot
if y
T I
[ -
f ter
ĠEx ception
i ck
Ġin di
Ġch ange
Ġy ield
Ġa d
Ġreturn ed
Ġa ct
rig ht
form ation
se ssion
r t
S et
Ġs ame
read y
Ġpro per
s with
Ġcol umn
co ding
que ue
Ġo per
pla y
Ġne ed
Ġb ack
lin es
re place
Ġser ver
6 4
im um
Ġ---- ---
Ġf ol
ĠĠĠĠĠĠĠĠ ĠĠĠĠ
Ġdire ctory
par t
vi ron
Ġpar ser
Ġname s
ĠC o
i ss
stri p
te mp
' ))
m an
Ġch ar
c ate
Ġ q
Ġar g
Ġe d
r it
Ġm ult
Ġm ode
ef ault
Ġh tt
num ber
Ġs ys
n er
Ġc ase
P E
Ġst atus
L ist
st amp
w idth
Ġdi ff
s u
di m
o me
m ode
Ġw here
col or
pre fix
co py
ch ange
f rame
Ġa ction
A r
c ket
st ore
er t
ĠI D
co mm
3 2
ition s
D e
ord er
) ):
Ġlo ad
Ġkey s
low er
o se
pa rent
ĠĠĠĠĠĠĠĠĠĠĠĠĠĠĠĠ Ġ
c md
ĠS t
c urrent
1 2
') ,
R L
ĠA n
at ive
Ġf ind
Ġsh ape
w ise
v id
lob al
Ġn umpy
} )
ca che
Ġt ag
'] .
iz ation
Ġp ort
re q
la st
ĠG et
Ġt ask
A C
Ġn ext
Ġb reak
ĠRe turn
E lement
Ġhe ader
Ġax is
res ource
at tern
ur i
ai lable
le s
U n
lo c
ing le
f unction
t ies
Ġal low
( *
he ader
v is
'] :
li mit
Ġpar se
ĠĠĠĠĠĠĠĠ ĠĠĠĠĠĠ
Ġse ssion
add ress
Ġp age
Ġch ild
T P
ĠT ype
field s
g en
le ase
} ,
Ġcol or
Ġm ore
en v
Ġlo cal
Ġtime out
el l
T o
ise s
Ġde l
Ġs alt
Ġre present
d u
D O
E N
Ġal ready
p rint
ax is
ve ctor
Ġor ig
ĠĠĠĠĠĠĠĠĠĠĠĠĠĠĠĠ ĠĠĠĠĠ
ĠF or
Ġth an
Ġf la
.. .
Ġobject s
Ġro ot
ĠĠĠĠĠĠĠĠĠĠĠĠĠĠĠĠ ĠĠ
li cation
ol s
Ġ' .
e lement
ut o
Ġser vice
st er
Ġp lot
m ary
se arch
ar gument
ex ist
Ġd f
Ġsup port
n et
Ġp as
Ġin te
ch ild
Ġma y
t itle
i b
Ġthe re
htt p
con ds
ser ver
str uct
Ġa g
to p
off set
F I
r ing
li ke
z er
mple ment
Ġex ception
Ġre f
ff er
pa ss
u id
Ġs ingle
Ġt w
ist er
Ġent ry
c or
Ġd type
tern al
ust om
gra ph
Ġli mit
Ex ception
Ġfield s
M e
st ra
re t
Ġla y
entifi er
Ġc md
S I
Ġcall back
Ġin fo
yn c
V alue
Ġm an
Ġhe lp
y mb
at ures
] ]
op en
L O
Ġte st
D i
Ġprovi ded
Ġattrib ute
ma il
Ġ' %
Ġhe aders
i de
==== ====
f y
an s
Ġte mplate
pt h
mi ssion
Ġbe t
Ġen um
y le
R O
Ġoff set
ĠĠĠĠĠĠĠĠĠĠĠĠĠĠĠĠ ĠĠĠĠ
ĠS et
pect ed
Ġ Key
con tain
m ote
p age
he ther
Ġex ec
Ġse arch
on ent
Ġlog ging
Ġin formation
Ġle vel
L I
( _
scri pt
Ġde st
Ġ> =
'] ['
y load
ĠD efault
Ġin clude
#### ####
a ger
Ġn on
F rame
Ġpas sed
q l
Ġt f
st ream
g ener
re cord
Ġpro ject
Ġte mp
ex ception
M L
G E
ex ec
en cy
Ġhas attr
( {
er ge
f low
c li
Ġ attr
we en
Re turn
lo cal
Ġso me
ro und
un i
Ġdi m
ĠD ata
Ġf unc
on t
` ,
Ġpre fix
Ġlin es
de red
la s
ma sk
g or
t ask
Ġa b
Ġcontain ing
00 0
g ment
Ġ< =
te st
Ġco ord
h ash
clo se
ĠA dd
S er
ht ml
ma g
Ġin st
Ġme tadata
Ġby tes
ĠĠĠĠĠĠĠĠĠĠĠĠĠĠĠĠ ĠĠĠĠĠĠ
`` .
ex p
Ġ ""
Ġex p
Ġmat rix
call back
Ġ vi
C O
i ce
Ġit s
ter m
Ġre move
ust er
Ġst ream
[: ,
re move
ent ial
n own
re turns
it ies
er ate
me tadata
co pe
S S
Ġma p
il ity
Ġs um
ĠĠĠĠĠĠĠĠĠĠĠĠĠĠĠĠĠĠĠĠĠĠĠĠ Ġ
a ss
Ġca che
-------- --------
Ġ job
in it
Ġadd ress
bo x
Ġdi st
ĠC reate
Ġlo cation
l ation
Ġco py
Ġcon vert
by tes
Ġi gn
pro ject
Ġ &
Ġa fter
Ġw rite
s or
ug h
ĠD e
m on
date time
bo se
st d
c at
gra m
t ree
ĠĠĠĠĠĠĠĠĠĠĠĠĠĠĠĠĠĠĠĠĠĠĠĠ ĠĠĠĠ
Ġin itial
g o
Ġdate time
. ')
] ))
lo cation
Ġite ms
ch ar
ension s
Ġwe ight
point s
Ġco mm
ĠW e
pp er
qu al
s ort
} '.
f n
Ġc l
de l
Ġre quired
Ġdata set
en code
ol ume
se nd
Ġ 6
b in
e ar
Ġp ackage
par ser
Ġth read
U T
te mplate
ĠĠĠĠĠĠĠĠĠĠĠĠĠĠĠĠ ĠĠĠĠĠĠĠĠĠĠĠĠĠĠĠĠĠĠĠ
Ġstr uct
Ġp h
con nect
he aders
Ġbe fore
ens or
Ġco mple
ser vice
Ġerror s
start swith
id get
Ġs ample
ch annel
or age
. ")
ith er
t he
ition al
Ġb ody
po st
Ġbet ween
ĠType Error
Ġconfig uration
ra p
b ro
ut il
Ġget attr
T ime
2 5
Ġfol low
oc ket
ver se
T TP
Ġgra ph
f la
lic y
ĠP y
R I
Ġto p
v ariable
Ġav ailable
Ġlin k
own load
f ul
ge s
Ġw ord
di st
U L
a ke
9 9
Ġse quence
Ġco m
= {
Ġt er
w er
node s
Ġn etwork
ĠL ist
s pec
Ġn ormal
o pts
. ,
Ġme m
Ġd b
" ):
r s
S ub
bu ild
on ly
log ger
Ġcol umns
p ol
tt rib
ĠP ro
b ar
exist s
Ġde vice
Ġ1 0
Ġf rame
Ġc lo
bo ol
an k
o red
c ry
u x
y m
Ġ K
Ġenum erate
Ġo ld
w ard
ĠA PI
able d
tri c
Ġa pi
st ack
ĠĠĠĠĠĠĠĠĠĠĠĠĠĠĠĠĠĠĠĠĠĠĠĠ ĠĠ
N A
Ġtw o
Ġa li
m od
Ġv ar
Ġf ull
it or
iz er
d type
b it
M A
Ġch annel
m y
Ġdoc ument
le ar
Ġcon nection
Ġlo ok
e st
Ġe mpty
ph a
ifi cation
in ation
Ġg en
1 6
S ON
Ġname space
ul ar
: ]
ĠĠĠĠĠĠĠĠĠĠĠĠĠĠĠĠĠĠĠĠĠĠĠĠ ĠĠĠĠĠ
set tings
di fi
Ġsort ed
A D
col umn
time out
ĠU n
l per
f l
pro per
f er
we ight
Ġse nd
x ml
Ġ 8
me m
Ġ ]
contain er
Ġt itle
A dd
] ['
ion s
h andle
Ġcal led
Ġnode s
Ġt otal
pre ssion
de lete
C h
Ġbu ild
ver y
Ġal so
T Y
ĠT O
Ġbe en
T he
g r
IN G
p k
Ġpass word
per i
p ub
ic s
c f
Ġh andle
t uple
Ġ' '
Ġs k
ĠC heck
w arning
ut f
n ow
it ude
ption al
n etwork
ent ry
Ġcreate d
b ody
val s
Ġra w
com ment
se rial
ip le
col umns
o ver
Ġb in
u age
ĉĉ ĉ
co ord
ang uage
ro p
viron ment
o lean
me ta
Ġ err
Ġexist s
1 1
se q
las ses
ug in
- +
oth er
Ġcal cul
or g
se ction
la mbda
result s
et ch
r iter
ĠN ot
s ample
Ġpoint s
i str
( **
Ġre ference
F a
ĠE T
Ġch unk
iss ing
00 00
vi ces
ch o
s up
Ġdiff e
Ġli ke
s ave
Ġbo und
con f
de code
ent ity
a it
= [
p on
s peci
Ġse e
) [
Ġset tings
qui re
li ce
ir s
ymb ol
Ġm ask
Ġs ave
Ġde scription
p ack
n ext
L o
label s
g rid
ge st
par ameters
ta ils
Ġf inal
ol der
der r
ste p
me di
m ark
ol ution
an ts
ext ra
b atch
t ry
pa ce
ĠR a
ttrib ute
N ot
f ull
C E
de scription
ge x
Ġsh ow
Ġg o
ri de
Ġkey word
C ol
o b
le t
\ \
lay er
Ġo p
ĠSe e
ro ll
ĠU RL
Ġattrib utes
Ġdata base
path s
Ġex ample
Ġl at
n g
Ġst ep
Ġp i
us h
ri pt
he d
Ġhas h
Ġen v
ar n
al og
Ġchar act
ro l
Ġw idth
Ġsu ccess
'] [
in ed
in di
Ġbase d
U N
c p
me an
Ġdefin ed
cl u
Ġpos ition
vi ous
co mple
Ġtype s
ĠEx ample
p date
Ġli b
P O
') .
__ ['
le ft
C H
d en
h as
Ġpy thon
mat rix
Ġt ree
to col
al ys
Ġsp lit
Ġen coding
m g
`` ,
o per
ca de
um ber
Ġthe m
ext end
Ġse lect
st at
Ġr andom
m ult
Ġrequest s
object s
Ġc li
Ġw hether
s alt
Ġp ub
pon se
di ff
an not
Ġde pend
Ġst op
Ġid x
p ackage
Ġ' /
Ġlabel s
Ġhtt p
Ġac cess
v es
a ded
Con fig
Ġo b
Ġfe ature
ĠI t
O bject
M P
Ġj ust
ĠTO DO
Ġ' -
ke ep
un ter
Ġ view
f fix
or ig
Ġlay er
o ci
:` ~
al id
Ġre place
D I
F A
ĠN ote
bo und
in st
Ġ vector
Ġe ither
C reate
ra pper
AT E
pass word
Ġw ant
Ġ" %
Ġin d
Ġst d
add r
Ġb atch
Ġelement s
Ġexist ing
N o
Ġde lete
ĠĠĠĠĠĠĠĠĠĠĠĠĠĠĠĠĠĠĠĠĠĠĠĠ ĠĠĠĠĠĠ
Ġo pt
v ate
ĠKey Error
d ump
ste ad
de vice
es c
Ġr ule
con nection
ĠR un
th ing
. "
L A
n a
w w
p c
Ġs a
r m
pro file
ci es
g ress
2 0
z one
ss ible
s rc
Di ct
Ġfor ce
Ġinte ger
Ġv ari
val u
ent ic
g in
in ce
', '
Ġcorre spon
s chema
Ġstring s
P ath
Ġpo st
Ġs chema
Ġ' {
Ġac count
ran ch
Ġ right
Ġpro file
)) ,
fi rst
Ġcontain er
rib ution
Ġm ark
Ġother wise
ol ve
pos it
w h
Ġt mp
group s
r ary
Ġsup er
s a
me d
bro cade
st op
Ġorig inal
ex c
Ġcon nect
il y
C T
Ġs ystem
ro ugh
re qu
t r
ĠJ SON
F F
resh old
'' '
C lass
act ive
ĠN ame
] ):
r ule
d uct
do main
ca use
Ġz ip
v ari
data set
del ta
m ath
cry pt
r ate
st ats
he lper
f s
ig ma
r andom
ĠD i
sh ow
Ġhe re
alys is
z ip
ta gs
s ys
h andler
T h
st yle
i as
ra ph
-+ -+
o pt
In valid
Ġcoord in
E n
Ġvariable s
s amples
v en
s ystem
Ġex c
zer os
g ory
Ġse ction
ĠR es
Ġde sc
t rue
row s
t en
= (
Re quest
on ents
si de
Ġoper ation
Ġs i
Ġg lobal
ac cess
Ġcontain s
Ġf l
Ġpa yload
Ġme ta
} ".
ra ise
li ed
Ġthe y
at ter
t mp
Ġin stead
Ġcon d
re l
sh ot
ĠH TTP
e ded
er o
Ġrow s
ing s
TI ON
Ġc ustom
re c
Ġla mbda
m al
Ġp la
Ġst at
Ġreg ion
dire ct
iv ed
dire ctory
de v
Ġ ge
Re turns
ator s
Ġ queue
ver age
Ġh andler
un it
nd array
t on
mplement ed
Ġfi g
Ġma pping
ce ll
O T
Ġfollow ing
tx t
Ġn ow
TY PE
Ġ' _
Ġuni code
P o
Ġw indow
ĠRa ises
i ces
Ġm issing
Ġle ft
t otal
Con t
ĠPy thon
Ġd on
Ġdi stance
w d
ĠM e
Ġo pts
Ġta gs
n der
n ap
ri p
ab s
Ġign ore
Ġ' \
ĠL o
Ġpl t
ran sp
C ON
i e
Ġ[ "
as on
Ġdi r
Ġi p
t ect
Ġfa iled
option al
Ġmult iple
da y
in k
Ġuni que
a z
Ġw ait
Ġs ix
Ġdire ct
he ight
I T
Ġre mo
Sub Element
f ra
Ġu s
Ġhtt ps
ch ain
NA ME
Ġp attern
ĠT o
0 4
s v
bo ok
wa re
g y
k er
" ],
N ode
Ġ( "
he ll
se lect
Ġse conds
user name
Ġp d
Ġme an
Ġs rc
F orm
Ġdiffe rent
Ġse nt
ff ect
Ġsupport ed
bu ffer
Ġun it
ĠL O
and ard
L og
n ormal
h er
Ġ' ,
I te
Ġproper ties
ĠO ptional
E L
Ġre mote
gor ith
0 2
it ch
e k
Ġver bose
de st
UL T
St ring
E T
am l
lat ive
ĠW h
Ġad ded
name space
Ġa bs
Ġfa il
Ġpar sed
Ġ 7
al led
d ot
Ġp k
v o
it es
inter face
ter min
In dex
h ist
e red
Ġuser name
Ġse rial
Ġspeci fy
ce d
Ġsk ip
Ġ und
time stamp
Ġpre sent
Ġsign al
Ġp ol
ma ke
pos ition
st im
indi ces
e ve
Ġse cond
red ential
Ġp e
ta ch
and as
N T
fi ci
d own
py thon
as ure
ĠĠĠĠĠĠĠĠĠĠĠĠĠĠĠĠĠĠĠĠĠĠĠĠĠĠĠĠĠĠĠĠ Ġ
Ġw arning
Ġass oci
cre t
p ly
b l
Ġm y
Ġ" .
C heck
c an
Ġ{ "
Ġgener ate
Ġ{} ".
Ġbe cause
1 5
S C
Ġpre vious
Ġre l
ac count
cur s
s cale
Ġl ong
Ġproper ty
Ġs im
2 4
Ġed ge
con st
ual ly
Ġre port
stra int
model s
ĠCo mp
ch ron
Ġdis play
Ġin valid
Ġst ore
Ġfla g
" ])
Ġma in
wa y
p lo
ex it
Ġwith in
Ġcon s
Co mp
Ġre ce
en ces
ĠU se
Ġta ke
error s
Ġextra ct
Q u
posit ory
g re
Ġnot e
k nown
igh b
' }
Ġhe ight
Ġex pected
ser v
c c
ĠĠĠĠĠĠĠĠĠĠĠĠĠĠĠĠĠĠĠĠĠĠĠĠĠĠĠĠĠĠĠĠ ĠĠĠĠĠĠĠ
wa ys
Ġdo main
mo unt
std out
istr y
str u
ut ure
Ġth rough
p attern
ĠG ener
Ġpo ssible
i mport
Ġthe ir
Ġs amples
i an
Ġby te
ch unk
s q
Ar ray
Ġlo op
c ut
Ġreg ister
re st
a u
ri ver
< /
Ġse par
f it
Ġapp ro
a red
Ġi ss
Ġc ent
yn chron
Ġtra in
Res ponse
pro xy
Ġmax imum
if t
i er
w indow
u red
AN G
Ġtime stamp
ith ub
Ġt rue
n umpy
Ġx ml
Ġm erge
de pth
Ġindi ces
Ġv is
el y
St ate
vid er
Ġinter face
cal ar
Ġm on
gorith m
method s
attr s
ang le
Ġcon n
Ġcorre ct
Ġm od
Ġid entifier
] ),
set s
T ext
Ġg rid
FA ULT
s l
tra in
ck er
Ġs pec
tra ct
Ġde cor
Ġs cale
Ġdis able
Ġspecifi c
Ġsu ch
ĠS er
at er
ĠA ttribute
ca st
up per
Ġre sp
Ġbe ing
Ġst ack
proper ties
and id
ical ly
ĠĠĠĠĠĠĠĠĠĠĠĠĠĠĠĠĠĠĠĠĠĠĠĠĠĠĠĠĠĠĠĠ ĠĠĠĠ
Ġmat ches
ut ed
Ġpath s
se quence
ĠĠĠĠĠĠĠĠĠĠĠĠĠĠĠĠĠĠĠĠĠĠĠĠĠĠĠĠĠĠĠĠ ĠĠ
ĠI P
A B
co res
s ite
ot o
Ġtrans form
wa it
exec ute
Ġ 9
de sc
Ġs ite
fa ctor
th read
nap shot
Ġy our
ĠLO G
Ġass ign
Ġwith out
mb ed
en cies
ra ises
Ġc ell
Ġ ):
Ġb oth
Ġ keep
5 0
g it
Ite m
Ġbo olean
8 0
re po
ä ¸
D B
Ġe very
m en
Ġac cept
Ġf it
g lobal
e mpty
n on
Ġen vironment
fe atures
ĠO n
c ase
b ab
Ġh ist
le ctor
Ġcol lection
Ġde bug
Ġthe se
a ctions
E vent
difi ed
man ager
Ġend point
lat form
Ġcorrespon ding
S h
Ġin it
po ch
la p
var s
fe ature
U S
/ {
c le
l ate
co der
o id
an y
he ad
ĉĉ ĉĉ
Ġc tx
unt il
re ference
3 3
con n
K E
Ġre al
. '
up lic
ta x
T R
I O
F ound
Ġab out
i a
la b
code d
ro ss
re quired
Ġpo p
reg ion
t f
j ust
(' \
Ġex pression
ar r
in itial
Ġs ure
Ġrun ning
c er
Ġapp ly
en ded
Ġc lean
Ġ' --
se conds
Ġindi c
mb ers
Ġret ri
A n
Ġz ero
c lasses
In fo
Ġ' *
requ ency
ed ge
Ġ vert
Ġfi x
htt ps
M odel
Ġstruct ure
Ġre st
ma pping
Ġweight s
Ġcon f
st derr
in is
Ġcomp onent
clo ud
me th
vis ion
g round
g ine
Ġch o
ĠS h
Ġ2 01
t c
og le
g ments
trans form
Fa iled
Ġdoes n
i re
Ġw rit
Ġcl uster
T ER
_ {
_ ,
s core
S O
al le
Ġc ate
Ġcan not
5 5
g reg
Ġmatch ing
Ġin clu
Ġa ut
in sert
Ġdefault s
f older
Ġs pace
il ter
term ine
Ġund er
l an
en coding
le ss
Ġre q
w s
li g
1 9
Ġs cope
p atch
2 01
bo ard
ok up
[: -
Ġb it
ta il
al cul
b ers
: %
Ġf n
ynchron ous
Ġse ries
comm on
y ear
ad ded
tri cs
Data Frame
port ed
D F
che me
__ ,
Ġn d
Re ad
or ity
Ġv olume
Ġco uld
attrib utes
Ġ{} '.
Ġdel ta
1 4
li m
a f
i k
iv ity
id den
Ġtime s
valid ate
e ps
Ġvalid ate
E X
u sed
Ġ1 00
to m
redential s
Ġh ow
it ive
Ġan g
child ren
U ser
3 0
Ġ Z
Ġcon st
ari es
Ġst ats
Ġt r
ert ifi
at io
B u
Ġs ince
Ġmem ory
V ER
n orm
word s
B y
te red
ul ation
ol ver
Ġag ain
par ts
i ent
s cope
ve c
iz es
p id
= %
Ġpar ts
Ġ1 2
di us
1 00
Ġcal lable
li sh
w arn
iv es
n an
C lient
Ġ' {}
Par ser
######## ########
Ġchange s
d t
lic it
w here
ne ss
Ġallow ed
} .
s ure
cent er
Me ssage
In stance
Ġsc ript
de pend
Ġal pha
S P
Ġcomp ute
ĠAttribute Error
Ġch ain
F ield
add ing
T O
e mail
S H
Ġse q
* (
Ġevent s
col s
l on
Ġh igh
Res ult
Ġassoci ated
Ġl on
pe line
v m
N O
Ġtoken s
feren ces
c ard
lo op
(' /
ĠEx amples
se ries
b its
Ġmessage s
" ))
Ġe stim
un its
Ġd a
is ion
Ġde pth
Ġlo wer
le g
Ġfunction s
o x
to ols
Ġd one
Ġw ould
end ing
Ġro ute
I P
E D
cf g
cs v
h a
ct x
id entifier
he x
ol ute
ome try
yn am
Ġfe atures
Ġn et
ens ity
A P
doc s
Ġs ocket
le m
Ġ utils
ĠRun time
Ġo w
le ted
Ġfla gs
ĠC LI
pa yload
Ġfa ctor
d r
Ġcom ment
Ġy ang
Ġe qual
en o
ĠWh en
u uid
po licy
Ġo ur
inter val
Ġre lative
() ):
i od
att en
O r
M O
Ġi mp
Ġst yle
Ġapp lication
Ġne eded
a uto
} \
} {
Ġali gn
Ġf ra
om at
al s
Ġbe st
Ġe mail
Ġcur sor
Ġp ix
al y
r f
Ġent ity
( -
Ġcont ents
Ġt ri
Ġe valu
Ġd t
Ġiter able
Ġcoordin ates
end swith
fa st
R un
pa c
re port
Ġbin ary
ĠF ile
comm it
pre ss
" ),
Ġwh at
t ick
el s
Ġpro xy
U RL
GE T
Ġd ownload
al ign
Ġ( (
exception s
U R
uni que
ces sed
Ġt x
Ġvi a
Ġo c
variable s
G roup
> `
Ġass ume
attrib ute
Ġan not
z e
} '
Q U
Ġc re
change s
A M
ge d
r ation
Ġde tails
Ġinput s
le ep
B U
cur ity
Ar gument
ĠĠĠĠĠĠĠĠĠĠĠĠĠĠĠĠĠĠĠĠĠĠĠĠĠĠĠĠĠĠĠĠ ĠĠĠĠĠ
Ġadd itional
Ġinstance s
me tric
Ġent ries
Ġremo ved
Ġauth or
il der
v ing
w itch
Ġm ath
Ġ" {
Ġmethod s
tra ce
Ġdim ension
Ġse gment
con vert
pre c
A pp
Ġgroup s
** **
Ġclo se
Ġind ent
Ġpl ugin
'] (
O ut
ĠN o
(' %
======== ========
l ong
pi x
s pe
token s
E S
end s
Ġupdate d
s id
reg ister
av ed
Ġre po
ers ion
di stance
q a
mp t
P AT
he s
Se ssion
Ġl anguage
3 4
Ġst orage
de c
Ġme tric
ĠĠĠĠĠĠĠĠĠĠĠĠĠĠĠĠĠĠĠĠĠĠĠĠĠĠĠĠĠĠĠĠ ĠĠĠĠĠĠ
6 0
uni code
dump s
Ġar ch
Ġext ension
c lean
Ġal ways
doc ument
P y
Ġrepresent ing
pa re
serial ize
di ms
T H
(' -
Ġper form
AT I
Ġfol der
en viron
Ġsign ature
ul ate
g p
Ġ} ,
() ))
as ic
par ameter
al low
stri ct
Ġco mb
Ġun its
log ging
Ġd own
Ġs core
A uth
ch ine
v s
co s
Ġter m
Ġin sert
am ily
Ġre quire
r u
Ġpre di
l int
. *
fla gs
im g
In ter
re mote
s ql
ut ing
ĠRuntime Error
ci mal
Ġbu ffer
int e
ER R
ĠU pdate
() [
DE FAULT
w rap
zer o
({ '
Ġax es
G ER
Ġst andard
re al
Con text
ĠD o
plot lib
ho ok
cur sor
ut able
ĠC h
P re
Ġcli ck
mission s
Ġtra ce
Ġstd out
( ['
ĠDefault s
qu ences
Ġcharact ers
ble m
ched ule
Ġmult i
ren ce
o le
Ġst ored
fi ll
Ġ" /
Ġbo x
load s
Ġrequest ed
ĠD E
iv ely
sq rt
Ġ" \
b ind
Ġh params
Ġpri vate
def in
Ġdist ribution
Ġret ry
ĠO r
KE Y
al pha
ex pected
ter s
ma c
Ġw rap
Ġ} )
ĠO ther
ed ges
auth or
cl uster
Pro cess
Ġ_ ,
fa ct
qui res
s pect
f g
se p
Ġno qa
Ġpla ce
Ġcomm on
H andler
peri od
for ce
I L
Q L
n ull
Ġs ur
Ġlo c
fi gs
time s
Ġro le
Ġh t
ĠAr gument
s m
u i
for med
d at
il t
ang o
Ġrepresent ation
ĠN umber
c orre
Ġf ill
S ize
m erge
Ġk er
dis play
jo bs
ro ute
Ġinter val
ĠI O
ur ing
col lection
(" %
Ġnd array
j e
dir name
G ener
se c
er ic
att ed
f etch
P er
event s
Par se
Ġ- =
E nt
Ġs m
s n
Ġcomple te
rt ual
Ġc or
st ates
- %
Ġc at
en gth
Ġ until
weight s
c b
an e
po ol
Ġact ive
Ġme ans
f name
Ġex it
coord s
/ %
H E
peri ment
ĠĠĠĠĠĠĠĠĠĠĠĠĠĠĠĠĠĠĠĠĠĠĠĠĠĠĠĠĠĠĠĠ ĠĠĠĠĠĠĠĠ
ertifi cate
de s
Ġi m
st ed
b ot
1 3
st orage
ĠData Frame
Ġdest ination
__ )
Ġname d
A PI
g ithub
x x
Ġsh ort
Ġm ost
ĠA pp
Ġne g
ĠV alid
se ns
Ġex clude
Ġinst all
ver s
pro p
ĠP ath
in clude
co me
Ġwe re
Ġgener ator
di o
Ġ'* '
Ġpa ir
la ck
Ġsu bject
Ġgener ated
Ġrecord s
A S
Re c
' \
l er
U P
ĠAn y
resh ape
T able
Ġb ash
ransp ort
Ġin ternal
ver bose
Ġcharact er
T e
Ġre c
1 8
Ġz one
. )
_ .
c lear
Ġ uri
mem ber
default s
Ġact ual
Ġi mg
Ġcomp at
fla g
ĠA l
ĠR E
Ġ" ,
Ġper iod
Ġset ting
he lp
In put
am ma
code s
ath er
Ġf mt
Ġw rapper
ist ered
entic ation
P C
Ġselect ed
= {}
ĠM ake
ma ster
module s
am s
Ġme di
Ġdirect ly
ĠĠĠĠĠĠĠĠ Ċ
ue s
lay ers
si red
le ctions
lo aded
ĠP er
input s
B ase
def ined
v olume
Ġmodel s
Ġen sure
Qu ery
Ġb ranch
ot ential
ign ore
Ġ join
Ġbu cket
f mt
(" \
ĠU ser
bo ve
roll er
F O
Ġw ay
sp an
by te
Ġre gex
Ġpa irs
Ġid s
D ate
r b
I mage
y g
Ġdefin ition
1 7
ci i
Ġa uto
O n
N S
Ġle ast
Ġd ay
Ġsu ffix
Ġat temp
P RO
ro le
sum mary
ĠIn dex
g b
N D
Ġpro bab
ph i
se n
Ġar t
fi c
r l
LO G
app lication
ser ved
C K
t ion
ĠĠĠĠĠĠĠĠĠĠĠĠĠĠĠĠĠĠĠĠĠĠĠĠĠĠĠĠĠĠĠĠ ĠĠĠĠĠĠĠĠĠĠĠ
T rans
Co unt
Ġpy lint
re gex
Ġpo ol
L e
U pdate
k ind
Ġdis k
f d
Cont ent
ut ation
mi ss
Ġopt im
Ġlist s
al ias
Ġsuccess ful
lig ht
Ġi mplement
Ġ ut
Ġs ql
ta ct
W S
s ocket
en e
Ġl ar
Re g
port s
al k
H e
Ġ' ',
ci p
5 6
ï ¼
cord ing
inst all
arg v
] +
Ġfilter s
Ġre nder
ow er
Ġc types
count s
Ġapp end
Ġht ml
Ġs ym
Ġover ride
lo okup
yn tax
Ġ kw
cess ary
Ġdire ction
ĠE n
Ġpo licy
Ġf alse
plo y
ĠO S
c ustom
V alid
ĠT ime
sign al
Ġcomm it
all back
V AL
s lice
s ymbol
Ġro t
ef fici
Ġimage s
Ġman y
se cret
Ġb l
ex pr
Ġg re
Ġre verse
Ġcall ing
Ġd er
Ġ% (
Ġneed s
Ġy ear
Ġed ges
Ġup per
, )
os ition
Ġhe ad
ĠW hether
Ġwarning s
Ġ2 00
Ġext ensions
ĠSt ring
Ġ $
j ango
re lease
Ġf ont
ke ts
ĠA s
mpl ing
FI LE
Ġpro p
D is
ĠC ol
Ġan alysis
end point
su ccess
ATI ON
il ar
ra in
Ġf p
Ġf low
co unter
w idget
o bs
ste ps
Ġd raw
Ġm u
Ġc y
l anguage
m u
} "
res sed
fo o
a fter
proper ty
Ġarray s
Ġw idget
he et
Ġal gorithm
Ġtrans action
Ġcond ition
Ġs ymbol
g a
Ġattr s
Ġlo ck
ent ion
) ])
w in
Ġpro tocol
Ġuse s
Ġv m
t k
Ġcalcul ate
oc ation
Ġchange d
G raph
ase s
log y
Ġdecor ator
Ġth ose
rib e
ĠX ML
di c
Ġde tect
du ce
app ly
Ġt rig
ĠIn valid
file path
Ġpro gress
ta b
su ffix
sort ed
bu f
Ġh o
ĠQ u
Ġb ot
() ]
s ym
ĠOn ly
change d
Ġ1 6
bu cket
M an
Ġlook up
Ġde c
element s
Ġf name
comple te
St atus
(' --
Ġ ,
I G
Th is
Ġp andas
2 2
link s
A l
ut er
en se
Ġtra ck
St art
Ġ{} ,
Ġpk g
I ter
comp ile
Ġa mount
__ .
to re
main ing
w rit
PAT H
er ature
Ġ' ')
) *
ifi ed
I M
ist ics
d ownload
ok ie
Ġmin imum
le v
pt er
2 00
ww w
ve lo
Ġchild ren
ĠB y
data base
g ate
ERR OR
Ġmem ber
Ġcomp onents
so le
fa ces
N umber
ĠOther wise
Ġs lice
cont ents
ac y
ut ton
PO ST
n n
Ex ec
Ġcon ver
Ġaut omat
V ersion
ug ins
Ġ" _
g t
ass ign
ax es
SI ON
im er
ĠRe ad
Ġma g
Ġ/ /
Ġsc an
Ġlib rary
on s
Ġsup p
Ser ies
mult i
oc ab
ĠCon fig
-+-+ -+-+
o ms
D S
Ġpre v
f req
n one
C S
s ig
s im
Ġan other
fa il
e val
f ont
i ew
mon th
vi de
Ġfinal ly
Ġ[ (
Ġnum bers
le x
ur se
t ty
Ġh y
Ġr ate
Ġcommand s
Ġa bove
} }
de tails
Ġang le
Ġsum mary
Ġc andid
Ġf etch
base name
exp and
res ses
ĠCon vert
Ġre lation
Ġac cording
M ap
resource s
] *
O P
Ġe tc
sh a
channel s
U M
pub lic
= _
ĠRe move
ar m
ype s
gener ate
Ġt ensor
Ġcent er
Ġst ates
F or
I S
.. ..
5 01
Ġas ync
ç ļ
: -
Ġk ind
Ġsub process
Ġd at
' re
Ġali as
pk g
) /
ra g
Ġb ar
ifi er
Ġpub lic
ĠB u
are a
sh ip
ad min
çļ Ħ
Ġth reshold
ĠĠĠĠĠĠĠĠĠĠĠĠĠĠĠĠĠĠĠĠĠĠĠĠĠĠĠĠĠĠĠĠ ĠĠĠĠĠĠĠĠĠ
to ol
Ġver ify
s igma
L ine
ag ent
Ġf uture
Ġpro duct
R A
e ff
ast ype
F rom
D esc
Ġ" -
Ġex pi
Ġc lasses
je ction
C ode
andl ers
Ġdim ensions
(' .
Ġid ent
6 6
ro py
el ls
} /
ic le
Ġoper ator
SE T
Po int
Ġde sired
Ġset up
Ġne cessary
Ġker nel
mem ory
a bel
sc an
script or
u int
sa fe
Ġre pository
Ġs pe
gen e
ĠN O
miss ing
Ġcurrent ly
0 5
sp ath
t z
f un
hist ory
g g
th reshold
ĠY ANG
su bject
pl ugin
Ġma ster
li es
ĠA ll
Ġexec ute
ma ss
Ġstart ing
Ġ( %
col ors
Ġcont rol
re set
Ġinst alled
ic ro
ci py
Ġ[ ],
Ġb ro
Ġb ind
Ġst derr
Ġt y
Ġresource s
Ġexception s
c d
å ı
i fe
ĠY ou
A s
ol ved
A GE
ces ses
ĠF ind
0 3
part ition
Ġoc cur
Ġinclu ded
Ġc fg
ib ility
one s
op s
sh ort
M S
straint s
D o
at ches
Ġ" {}
r and
log in
se gment
filter s
H TTP
Ġgen e
Ġre set
per ation
Ġen coded
Ġpa cket
"] .
Ser vice
Ġas ynchronous
ĠArgument s
oper ation
con s
Ġign ored
in es
se ss
ĠS peci
Ġs hell
atter ns
par s
o ot
'] ))
Ġp ut
Ġword s
vid ual
Ġwe b
Ġb its
Ġuser s
Ġs ide
f p
o gram
ĠĠĠĠĠĠĠĠĠĠĠĠĠĠĠĠĠĠĠĠĠĠĠĠĠĠĠĠĠĠĠĠ ĠĠĠĠĠĠĠĠĠĠ
ĠT rans
Ġre ason
extra ct
Ġre lease
Ġcall s
Ġpart ition
b ranch
Ġter min
b ins
comp onent
cate gory
Ġvalid ation
not e
gor ies
ĠPar se
pro tocol
Ġorig in
in f
Con nection
medi ate
ĠIO Error
AB LE
Ġp ick
Ġup load
per cent
Ġde termine
: \
be fore
ĠUn i
P AR
Ġsi mple
T ree
m id
ri c
alcul ate
2 3
h s
comp ute
Ġcate gory
) "
s leep
Ġin v
und le
in valid
ret ry
ymb ols
argument s
d raw
pa ir
be ta
th is
curs ive
en abled
fa ctory
Ġd uring
Ġme asure
c r
Ġc lear
Ġd uration
lo ts
Ġtuple s
iter items
St r
Ġs calar
Ġal ong
Ġlo aded
rid ge
AT A
cl us
f inal
Ġfa st
] ])
b ed
s d
Ġw ell
sk ip
di fy
ik i
Ġ[ ])
inis hed
---------------- ----------------
re pr
struct ure
ctor ies
â Ķ
Ġe ffect
set default
Ġraise d
__ (
Ġback end
T ML
al ity
Ġs igma
ho me
F ilter
L ay
ne ctions
Ġp ad
Ġd st
qui val
Ġco unter
Re cord
fi rm
"] :
mat ches
Ġav oid
Ġ ),
ls o
F OR
X X
bin ary
d rop
pri ate
i fact
Ġbe gin
comp onents
Ġto o
Ġ" --
| '
ex ample
Ġde leted
Ġa p
and s
Ġmon th
p ad
Ġa st
set up
Res ource
da ys
crypt ed
Ġf requency
lo ss
ind ent
in v
ĠP re
ur al
Ġca ched
Ġmo dified
h igh
ent ries
% (
Ġbe low
Ġse ns
tra ck
gra de
is file
{} '.
Ġsupp lied
7 5
dered Dict
Ġd uplic
prec ated
k s
ist ent
Ġvari ant
: ])
p d
ance l
block s
g ers
re p
Ġd rop
8 6
cond ition
O f
Ġex pect
Ġset s
TI ME
as cii
c ert
9 0
Ġne ighb
O bj
fo und
Not Found
tri eve
C ould
ĠI N
ar s
)) .
D efault
Ġmo ve
c ing
Ġ[ [
Ġagain st
Ġappro priate
ĠCo mmand
dim ension
g ree
Ġen abled
re r
pac ity
Ġretri eve
fra c
um b
command s
s in
cat alog
8 4
G S
alle l
F e
ĠA lso
Ġst ri
our s
red u
mpl ates
) '
Ġspeci al
lay out
Ġon ce
Ġautomat ically
image s
ult i
con cat
O ption
sc ape
Ġra dius
Ġn orm
Ġ ))
Ġex port
ĠH e
t w
Ġcol ors
i mp
Ġhe x
record s
Ġn s
l ing
Ġs aved
spa ces
Ġm ight
or iz
i i
t d
Ġabs olute
re at
gre es
Ġc ut
n b
dir s
Ġfe ed
Ġconvert ed
p b
Ġen able
Ġin cre
Ġs napshot
Ġc sv
Ġme sh
Lo ad
Ġd ot
ne ighb
BU G
Ġat om
user s
sing le
go ogle
T S
ar ange
A ttribute
AC K
mg mt
ĠIn put
Ġtrain ing
v l
con v
ant ity
il ities
U B
( \
2 7
re ct
Ġar r
si dered
C lo
pro duct
Ġper cent
Ġre quires
C a
T ra
Ġversion added
To ken
av ing
Ġi mplemented
Ġt ab
Ġle t
j s
Ġa ctions
se cond
o o
at om
") .
) }
Ġex act
defin ition
re ssion
sign ature
en um
Ġk nown
Ġmodule s
Ġfig ure
Ġfail ure
Ġrece ived
Ġus age
M M
u ous
Ġlo w
W e
o ugh
Ġcheck s
it ed
me sh
ro t
O L
li p
host name
ĠL og
di ent
ĠI mport
Ġcon sidered
Ġform atted
d st
j or
Ġe mbed
me mbers
'] ]
Ġs ig
Ġre p
riter ia
en gine
Ġreg istered
A ction
run ning
ĠNot es
serv ation
Ġbu f
Ġ' __
ho od
Ġp ers
we b
create d
or ary
C annot
W idget
W arning
Ġc redentials
Ġs cal
={ '
Man ager
Ġp adding
Co mmand
Ġapp lied
Ġexec ution
is o
Ġy et
Ġas set
Ġr ank
Ġare a
Ġ2 0
ĠB o
Ġprovi de
indow s
di gest
Ġse ed
Ġoutput s
y aml
S ource
ĠC an
Ġset attr
re ce
Ġan s
u ff
ren der
k ed
Ġy aml
ex pression
Ġover write
V iew
Ġg it
r al
Ġin side
( ?
source s
Ġle g
O ptional
d uration
ĠP o
Ġde termin
ĠD is
ĠLo ad
ri ption
ĠE ach
"] ["
' |'
d x
un ch
9 5
ha vi
ex clude
( ',
A SE
m er
Ġre direct
sh ift
cont rol
S ER
ot es
Ġbound s
se par
Ġ ve
Ġst eps
Ġse quences
mo oth
Ġnormal ize
Ġwrit ten
Form at
Ġd ump
os id
Ġe ven
ĠT e
ad a
= -
stru ctor
the ta
. ",
limit er
D ef
al g
ron t
P S
Ġst rip
E M
t ensor
M o
ver ify
Ġpart ial
Ġde code
ĠI d
ub e
e mon
( __
T A
Ġpre c
Ġg ot
Ġ---- -
s ur
') [
4 0
se ed
Ġdefin ing
sum er
pro c
process ing
ĠQ t
Ġsource s
a ut
A t
O S
i li
Ġlog in
config uration
I C
Ġarch ive
Ġpro blem
Ġexp licit
Ġs n
Ġ{} )
V E
c um
Ġpos itive
or ld
av a
t ile
in c
id ent
pro vider
ĠDi ct
Z E
vari ant
Ġcount s
bound s
= ""
Ġw in
Con vert
se m
as set
quival ent
s hell
x im
A c
ĠĠĠĠĠĠĠĠĠĠĠĠĠĠĠĠĠĠĠĠĠĠĠĠĠĠĠĠĠĠĠĠ ĠĠĠĠĠĠĠĠĠĠĠĠĠĠĠĠĠĠĠĠĠĠĠĠĠĠĠĠĠĠĠĠ
d le
B ox
Ġsm all
an is
Ġe poch
Ġneg ative
__ .__
L ink
Ġk now
d river
me asure
\ '
ĠO pen
Ġne sted
Ġrule s
S pec
V I
vari ance
L IN
Ġn b
e cho
me trics
Ġat tach
F unction
25 6
gener ator
pri vate
ife st
Ġs l
v as
9 6
s ync
Ġto ol
ï¼ Į
message s
ier arch
Ġp id
row ser
as ync
ĠO bject
Ġd s
Ġma c
ab spath
li s
ynam ic
Ġ util
Ġin spect
Ġpro cessed
Ġor g
Ġpro gram
n dim
} :
Ġtake s
U E
s y
p latform
orig in
av ailable
Ġ# #
Ġst ill
back end
Ġc ir
, '
C P
8 5
Ġc la
Ġme trics
Ġprocess ing
act iv
Un able
p df
w riter
Ġ' '.
Ġm id
target s
Ġtarget s
Ġdesc rib
yg on
h idden
un pack
ĠRe quest
3 5
__ __
inte ger
Ġre pe
` :
Ġfile path
Ġsa fe
string s
bo ot
O K
e poch
St ream
Ġco effici
ex pi
Ġiss ue
3 6
Ġa verage
. ',
Ġd id
Ġmap ped
mit ted
= ['
r atio
Ġrel ated
_ )
on al
Ġre ply
Ġpackage s
as is
Ġwork s
r r
Ġchannel s
Ġnot ification
Ġmark er
M et
di ag
be st
Ġstate ment
P RE
au ss
Ġcon struct
Ġ å
di v
be gin
' "
Ġle ss
Le vel
ĠBu ild
Ġp latform
Ġma chine
e ver
ul a
fer red
Ġm d
Add ress
rule s
ne g
Ġsi mp
Ġp ower
Ġro und
Ġspecifi cation
ou ble
end er
=' ',
reg istry
Me thod
Ġs y
Ġ' <
Ġ1 000
ĠĠĠĠĠĠĠĠĠĠĠĠĠĠĠĠĠĠĠĠĠĠĠĠĠĠĠĠĠĠĠĠ ĠĠĠĠĠĠĠĠĠĠĠĠ
Ġversion s
Ġag greg
Ġde v
Ġen gine
ron g
h y
h ing
B lock
read er
Ġh app
iter able
Ġblock s
Ġman ager
p an
Ent ry
Ġ( :
ĠCon t
Ġ Error
Ġal t
C all
s cheme
fi d
i ed
Ġimplement ation
OR D
Type Error
Ġn one
qu are
pro gress
Ġpri mary
Ġt ile
Ġ' )
ill ar
Ser ver
H O
st it
re quire
ir st
str ument
oc ument
up load
la g
Ġ ~
Ġid entifi
Ġlat er
S ystem
z y
Ġmake s
corre ct
I mplemented
qu ote
pre di
Ġmat plotlib
p m
EN T
Ġconnect ed
ĠOS Error
ly ph
lin eno
Ġreg istry
se e
re sp
Ġvi rtual
ru pt
Ġp r
Ġ[ -
Out put
S A
Ġwork ing
Ġpi pe
ä »
[' _
ul er
Ġinter pol
Ġpi peline
Ġres pect
Ġs at
dire ction
Ġex pr
Ġtop ic
Ġbe ta
Ġco ver
Ġdata frame
Un known
c kets
co gn
ĠIn itial
E nd
ĠĠĠĠĠĠĠĠĠĠĠĠĠĠĠĠĠĠĠĠĠĠĠĠĠĠĠĠĠĠĠĠ ĠĠĠĠĠĠĠĠĠĠĠĠĠĠĠ
ĠB e
orig inal
Ġag ent
is dir
ta ck
c m
ust ers
p red
Ġin ner
ut or
Ġb ins
Pro per
ĠRe g
S tore
Ġ\ '
d l
c u
ĠO ut
Ġiter ation
Ġfix ed
T ag
ĠI ter
Ġiter ator
Ġback ground
d one
Ġse lection
ĠComp ute
a a
er ies
Ġfil tered
Ġre maining
est im
stat ic
Ġc ert
Ġow n
top ic
Ġp otential
o om
key word
Ġcol s
ser ve
ep copy
en u
coord in
table s
S ign
m ar
ĠF orm
ĠSt art
po wer
Ġph ase
Ġf req
ge o
Ġbase string
Ġd ig
ss h
li er
ĠF I
Ġtask s
esc ape
task s
f ree
` )
tain er
Ġpart ic
] ],
ĠĠĠĠĠĠĠĠĠĠĠĠĠĠĠĠĠĠĠĠĠĠĠĠĠĠĠĠĠĠĠĠ ĠĠĠĠĠĠĠĠĠĠĠĠĠ
Ġmat ched
Ġwork er
ĠThe re
sess ment
ĠG iven
m k
co mb
7 0
Ġs cheme
Ġpro vider
Ġc p
P a
ĠS ub
Ġpre dict
Ġst age
mo st
H el
M ode
Ġre ci
ĠC ode
output s
al ly
A d
ĠB ase
ect or
Ġcol lections
ip s
Par ams
Ġindi vidual
ĠCreate s
Ġ[ {
Ġl ate
AL L
Ġs cipy
Ġ' :
trans action
Ġcoordin ate
. '.
package s
b r
Ġcomp ar
fi ed
d n
Ġsp an
cry ption
f amily
log ical
us age
Ġact iv
FI G
R ange
so ck
N um
own er
IN T
mag ic
pro b
Ġs olution
ip v
Col or
Ġse p
Ġhost name
Ġc b
z en
Ġse curity
ser vices
Ġs pa
ch or
Ġen er
ĠNot Implemented
g z
Ġcase s
e mbed
Ġco re
E d
R ow
Ġpri or
Ġ* =
ext ension
Ġlay out
P TION
EN D
Ġsim ilar
s age
h older
f c
Ġmo difi
Ġma ss
p g
re en
ĠN ode
) +
ue ss
Ġdocument ation
c la
or ing
du ced
RO M
Ġsur face
Ġme mbers
2 6
P art
oper ator
fl ush
li hood
st o
Ġhist ory
ot ype
t ic
Ġcoord s
G B
e m
cp u
w rapper
) \
ST R
ĠGener ate
ol ds
Ġinte gr
par sed
(' _
te in
AN D
Ġuse ful
ai lf
7 8
Ġlink s
Ġit self
Ġse c
J ob
ren cy
cre en
Par ameter
ĠLOG GER
ĠH TML
Ġ æ
Ġe lem
ĠF unction
Ġtable s
ĠIndex Error
Ġchunk s
Ġ ?
Ġreturn ing
bo s
se curity
a ctor
Ġhe lper
fl atten
Ġadd r
Ġpos itions
) -
in ternal
W rite
s cal
ver ts
ĠID s
Ġre n
(" -
Ġ\ \
stru ction
f alse
Ġf ore
in ner
re lation
ce ed
ra ps
) ',
Ġcon v
fe ed
âĶ Ģ
D ir
ref resh
ker nel
Ġcat alog
medi a
Ġp s
Ġfor ward
) **
up ported
Ġreg ular
AR N
de lay
Ġpar sing
Ġnormal ized
work er
request s
sen ce
~ ~
load er
Ġcur r
Ġn ull
part ial
se g
Ġt ick
Ġconfig ured
Ġcon version
tt p
ĠOr deredDict
ed it
Ġcre ating
ss l
i j
L L
Ġo bs
Par ameters
at tach
ĠA c
Ġallow s
, ))
ref s
Ġre ct
pt r
Ġcompat ible
Ġoper ations
p ng
Ġex periment
sh ut
S u
(' :
ac cept
on d
w iki
ME NT
r pc
an alysis
ra ct
ant i
Ġwrap ped
Ġal tern
Ġ â
t p
al f
arg in
Ġe ps
pa irs
ransp ose
ĠD B
pre v
Ġpre tty
Ġbe havi
Ġauth entication
Ġcalcul ated
re verse
Ġho ok
I nt
ĠĠĠĠĠĠĠĠĠĠĠĠĠĠĠĠĠĠĠĠĠĠĠĠĠĠĠĠĠĠĠĠ ĠĠĠĠĠĠĠĠĠĠĠĠĠĠ
d c
cho ice
function s
Q t
DI R
ĠU RI
Re f
cre te
id entity
cal c
Ġad min
b ig
P A
al ance
Ġd ue
Ġa round
Ġres olve
Ġdepend encies
Ġan aly
sl ug
') ]
Ġnot hing
tri es
ĠC all
ĠI mage
Ġattemp t
. \
Ġd river
as sert
Ġe scape
li ct
dis k
fast a
e qual
u ses
ĠA t
Ġlo ss
pro to
rag ma
{} ".
Ġ< <
Ġe qu
Ġsome thing
ra di
Ġser vices
Ġf d
Ġm x
Ġdi ag
t l
form s
" \
M AT
c wd
fl ux
b am
s napshot
9 4
S p
Ġa u
po se
Ġpartic ular
at ype
Ġwh ose
Ġline ar
SI ZE
Ġcol lect
Ġres id
host s
Ġex ternal
quest ion
opt im
Ġ6 0
Ġpix el
ta ge
Ġprec ision
Ġval s
fa iled
* .
i pping
1 000
F ind
c ript
ex port
Ġde ploy
] ["
re v
as array
Ġde lay
b reak
app ing
Col umn
Ġi o
ra dius
ĠM ax
Ġtemp erature
Ġb ad
U ID
Ġ1 5
to ur
Ġdef ine
Ġkeyword s
f in
pt ure
ĠS alt
ĠO ption
ĠH ow
el se
stra ct
p ing
CO L
o unt
av es
Ġstri ct
Ġt s
Ġr atio
Y Y
ierarch y
m ut
old ers
De vice
or th
id er
ong o
AC E
7 4
f time
line ar
_ (
arch ive
ation Error
pi ck
ĠW rite
vo ke
Ġp ur
""" ,
pos ure
Ġindex es
cal cul
w b
v ol
for ward
ator y
s cores
il ing
Ġp lease
Ġse cret
P UT
att ention
Ġb lob
select ed
um an
Ġresult ing
ĠH andle
C M
Bu ild
Ġgre ater
Ġre ader
ist ic
Ġter ms
Ġtrig ger
last ic
se ek
l st
MA X
ag greg
Ġ: ]
(' {
ĠO ne
clus ive
ter ms
Ġbo ot
r um
Ġt ran
oriz ont
Ġt or
I f
Ġis n
ction aries
con figs
ĠC alculate
DE BUG
Ġbut ton
pl an
2 8
[: ]
v lan
Ġc ertificate
ĠAr ray
TE D
" >
Value Error
cl ar
Ġread ing
Ġact ually
/ '
Ġdire ctories
Ġda ys
ĠNotImplemented Error
co ver
ran k
Ġs cores
Ġsepar ate
co v
p x
pre dict
Ġfilename s
Ġed it
W ork
res olve
LE CT
O pen
[ (
Ġst o
rst rip
Ġ" <
over ride
D ATA
Ġt urn
pro mpt
comp at
Ġbu ilt
vi ation
not ification
sup press
N E
Ġ ],
ca ched
Ġa da
H ER
Ġre pr
Ġma de
Ġcandid ate
Ġp atch
Ġwork flow
T ask
ul k
Ġvert ex
L abel
ut c
b utton
Ġe quivalent
]) .
b i
o ols
ĠMe ssage
un ic
l ar
or ter
sign ed
speci men
Ġen code
D yn
Ġs pect
ĠN e
ĠM odel
Ġinter pre
mark er
Ġp ack
Ġsh util
men u
A uto
ĠC lo
Ġd en
Ġthe ta
Ġlay ers
ys ical
Ġsub set
qui et
Se arch
res id
ĠRes ponse
Ġ3 2
a w
ĠP O
de tail
Ġu id
ĠF ilter
Ġper missions
RE D
Ġref resh
Ġap pe
Ġun known
IN FO
n u
c andid
ward s
Ġf s
Ġg u
b and
Ġ' #
connect ed
Ġge ometry
B O
ed itor
en able
en vironment
min ion
so ft
Ġmerge d
A ll
C L
å Ī
ĠM A
M ax
Ġse en
Ġse gments
normal ize
s r
ĠS o
instance s
Ġinclu ding
redu ce
ut ype
Ch ange
frame s
p us
Ġw riter
il er
Ġs witch
ĠDi ctionary
7 7
P Y
rit ical
ĠW indows
Ġper mission
OR T
se lection
u ble
mo dified
d p
Ġout file
**** ****
+ '
P ER
ig en
Ġu uid
Ġ`` '
Ġupdate s
cli p
pri ority
inis h
li ces
list s
Ġnum eric
Ġid entity
dest ination
b ank
t ol
on ical
se ctions
Ġindic ating
Ġclo sed
e lem
ra se
ĠNO TE
Ġread s
Ġow ner
h i
tick s
ue ue
bos ity
g lob
Ġth ree
Ġcur ve
I F
e q
T ensor
am ount
Ġsh ared
re ply
Ġmult ip
Ġor dered
ext methods
Ġext methods
unk nown
sem ble
Dyn Class
ul ated
index es
Ġpro to
ĠQu ery
ĠImport Error
Ġde precated
istr ation
ĠT ra
Ġno ise
lib rary
clu ded
b us
C ur
Ġre cursive
ĠA ss
Ġfl ux
Lay er
Ġpro c
re pository
n l
è ¯
orizont al
Ġs w
D D
ran t
b lob
N etwork
Ġcheck ed
V ariable
Ġ jobs
ĠU T
Ġcomple x
Ġb el
gn itude
A ME
s w
url s
Ġdefin itions
Ġc ells
il on
Ġ: :
en ate
Ġe val
Ġh and
(" --
Ġpri ority
az ard
Ġmedi a
^ {
re ason
(' .')
Ġob tain
Ġt z
:` .
key words
ou se
Ġassign ed
Ġ3 0
Ġlook ing
pro ps
p ush
an ded
base d
gra d
Ġretri e
ad ing
um my
ad o
fig ure
Ġent ire
e mit
Ġp ragma
P age
c n
Ġ ).
ta ched
Ġco st
3 9
Ġcom ments
I ST
Ġs ync
L ength
Ġvector s
se lector
re ctory
Ġc ross
l t
p ot
Ġtrans ition
i ver
P U
str ftime
ĠM ust
. ".
S D
const ants
pe ak
b ad
Ġannot ation
Ġener gy
) (
H andle
Ġcal c
. %
A ct
Ġad just
wh ich
Ġexp and
i ms
ge ometry
Ex ist
Ġman age
Ġstat ic
er a
Ġ" '
vis ible
t ar
cal ls
Ġfa ils
> "
ĠSet s
f fici
t ransport
C A
Ġp mag
Ġco urse
ĠF irst
Ġs parse
Ġcomp are
ver sed
sup ported
h andlers
get attr
Ġbot tom
auss ian
J SON
VER SION
Ġge o
Exec ution
Ġs chedule
Ġb ig
page s
SI G
CON FIG
lis hed
ry pt
or dered
is on
ĠM o
Ġf un
read s
ĠIn ter
Ġor d
/ (
Ġe s
M in
Ġde vices
" '
) ;
() ),
N G
Ġrot ation
at rix
Ġ'{} '
Ġm ot
ĠT ext
'] ),
Log ger
p andas
tri g
allow ed
level s
Ġkey id
pi peline
([ [
Ġca st
u ation
Ġdi ctionaries
ad cast
par k
Ġf ree
are st
Ġgo od
Ġf lat
pa cket
do cker
man y
er red
Ġun pack
Ġpe ak
ched uler
a N
per s
Ġconst ant
r d
find all
FI EL
bo olean
_ %
i cip
Ġpix els
ked irs
ĠOut put
ĠT ry
c ar
ĠA uth
US ER
Ġm is
Ġe p
Ġv ol
Ġph i
k it
ns ure
ites pace
pl ugins
l ang
g ent
Ġs creen
Ġd ensity
Ġsa mpling
Ġso ck
Ġpe er
re direct
Ġtime zone
################ ################
PI PE
Ġcho ice
C an
is instance
FI X
I I
Ġ' ':
Ġindic ates
st age
we ek
Ġcomp uted
de rer
sub process
ĠSh ould
Ġpro mpt
Ġmo unt
ĠN OT
Ġr v
Ġdo uble
ro y
stra p
ue st
end ar
plo ts
Ġre ferences
sc reen
n r
Ġn x
ĠN ew
ex ternal
Ġlate st
R ed
() ``
version s
7 6
HE AD
j ac
0 6
Ġsh ift
f lat
"] [
ix ed
Ġlar ge
O ver
Ġm ut
ĠThe se
pri ce
P ri
ble ms
ON E
ra m
run time
25 5
Ġg lob
w alk
it ation
ma chine
F S
il ent
ind s
i red
ĠC O
Ġspe ed
UL L
Ġdoc string
2 1
Ġtrace back
ĠĠĠĠĠĠĠĠĠĠĠĠĠĠĠĠĠĠĠĠĠĠĠĠĠĠĠĠĠĠĠĠ ĠĠĠĠĠĠĠĠĠĠĠĠĠĠĠĠĠĠĠ
Ġde scriptor
Value s
Ġder iv
ing er
lin alg
= ='
mo ves
Ġin place
ĠĠĠĠĠĠĠĠĠĠĠĠĠĠĠĠĠĠĠĠĠĠĠĠĠĠĠĠĠĠĠĠ ĠĠĠĠĠĠĠĠĠĠĠĠĠĠĠĠ
st ar
_ :
work flow
Ġframe s
C TION
a ws
Ġqu ote
(" /
si mple
de vices
name d
Re move
per m
w n
æ ĸ
update d
Ġt ar
j a
t od
ĠS T
bu ilder
Ġrun time
at ial
Ġf h
ca p
4 4
I s
b g
comp ress
s witch
': '
ĠPro cess
Ġde grees
pub lish
Ġra di
pre pare
X T
pro t
Ġsent ence
s calar
> '
al th
Ġdo cker
is h
A pi
Ġ ])
se gments
Ġd ry
Ġm s
andl ing
ex cept
. '''
r ho
w t
Ġcond itions
Ġr h
Ġs sh
ra d
Ġse lector
W N
un set
` ):
å Ĳ
Ġw a
Ġmo dify
Ġde limiter
Ġfl atten
ĠB ack
re lative
curs ively
depend ent
at ic
Ġd x
Ġs yn
de g
--- +
char s
ĠT uple
Ġlimit s
D U
Ġassume d
ly ing
A ccess
Ġfa ce
and atory
ĠO ver
Ġauth entic
lo gs
Ġpop ulate
exist ing
s olution
Ġurl lib
Ġlevel s
encode d
Ġcho ices
t or
se ct
l v
æ ľ
Ġun less
S V
Ġmin utes
ose n
thread s
Ġqu al
om ial
è ¿
Ġone s
split lines
Ġc er
co very
Re ference
mon itor
F C
W ith
Ġthread s
bot tom
a ff
Ġb and
He ader
Ġn u
ĠC lient
ran ches
Ġrepresent s
al et
ĠA WS
ĠE lement
g amma
Ġm ime
Ġse g
Ġvert ices
gra ms
lap sed
Ġme as
P L
ĠS top
mpl er
cur acy
ma ps
Ġr c
Ġres olution
ĠO peration
CO DE
ro id
Name s
s ites
me s
Ġsub class
clo sed
c ss
co d
cal ly
ĠT ensor
Ġh idden
ĠD esc
Ġsh a
Ġsub net
Ġpub lish
ĠRes ource
LE TE
fid ence
Ġ2 4
dis able
De lete
Ġalign ment
Ġevalu ate
split ext
Ġvi de
p adding
Ġg ate
Ġre cent
in i
se mb
s chedule
-------- ----
Ġtemp orary
f requency
Ġre cur
ir d
se l
ro les
d ouble
Ġclo ud
ient ation
Ġim mediate
li ance
pt ime
2 9
Ġpar allel
8 8
Ġadd ing
OR Y
Ġver y
S L
Ġse nder
c redentials
po logy
sup er
rel ated
q q
vi rtual
ĠUni code
( %
e valu
r gb
re pe
ff set
Ġx y
Ġco pi
Ġauthor ization
Ġf amily
Se quence
serv ations
Con tainer
late st
B e
Result s
ff t
Ġr df
B o
n c
Ġb asic
de cor
MA P
Ġco s
cont in
On ly
yste ms
depend encies
iz ing
b lack
te ction
ĠG raph
ener gy
st mt
Ġe v
co st
Ġsub scription
ate gy
comple x
Ġstart ed
Ġdict s
Get s
pol y
lev ant
al e
Ġcom ma
N OT
b ias
Ġ1 9
ĠT ake
ĠĠĠĠĠĠĠĠĠĠĠĠĠĠĠĠĠĠĠĠĠĠĠĠĠĠĠĠĠĠĠĠ ĠĠĠĠĠĠĠĠĠĠĠĠĠĠĠĠĠ
R R
n x
Ġw atch
ĠP lease
pri mary
Proper ty
P ort
Ġsuccessful ly
k a
ĠW ork
Ġcall er
D ATE
b asic
h our
Ġinitial ize
dist ribution
Ġal le
Ex t
4 5
M I
Ġ2 55
cate gories
Ġcon structor
tri e
N e
Ġlocation s
Ġsens or
Ġp ull
'] ):
Ġdiffe rence
3 1
S peci
m ot
Ġp atterns
Ġadd resses
act er
a verage
ind er
Ġdoc s
Col lection
Ġfra ction
Ġcreate s
Ġde cimal
de ploy
ur ations
ch r
us ing
gener ated
Y ou
Ġ( -
Ġpre ss
b re
Ġa z
ma kedirs
Ġhost s
Ġw x
di git
ro uter
Ġlin eno
s izes
0 8
g l
Ġprobab ility
d uplic
( ["
C RE
cli ck
ĠSer ies
v ocab
} ]
Ġe ar
Ġ" )
ph ase
ume d
ro po
Ġcont roller
Ġiter ations
Ġcheck ing
A F
U p
Ġcon tact
d m
ext ensions
Ġover lap
Ġhapp en
ARN ING
(' {}
Ġp red
lo ur
jo int
pend ing
% %
i or
Ġpro cesses
Ġv s
pro g
ĠV M
! ")
ĠC ON
we et
ĠSt ate
Ġlong itude
ci rc
ĠA d
ch rom
ĠMe thod
Ġlo gs
time delta
com ing
alet te
u ch
ma jor
Ġart ifact
de epcopy
Ġquery set
Ġexec uted
Ġextract ed
F LA
y ment
er ical
Ġed itor
t le
ar c
f uture
Th read
' },
Ġcount ry
Con st
com ments
Ġbu ilder
Ġany thing
Ġspecify ing
A li
pro gram
Ġraise s
Ġ5 0
u er
in ary
speci fic
get her
diff e
c id
le af
-- +
Ġ( ``
HER E
Ġg amma
AT OR
r p
de cimal
ch an
an ization
Ġg ive
Ġevery thing
-+-+-+-+ -+-+-+-+
Ġt ransport
ĠT able
ĠEx ec
N ew
Ġch rom
CE SS
Ġv ocab
Ġwh ole
pl us
Ġc ard
G e
coordin ates
pi pe
RE QU
M atch
Ġinte gers
A A
i ke
k ing
Ġh ard
Ġpro jection
Ġte am
s parse
Ġdepend ing
Config uration
O F
location s
Ġl ang
Ġr ho
ĠEx tract
Met adata
ĠĠĠĠĠĠĠĠĠĠĠĠĠĠĠĠĠĠĠĠĠĠĠĠĠĠĠĠĠĠĠĠ ĠĠĠĠĠĠĠĠĠĠĠĠĠĠĠĠĠĠ
Ġsign ed
ul ly
s yn
ĠS QL
âĶĢ âĶĢ
99 99
w raps
Ġcon straints
fix ed
b b
Ġbound ary
Ġper m
Ġcode s
> ,
ĠF ROM
Ġ'. '
de p
pe er
Ġrelation ship
Data set
Ġ ri
ren ces
P ol
Ġs v
Ġarg parse
Ġre duce
Ġb us
Ġpre vent
Ġqu ant
ne ed
Ġcon cat
Ġcre ation
Gener ate
Ġh it
cy cle
M IN
Ġstart s
gate way
v a
it al
rec v
Ġ1 1
Ġlat itude
mult ip
g ap
Ġx range
ĠG roup
æ ķ
im it
B ack
Ġb oto
c les
n ed
Ġinclude s
m is
Ġstat istics
y les
Ex it
Time out
] (
cor r
_ '
Ġco okie
ĠO R
leg end
Or der
Ġo k
ot ed
Me m
Ġs ymbols
, ,
pa b
Un i
ise d
ĠAdd itional
F unc
i con
ĠU sed
A x
C I
Ġcomple ted
, ),
Ġre v
ad just
{} )
) ``
ast er
Ġduplic ate
te p
Ġ'/ '
ĠRes ult
t ranspose
mo ved
Ġpage s
Ġbehavi or
le c
ĠDe lete
Ġsepar ator
Ġne ver
AR T
' ll
po inter
att ice
Ġcalcul ation
T arget
de scriptor
valid ation
Ġsh ut
Ġdi gest
ĠD ef
(' <
ok ies
' ``
Form atter
Ġe as
ĠG e
Ġdepend ency
Option s
ent er
c red
at oms
Ġcli p
al gorithm
man age
Ġw rong
Ġpre pare
Ġper formed
co urse
m c
al lable
P T
ce l
) ],
E ST
Ġback up
Ġsupport s
Ch ild
ang les
: ,
Ġd d
Ġexplicit ly
Ġde gree
f fic
7 9
Ġm enu
spe ed
Ġrequire ments
c nt
E C
i mple
at ives
Ġmin ion
Ġau dio
vert ices
align ment
cal lable
Ġ"" )
os ite
view s
a il
g ame
ro u
Ġsimp ly
re ci
T uple
al an
di ctionary
eff s
Ġ= >
Ġinter vals
limit s
Ġcy cle
D A
L S
Ġb asis
In itial
Ġpri ce
pre vious
Ġcon nections
Ġcont ract
vide o
M odule
Ġm andatory
FOR MAT
Ke ys
Me ta
k ip
Ġf inished
Ġen ough
ĉĉ ĉĉĉ
Ġcheck sum
Ġen viron
Ġca use
Ġta ken
en ari
Ġrun s
Ġre spon
cre ment
n i
cont roller
chunk s
( ('
an it
ve red
Ġbet ter
wh ite
pri or
(" {
Ser ial
Py thon
) ')
D ist
ĠC urrent
CH E
Ġspecifi es
Ġpl an
cogn ized
> \
Ġlog ical
state ment
Ġdataset s
F T
P h
Ġcons ider
ĠĠĠĠ Ċ
c ross
Ġlon ger
V ector
Ġsh are
Ġvide o
C om
ag raph
Ġparent s
Ġ"" ,
C AL
v ance
range s
ĠDE FAULT
Ġre start
te ger
ĠR ed
Ġcon sole
umb na
al i
ok ed
Ġserial ized
Desc ription
6 5
ã Ģ
Ġs lot
ĠS end
Ġpre sence
scri pts
S chema
Ġget s
ç Ķ
annot ation
: .
S K
Ġappro xim
co e
Ġgo ogle
O peration
v or
ri ve
set ting
l ations
m x
pe t
ĠN etwork
ĠL e
Ġ vec
ĠP rint
per mission
ty le
Ca che
L ocation
Ġs yntax
ada pter
Ġs mooth
get ter
Ġres olved
Ġbl ank
Ġgen es
z on
Ġpl ugins
D ocument
P l
y es
vector s
Ġa ctor
Ġ( `
ĠN ow
" %
Ġl st
ĠGener ated
out file
Ġto gether
t i
Ġpo inter
LIN E
: ],
D R
g u
et c
Ġli g
ĠE nsure
loc ity
M issing
Ġex amples
min imum
max imum
ffici ent
p at
ur ther
Ġd jango
Ġd ates
0 9
C F
S U
Ġc c
co okie
av g
m icro
t un
Ġcoeffici ents
ĠW ill
Ġfa ctory
Ġpol y
Ġspa ces
Ġc map
p atterns
Ġcer tain
l uster
ĠF ield
Ġa m
ĠE vent
red is
w cs
an te
Ġ: ,
Ġresponse s
Ġr ather
Comp ute
Fe ature
li cies
ĠM ulti
Ġexec utable
de tect
am era
process or
tri p
Ġta il
ĠUn ion
Ġreplace d
ropo ut
> <
Ġ---- --
Ġgra dient
P rint
Y ANG
count ry
Ġst mt
cur ve
po sed
ild card
pos itions
at temp
MO DE
Clo ud
st andard
)) ]
Ġleg end
Ġestim ate
ri end
Ġans wer
Ġ( {
A UT
Ġp lay
t n
able s
se quences
Ġt ax
I ds
Ġ1 4
a ched
Ġmag ic
uto ol
H ost
p db
ĠS ome
A nd
U t
Ġs ol
ib ration
q s
Ġvalid ator
FF FF
S M
Ġst ride
th resh
] }
Ġs id
Ġre d
exec utable
ng ine
Ġse ctions
date s
Ġp ush
sert ion
cut off
ro zen
Ġcons ist
Ġpredi ction
Ġde p
abs olute
ĠIP v
Ġannot ations
A ss
a gs
z z
Ġde sign
Str uct
ĠD ate
ĠAdd s
Ġbegin ning
de velo
() }
ĠS p
", "
Ġf oo
Ġre vision
ĠH ttp
Ġpi e
bl ue
Ġtx t
Ġ ke
her it
neighb ors
te mplates
Ġma ps
} /{
vert ex
rou ped
list dir
Ġsl ug
P os
Ġout side
M ulti
ug gest
o auth
ent ities
Ġm p
Ġformat s
Ġinitial ized
Ġvar s
format s
Ġen crypted
ns upported
Ġab ort
cell s
3 8
w ave
Ġtrans lation
Ġe tree
Ġw arn
anis m
S end
h ow
Ġh our
mpl s
int s
Ġ| =
re es
pla in
az ure
ĠPO ST
Execution Error
Ġobject ive
ĠS E
Ġaccept ed
con tract
ĠS ave
Ġdo ct
Ġgener al
server s
Ġvis ual
================ ================
li d
w atch
(' [
ct ools
att ing
Ġto l
back up
A G
Ġ ur
fi es
sh ared
ph ab
Ġformat ter
b box
C ore
FIEL D
: "
s heet
parser s
Ġs ites
Ġac ross
SE LECT
X ML
Ġhist ogram
Ġp t
Ġon to
project s
en ch
ens ors
b ra
Ġp ending
dim ensions
Ġun able
Ġs s
lar ge
Ġf g
Ġb box
ĠG ET
M ake
length s
Ġ' +
ul ative
Ġtr unc
x s
Ġ er
Ġs ynchronous
A ML
s ymbols
Ġb undle
Ġtime delta
Te mplate
Ġident ify
im al
Hel per
col lect
lic ense
O UT
ri ces
Ġread y
gor ical
Ġexact ly
Ġe st
con ver
) ",
ss ib
D ec
Ġc riteria
Ġcon straint
Ch annel
="" ,
Ġm ig
am b
Ġth row
Ġdi rs
ĠM an
Ġpick le
Ġcandid ates
e e
requ encies
concat enate
ili o
gen es
Ġse ver
En abled
5 8
app ro
ĠSer ver
e v
out er
ĠKey word
che my
CO M
act ivity
e ffect
Ġ{} ).
ab ility
t ran
ĠD O
= ',
m v
Ġs izes
ol low
call point
vers al
phab et
ma v
å Ľ
3 7
ta u
ci o
R ule
he st
ex pect
Type s
ex e
ĠP lot
Ġw ave
Ġdis abled
auth entic
pix el
de leted
con sole
Ġh andlers
read line
Con nect
. /
Ġ 64
Ġe igen
Ġb ias
ĠA ND
wa p
inter vals
object ive
ĠSer vice
Ġder ived
m q
Ġin c
an aly
con tact
vel ength
Ġpass ing
Ġrange s
SC RI
v cf
Ġt rip
es ian
y label
ce eded
Ġde coded
Ġrece ive
b et
format ter
Ġestim ated
V er
ch at
Ġro ut
re name
Ġlo ader
O B
x label
Ġc wd
Ġtest s
y y
], [
back ground
p n
ĠS im
f w
Ġtrans fer
Ġassign ment
Po ol
con j
Ġh andling
ĠĠĠĠĠĠĠĠĠĠĠĠĠĠĠĠĠĠĠĠĠĠĠĠĠĠĠĠĠĠĠĠ ĠĠĠĠĠĠĠĠĠĠĠĠĠĠĠĠĠĠĠĠ
Po licy
() `
Ġwe ek
Create s
B ad
ĠGet s
Ġp lots
Ġreg ions
AR Y
G R
Ġent ities
so me
tuple s
gre en
Re ader
du ction
Ġmon itor
] -
h ip
æ Ī
Ġg uess
ub class
Ġvari ance
iss ue
r v
Ġver b
ad r
cur r
Ġcate gories
pro cessed
it ter
fi cation
ĠG o
sub set
Ġsub stit
V ar
Ġa ux
parent s
U RI
U rl
ff ff
sc ribe
G I
st all
ens ure
local s
æķ °
k g
ist ers
R C
Ġmid dle
inger print
I mport
Ġf ully
ĠIn stance
ĠSe arch
Ġprevious ly
('/ ')
la sh
ĠM ark
E CT
Ġ utool
Ġa ge
con struct
[: :-
ip her
dict s
G rid
j id
Ġre strict
ĠRe trieve
l u
o v
Ġ/ =
P lease
T est
Set s
const ant
ne sted
Ġadd s
â Ģ
t imer
Ġin verse
Ch ar
Ġsepar ated
Ġhy per
ĠI SO
no ise
mult iple
y thon
Ġdetect ed
E V
se nder
en c
Ġcl one
S QL
Ġ2 5
ile s
: '
Ġre dis
HEAD ER
cho ices
Te mp
A b
lif y
ac c
Ġn an
di an
å ¤
Ġf allback
ph rase
Ġwrit ing
Ġlist en
gener al
LOG GER
S N
T er
] =
Ġst ud
Ġcontain ed
Cont rol
Ġcomb ined
can vas
S ec
`` )
Ġvis ible
B utton
con straints
inte gr
rypt o
trig ger
me ga
Ġconst ants
Ġre levant
ge om
Ġte mplates
like lihood
Ġ` ~
f r
Ġqu eries
un ity
std in
.... ....
C ell
P ass
Ġe t
Ġoptional ly
Ġappe ar
Ġa mp
Ġh ome
LE D
in x
Ġprobab ly
Ġimmediate ly
er ial
ĠP ass
Ġch osen
VAL ID
vis it
! !
annot ations
U RE
i os
Ġbu ff
Ġar bit
ĠV er
ĠCheck s
h ref
ĠS ign
qui ck
b undle
im uth
Ġb ra
iv ing
array s
RE AD
fast q
LO CK
Ġtermin al
R ole
fi re
Ġro uting
Con s
Ġh ref
ĠFI X
ĠMax imum
vent ory
Ġindi cate
Ġfra gment
Ġembed ding
') ):
Ġlog ic
ĠM in
iter ator
vid ence
warning s
pi ent
Ex tract
Fa il
ma zon
By tes
to list
ĠC lass
sub net
W indow
Ġp an
it able
G P
sent ence
Ġa ffect
ex periment
data frame
s ame
Ġpro ps
Ġwh ite
Ġconfig ure
Ġdig its
Ġretrie ved
vo ice
Ġob served
ĠInitial ize
Ġc r
con nections
, "
V M
m ime
Ġunder lying
Q ueue
Ġc v
ĠE nt
Ġb order
mo re
Ġro les
Ġinst anti
Ġcompar ison
An y
ĠBo olean
num bers
umbna il
a o
se qu
dis patch
ĠSe quence
ĠClo ud
or ization
Ġstate ments
au dio
Ġasynchronous ly
W idth
b f
pro j
Ġat tached
ĠT est
ation al
Ġfloat s
medi ator
S o
Ġh uman
Ġgra d
l lo
Ġload ing
m ts
Ġbe come
que e
ĠN aN
! ')
a cl
å ħ
Pro file
comple tion
Ġneighb ors
in cip
ript or
M ed
_ [
d om
l ated
ĠA R
Ġcomp ression
Ġext ended
Ġpl ane
il li
ĠF e
Ġcompat ibility
as sessment
) .__
8 9
ys ql
0 7
c ancel
o a
ig hest
(" {}
Ar gs
ĠCommand ExecutionError
Ġs sl
clar ation
C C
c riteria
a ign
IN TER
b a
Ġbo ok
comp osition
s at
di g
Ġcon sumer
ir t
sur face
cl one
Ġman ifest
0000 0000
train ing
w orld
Ġlo cale
Ġsu c
Di rectory
h ard
Ġdown loaded
O per
h it
de t
ro ke
ĠN AME
Ġcomple tion
} },
ĠForm at
H A
Ġf urther
Ġdetermin ed
A ST
te am
out ine
LO W
ĠDe termine
fail ure
NotFound Error
Ġda emon
ful ly
Ġ question
on y
la gs
Ġpro blems
leg al
Ġsh ard
ĠAl low
Ġen coder
alcul ates
$ ',
, -
Ġ' "
Ġar c
ĠW HERE
Ġmo ment
P osition
Ġnote book
Ġmeasure ment
re vision
f lo
er al
ma y
vent ion
ide s
U TP
ret code
un ion
Ġimport ed
sertion Error
C re
r df
Ġm ar
(' #
comp liance
Ġp ip
ĠM ag
Ġsend ing
v rf
ĠD ec
ĠS up
Lo cal
window s
uff le
yn omial
ĠCont ent
p ur
ä º
Ġproper ly
Ġc um
Ġre comm
Ġurl s
ifi c
Ġincre ment
Ġserial ize
: ',
Ġf act
`` :
Ġlocal s
Ġvert ical
Iter ation
e ta
in ations
yn cio
Ġbyte array
ĠN ull
s ol
ag ing
contain s
f h
as a
per missions
Ġro ll
Ġf ront
ĠRe ferences
VAL UE
Ġdi alog
add resses
iter al
) `
Ġt b
inst alled
TYPE S
Ġb g
Ġb ug
Ġth ings
Ġconf lict
s ses
Ġdecor ated
H T
U ST
Ġp df
Ġcorre lation
... ,
C LA
() ).
err no
Ġb lack
ĠB lock
UTP UT
' d
] '
50 9
a ce
Ġ' [
)) ))
æ Ĺ
c map
l strip
ttrib utes
neighb or
P lot
In v
Ġact ivity
Ġport s
h and
iss ues
Ġreplace ment
Ġmu ch
enari o
C R
Ġz er
TE XT
Ġscal ing
Ġtri m
Ġe cho
ta int
inter section
Ġob servation
: ",
C B
W ORD
f its
lec ule
prec ision
expand user
Ġada pter
Ġre versed
(" '
kw ds
ĠE nd
Ġcorrect ly
U se
p illar
Ġgener ic
Ġaltern ative
Ġover rid
s olver
us r
Ġoffset s
Ġpop ulation
Ġs olver
Ġh ours
n m
ĠO PTION
sub scription
h dr
sp y
dataset s
he el
shut it
Ġs leep
ĠT ask
([ (
S Y
lo pe
Ġw alk
I RED
J ECT
hook s
sens itive
Ġh alf
Ġdis patch
Ġiss ubclass
Ġevalu ation
Ġpress ure
ĠFIX ME
sh ard
al ive
Ġin strument
ĠI s
require ments
w all
in ja
en coder
vi ded
mo difi
check s
Ġlength s
M B
Ġgen ome
: ")
W ARNING
Ġgo ing
get Logger
00 1
Ġpredi cate
Ġp at
Ġl s
R el
Ġco variance
sub mit
c v
c ertificate
St orage
speci es
writ ten
b rowser
Ġf w
Ġn ative
Ġdi ms
Ġtw ilio
S um
w x
de gree
__ ))
Ġro uter
Ġk lass
ST AT
Ġwait ing
fin ite
Ġa ble
de ps
ra ft
Ġend s
Ġc atch
S tyle
Ġc red
ãĢ Ĥ
irt ual
er ce
ĠTo ken
F low
si ble
Ġma gnitude
ĠD on
reg ions
ra vel
ĠN ormal
Ġpredi ctions
er ation
Ġlar ger
Ġi r
ĠDesc ription
Ġspeci es
Ġf all
as ing
ext ent
pol l
ĠL ine
c ritical
": "
Ġneighb or
Ġsmall er
h at
co ef
cl usters
Ġext end
Pro xy
Ġdocument s
Ġinterpol ation
W rapper
Ġtest ing
M apping
li ca
ĠC a
me try
Ġ`` (
Ġcomp utation
bu ilt
Ġhigh er
[ _
stri ction
cul ar
>` _
candid ate
ĠC IM
Ġchar s
Ġmeta var
U I
b oto
s lot
Ġth ing
man ifest
D ownload
u do
Ġd y
ĠS N
P ub
lear n
t b
st one
sup ports
å ®
ĠM ap
Ġcons istent
Ġdescrib ed
quee ze
ĠS ystem
code Error
Ġcomp ress
not ify
ĠĠĠĠĠĠĠĠĠĠĠĠĠĠĠĠĠĠĠĠĠĠĠĠĠĠĠĠĠĠĠĠ ĠĠĠĠĠĠĠĠĠĠĠĠĠĠĠĠĠĠĠĠĠĠĠ
Ġ< /
led ge
Ġq s
h params
i ence
pro bab
ur b
Ġinte rest
Ġsim ulation
neg ative
Ġc ar
os ome
Ġform ula
trie ves
Ġsignal s
ssib ly
Ġs in
'} },
B ar
ur ity
ĠS ource
Ġmodifi cation
filename s
Ġtrans formation
Par am
h ours
={} ,
Trans form
Ġcopi ed
({ "
Ġ9 0
Ġr gb
Ġat oms
medi an
çĶ ¨
Ġ Ð
Ġh aving
4 8
Ġg lyph
Ġbind ing
/ .
R F
d ensity
ĠI gn
ĠE ither
Ġc t
Ġs q
Ġdefault dict
RE S
ĠHow ever
w ar
Ġ ^
char acter
la ve
iz ers
__ [
Ġe c
sk y
Id entifier
le tes
(" .
ĠH el
inter pol
Co py
N UM
Ġst ypes
num eric
Ġsp in
Ġ1 3
gener ic
SC II
Cur sor
Ġi con
Ġto ler
ĠP h
calcul ate
ST ATE
global s
sens us
icip ant
in ct
or n
cond itions
s ince
Ġg ame
ag g
not es
Ġver bosity
diffe rence
A gent
è ¡
lo cale
serial izer
dimension al
å Ń
da p
Ġca p
Ġinter faces
re tries
ig uous
cur rency
riend ly
M ark
f inished
Ġtry ing
we st
S ave
b alance
lat itude
measure ment
s aved
Ġo ps
li ve
P ORT
a ps
sup port
sa mpling
ar ante
Ġp illar
ĠPar ameter
Ġpol ygon
stat istics
V is
W A
Ġ gs
co un
is ode
Ġg ithub
ĠSet ter
M atrix
Ġt imer
Ad min
Ġm icro
Ġattemp ts
x c
re m
xy z
st ud
)) [
=[ ],
st and
Ġpro b
gen ome
el ta
Ġprint ed
d ns
(' ')
comp ressed
Ġcut off
Ġb rowser
Ġw on
ĠCon verts
lo cate
Ġcomp ile
Ġcl usters
ge red
ult iple
Ġwh itespace
Ġac c
shape s
Ġstd in
Ġd ynamic
ĠCon struct
Ġarg v
Ġtemp file
qu ant
] ',
ĠS tore
valid ator
Ġre ached
AC T
offset s
è ®
Ġo cc
n ative
L T
p ull
se udo
st ation
Ġg p
semb ly
R oot
y e
al ect
pa g
L Y
per t
Co mm
4 2
V al
Ġ quiet
Ġup d
Ġcho ose
form atted
time zone
UN D
r h
Ġis o
ĠC om
inter faces
ak ing
Ġcon firm
ĠAs sertionError
Ġdoct est
U SE
or ator
I R
or ph
indi c
ĠCh ange
Fa ctory
ĠĠĠĠĠĠĠĠĠĠĠĠĠĠĠĠĠĠĠĠĠĠĠĠĠĠĠĠĠĠĠĠ ĠĠĠĠĠĠĠĠĠĠĠĠĠĠĠĠĠĠĠĠĠ
n or
il ename
ance s
Ġdistance s
re pos
ĠA mazon
trace back
ĠU sage
callback s
stru ctions
Ġdec la
: **
L imit
g ies
m ust
9 8
z oom
Ġwindow s
Def in
Ġmay be
Ġcoeffici ent
Ġtor ch
/ {}
Do es
" }
M T
ĠData set
spe cs
Ġbl ue
un ded
Ġex posure
]) ]
Ġle ading
Ġfast a
R PC
V AR
ĠN um
ĠSt r
0000 00
ĠSpeci fy
me t
ai lab
m ig
t m
ç »
Ġp g
Ġ( _
ĠG it
config ure
Ġpos itional
) ")
H ash
b p
he m
Ġsub mission
bo lic
____ ____
me ans
7 2
Ġan chor
Ġv ox
tri m
Ġdepend s
embed ding
repe at
Ġs quare
app a
Ġiter tools
> ',
ĠD ist
ĠE X
by ref
ĠOperation Failed
Ġs amp
trans ition
ield s
Ġweight ed
Ġbound ing
namespace d
Ġexp anded
æĸ ĩ
Ġn l
Ġin line
Ġra ster
mm ar
da emon
vis or
Ġspect rum
s quare
normal ized
- >
S UB
^ \
ĠD jango
Ġclass ification
ven ience
am ing
ca y
L D
L ATE
Ġprovi des
Ġ'- '
4 04
Ġorder ing
Ġequ ation
le arning
N N
m argin
p w
ĠP ol
ĠR O
ĠCon nection
Ġdescrib ing
res olution
im ize
Ġtra iling
relation ship
Ġeps ilon
b um
f path
re present
ri ch
Ġhand led
Re ce
ĠRe quired
=' '):
ĠU N
s ix
der iv
P ost
d jango
m time
Ġt en
C alculate
l n
act ual
Ġty p
Ac count
work ing
Ġopen ed
od b
Ġserial izer
trans fer
ro ls
ĠP ri
tw o
Ġiter ate
Ġarbit rary
g ence
Ġxml ns
C allback
Ġtrans formed
Ġre name
urn al
(" ,
Ġro om
T RI
le ts
ag ger
trans late
App lication
/ "
f ront
lin space
Ġso ft
Ġplot ting
N ow
Ġs ilent
]) [
Ġget ting
con firm
Ġcomp ound
crypt o
Ġreal ly
UR CE
C urrent
g c
w o
fil tered
TE MP
uni form
incip al
ĠM et
mat plotlib
DE LETE
ce il
Ġth resh
map ped
ject ory
j ava
Ġnot es
ĠP art
Ġpre serve
Se lect
Ġ"" .
Ġc ancel
check sum
temp erature
Ġo l
Ġ* ,
Ġv lan
sequ ent
' })
U nsupported
p v
work ers
ct l
W OR
Ġcan onical
mit ive
UN K
B Y
\ "
pro cesses
ĠX XX
oper ations
ĠPer form
AUT H
b order
Ġ% .
Ġch art
Ġcomp ressed
w ind
group by
tt l
wh en
Ġch at
Pro ject
' ve
in sum
File s
y lim
Set tings
tect ed
C LI
ĠApp ly
ĠStop Iteration
X Y
dig its
VI CE
t reat
run ner
AL I
ĠAdd ress
x path
Ġ( )
ĠS ince
Ġdefin es
desc ribe
t ip
Ġ10 24
Ġcorrespon ds
Ġlist ed
ca pacity
Ġle x
Ġclient s
ali ases
me as
Ġb p
([ ])
Ġvis it
Reg ister
df s
Ġform atting
B atch
Ġhandle s
Ġoccur red
b ridge
Ex pected
Ġqu ality
Ġdisplay ed
P open
out e
Ġnew line
al let
Ġpredict ed
F ont
L ib
Ġre cursively
Ġma king
Ġ4 0
Tra ck
ĠUT C
comp are
( ""
5 00
B ind
Ġf ew
res olver
io dic
non zero
Ġ{ !
art esian
EX T
mk dir
h ot
termin al
Ġalle le
coun tered
m ol
o sed
Ġgu arante
ex amples
st or
Ġtoler ance
Ġg ap
: ].
list en
obj s
ĠWe b
Ġattach ment
a ux
Ġst ation
Ġbase name
k v
Ġ' $
limit ed
5 4
Ġn args
Ġne arest
Ġrepresent ed
G iven
Ġexp onent
ailab ility
di a
key id
ĠRe cord
sh are
Ġfiles ystem
Ġd ummy
Ġme th
separ ator
F lag
im ing
" {
D P
O ffset
Ġiss ues
f coe
Ġma jor
PRE FIX
pick le
Ali gn
re moved
ĠM ay
match ing
defin itions
12 8
Ġt un
pre cation
over flow
bind ing
ro om
Ġapp lies
LI ST
Bu ilder
B ASE
f q
li ps
__ :
ĠW rit
width s
p ip
ster ior
Ġren dered
Ġp db
ĠTh en
with out
Ġnormal ization
Ġactiv ation
Add s
ĠValid ate
assign ment
Ġident ical
Ġzer os
x lim
Ġp p
pro blem
k ill
Ġret val
Ġpers ist
h azard
Ġli ve
bu ff
ix in
long itude
r x
Ġmin or
ĠPer mission
' )))
qu ared
Ġover la
Ġw orld
Ġlog ged
Ġre ach
Ġd ns
E P
un ct
be at
Ġclose st
per ms
Ġch an
vid ers
Ġmark ers
Comp onent
. +
Ġsever al
de grees
ck s
lit ude
=" %
Ġb ank
ĠV ersion
Ġfilter ing
Ġcallback s
Ġvari ous
Inter face
evalu ate
N ext
æ ĺ
Ġt reat
Ġa ff
def s
clu ding
Ġaccept s
(', ')
} `
~~ ~~
S c
Ġout er
. :
us ion
Ġret ries
n ers
Ġme t
Ġ"" :
ĠCol umn
Desc riptor
ĠTe mplate
Ġb ed
get cwd
Ġinter section
Ġre store
ĠSpeci fies
B R
Ġcomb ination
S ample
Ġ{ {
e lif
ct rl
ad ow
query set
Ġfollow s
e qu
is nan
con straint
ug ht
N ormal
on gs
th ers
cu it
FLA GS
Ġ" __
ĠS ort
In ternal
mp aign
Ġcon figs
Ġr s
Ġsu itable
... ")
ad j
ph er
` ).
Ġdo ing
Not Exist
Ġhash lib
sv g
initial ized
re maining
Ġa data
Ġmac ro
Ġde tail
mat ched
ĠCon text
ven ance
Ġco v
Ġoc curs
sp ac
(" _
) """,
end or
Ġtrans late
sm all
C AC
J son
Ġderiv ative
v y
mo ving
sc atter
Ġnew ly
func s
Sh ow
Ġestim ator
l and
ĠBack ends
e insum
Ġas c
Ġ att
Ġyield s
Ġman ually
m n
Ġh orizontal
art ifact
SE PAR
Ġta u
hex digest
compat ible
7 3
t cp
Ġst ar
Ġcon fidence
Ġ5 00
L AN
i mpl
Ġb ulk
Argument Parser
wrap ped
Ġh dr
Ġindex ed
separ ated
z ed
Ġt c
Ġf inish
Ġbro ker
B E
exec ution
T otal
Pre fix
Ġlig ht
A tt
S cript
re a
Ġthis Obj
UN T
ĠConfig uration
ĠYANG DynClass
YANG DynClass
_ =
Ġc s
ĠC allable
local host
S tack
Ġc ipher
Ġpro j
ĠB ad
RE C
Un ion
Ġstr ategy
Ġph one
Ġt ic
speci fied
Ġexpression s
l legal
sp in
Ġext ent
OP TION
Ġrepe at
h ide
ĠSer ial
x ies
ä ½
al o
pl t
ĠCo py
Ġmask ed
comple ted
ĠTake s
Ġs ph
th ro
ĠIter able
ĠĠĠĠĠĠĠĠĠĠĠĠĠĠĠĠĠĠĠĠĠĠĠĠĠĠĠĠĠĠĠĠ ĠĠĠĠĠĠĠĠĠĠĠĠĠĠĠĠĠĠĠĠĠĠ
class ification
ump tion
Ġgener ation
i loc
in formation
Ġa ws
fl u
rand int
ta ke
int f
res olved
Gener ator
Ġtran script
D ep
m ul
To ol
gr p
ct et
Ġd l
ta iled
Ġapp ended
ĠPro ject
ar row
Ġca pture
Ġre duced
ĠC SV
pi cally
ĠU ses
ĠĠĠĠĠĠĠĠĠĠĠĠ Ċ
Ġcorrespon d
hist ogram
yntax Error
alan cer
Ġ[ ('
gra ins
Ġlike ly
Ġi i
Ġpro duce
e g
ĠA ct
Ġpro tein
comp ound
Ġsu do
Ġco res
inter p
pan el
Ġm k
'] =
Ġx max
K EN
} ",
Re quired
pre tty
Ġfl ush
] )))
lo bs
Ġde viation
Ġle af
ĠNull Argument
E mpty
N et
ĠSt ream
Log in
We b
om in
Ġsub mit
W rit
_ ):
Ġex cluded
tr l
bet ween
r n
Ġc ss
Ġduplic ates
Ġsat is
D C
sub plot
Ġdi v
cont rib
pop ulation
RO OT
/ <
d it
Ġmat rices
Ġus ually
S R
de coder
an n
ĠV ariable
re cursive
Ġn a
Ġ{} :
Ġj ump
ash board
ins pect
SO URCE
ĠE C
Ġip v
ĠDo es
Ġpercent age
Ġw ildcard
cept s
ud it
Ex ample
cre ase
iz able
ord in
Un it
Fail ure
LA B
Ġve locity
C ATION
p in
Ġg l
Ġ1 80
Ġwh o
min or
ex act
app s
ust ed
min utes
Ġclean up
note book
SEPAR ATOR
H ist
le ast
Ġ1 8
Ġr m
ĠNot Found
M C
Ġs ink
Re trieve
ĠK E
pac ing
pro bs
unic ate
U sage
Ġm i
um ing
'] }
ang ing
base s
TE ST
Ġang les
F IN
ma pper
lit eral
mask ed
CO MP
adr atic
Ġn dim
Ġto ols
Ġor ientation
per son
pi e
ĠU sing
ther net
Ġg zip
pre view
im ension
du ces
IT S
ĠT ag
con sumer
AR D
Ġboot strap
' {
mp y
s olve
å į
Ġfont size
: ]:
} ',
Ġj s
lev ation
ch a
mo us
vari ants
Lay out
ĠHttp Response
C ells
d y
la x
col lections
ĠEn vironment
CM D
Ġp layer
... ')
alle le
Ġt rial
Ġf its
mt ree
ĠA ccess
g id
re cognized
ĠT arget
Ġla unch
P i
r split
s mooth
Ġt p
Ġh ighest
ĠW ith
Ġbo ard
Ġrout ine
T itle
n v
SS L
Time stamp
Inter rupt
period s
let ion
Ġre striction
Ġo mitted
as c
Ġl v
qu ad
Ġsc ene
Ġevalu ated
Ed it
ĠP ost
und er
ab c
ST ART
go ing
lap se
set Level
rot ation
ar ing
Ġ" +
ol ding
Ġn or
ma inder
sh ould
> </
all en
bl ank
Se ction
Ġav g
Ġchar set
ä¸ º
reg istered
SS AGE
SP ACE
Ġst and
Ġfi gs
stra in
the me
pab ilities
develo per
Ġpol l
b ut
w ers
Ġi de
int ext
Ġor bit
Ġen cryption
2 000
in line
Ġo thers
co verage
update s
Ġfil led
Ġob servations
åĽ ŀ
{ '
Ġ', '.
Ġdeploy ment
6 00
T op
ifi ers
Ġcomple t
Ent ity
i gs
t ot
ct ypes
la ce
(' "
Ġde coder
RE F
speci al
Ġdir name
fra gment
H I
s amp
par allel
Ġuni form
Ġmapping s
state ments
run e
tz info
Ġbro adcast
ro utes
oc us
account s
ĠCol or
} ")
ri pts
Ġco verage
ĠD ocument
ĠY AML
Ġperform ance
Sp lit
p as
s yntax
Ġr r
bound ary
Ġcomb ine
il ine
Ġcon tour
Ġch r
Ġinsert ed
G O
W riter
g ui
v cs
Ġre ject
ro uting
ot a
Ġle arning
Ġc rop
Ġin ject
Ġz oom
Ġ201 6
lastic search
at ural
str ptime
>> >
part itions
Ð °
ĠN D
urn ame
Ġm v
Ġh ad
sp f
St at
amb da
m ongo
Ġa ry
ist ype
char ge
Ġcp u
Ġlook s
Ġdat atype
Ġ ;
Ġname spaces
vo id
Sh ape
V olume
Ġex change
ä¸ Ģ
mac ro
4 6
é Ģ
ĠM y
Ġbase s
Lo okup
Does NotExist
( ("
D en
h its
Ġf ar
pro d
Ġobtain ed
M Q
b on
am ent
call er
P M
h int
qu is
pix els
mav link
M on
re cur
() ])
gra dient
Ġ---------- -
CH AR
ĠSh ow
Ġidentifi ers
is ing
hy per
vance d
5 9
Ġl n
Ġh its
STAT US
Defin ition
i um
in strument
ĠS u
J o
pe x
ul ations
pro vision
Ġ2 56
sens or
Ġcla use
S top
Ġv tk
ĠRe place
Ġca pacity
no un
ĠURL s
Ite ms
Ġin coming
Ġth ro
Ġde li
ĠP AT
Ġlist ener
CO MM
ex posure
seq s
ific ant
Ġco d
ĠC ustom
ph an
Ġpre ferred
illi seconds
R ect
un used
Ġmeasure ments
Ġx s
Ġreg ard
Ġover lay
Ġp ys
Ġfor ms
read lines
shut down
n om
v c
() ['
pro jection
Ġsh own
t as
Ġde ep
Ġca re
bind ings
ĠPo int
Ġ[{ '
Ġbe am
ph ysical
start ing
Ġidentifi ed
ra ster
s ci
ĠA S
mid dle
}: {
ĠRe ference
ph ot
play er
ĠCo mm
loc ated
99 9
Date Time
Ġincre ase
f ollow
min ute
ĠSp lit
re ferences
quest ions
Ġin dependent
name spaces
"] ))
Ġpla in
STR ING
may be
Ġ ---
Ġc d
um or
ig ure
alys istype
factor s
Ġsub sequent
ty p
Ġac curacy
Ġproject s
Ġart ist
contin ue
Ð ¾
Ġs cheduler
Ġde al
Ġ{ :
mapping s
ul us
Valid ate
G ra
Ġt ries
Ġf oot
Ġp in
1 01
M ag
x i
Ġg rouped
ĠA nd
12 3
UT F
Ġ12 8
lic able
iter ations
dire ctories
Ġad jac
go od
m ens
Ġn r
ER S
Ġpart itions
ĠJ o
Ġ201 5
l r
Ġin struction
start ed
Name space
qual ity
Ġali ases
! "
} _
de sk
Ġan ce
Ġpers on
T T
iz ations
stream s
h ierarchy
Ġc rypto
ph one
Ġ-------- -
Ġdesc ribe
spac ing
) ['
O ne
Ġcon vention
Ġadd ition
Ġconver ter
S pace
æ į
AN CE
pl ane
pri me
LO AD
serial ized
decor ator
Ġp print
ĠP Y
Ġun expected
Ex tra
de serialize
ĠP ub
ang ular
Fa ctor
Ġdist rib
Ġmean ing
rece ived
pe s
ĠS kip
Ġen countered
s queeze
li de
(" [
initial ize
ch anism
Ġm er
ĠĠĠĠĠĠĠĠĠĠĠĠĠĠĠĠĠĠĠĠĠĠĠĠĠĠĠĠĠĠĠĠ ĠĠĠĠĠĠĠĠĠĠĠĠĠĠĠĠĠĠĠĠĠĠĠĠ
ĠE l
domain s
UR N
c rop
ĠĠ Ċ
Ġc m
ID s
Co mple
n ick
å Ĭ
mp ath
Ġco lour
Ġread able
P ix
R a
} -
le ting
Ġin s
Ġsp atial
c us
Ġin fer
ĠI nt
Ġupd ating
L oc
W h
_ ['
m ix
Ġlink ed
radi ans
Ġten ant
Ġf our
Ġg ives
pro tein
Ġk ill
Ġf c
Un expected
W E
Ġ lif
ĠR GB
Ġle ave
sn mp
Ġaggreg ate
in complete
Ġ' (
Ġreg istration
ATE D
resid ue
Pl ugin
Ġu i
Ġ\ "
ĠValue s
sg i
C luster
Ġre action
Ġh azard
Ġun ion
Ġos id
iter ation
Ġserver s
Ġart icle
v tk
Ġcomp s
TE S
Ġaggreg ation
ad s
sc rib
Ġun used
run k
Ġremo ving
6 8
Ġs olve
/ ',
s cipy
fi r
Ġ_ ("
=' %
RE CT
Ġfa ster
Ġf u
an sion
Ġ' \\
Ġr hs
Ġy max
pla ces
ĠLo ok
en otype
ĠN ULL
Ġthread ing
Trans action
v ailable
Ð µ
il la
box es
An alysis
taint y
Ġfi re
DE D
Ġqu antity
tr unc
attach ment
Ġresid ual
P r
Ġre pos
Ġ" #
has hes
Ġprobab ilities
G IN
Ġm argin
Ġh old
Ġoverride s
Ġas yncio
Ġinv oked
ĠHel per
W ait
ĠF a
pi ents
G o
g i
Ġre load
Ġb s
Ġ( [
S B
en cryption
Ġskip ped
ĠValid ationError
activ ate
Ġs ci
Ġs heet
Ġe q
} ')
up s
ire ct
in ux
gp u
C D
b ranches
res ize
Ġcan vas
Ġmin ute
AN GE
ass oci
Ġph ysical
Ġoptim ization
CAC HE
top ics
an cy
termin es
F loat
M D
d ry
k lass
v pc
== =
ĠU p
ft p
Ġprocess or
ä¸ ª
1 80
la sk
ĠM O
Ġcal endar
:`~ .
(': ')
ĠOPTION AL
st able
le st
reate d
Ġfollow ed
Ġdiag onal
f m
Ġse ar
over lay
6 7
F lags
st yles
ce ler
ĠI NT
") [
Ġreference d
' +
c lock
Ġh ierarchy
ren gth
Ġscal ed
O M
an alysistype
Ġe g
ĠS SL
V A
h alf
Ġe mit
l lable
ĠP age
ĠD ownload
Ġurl parse
Ġlet ter
4 00
P N
Ġh ide
Ġspeci men
Ġlike lihood
ĠTime out
Ġb i
:` \
ĠJ ob
se en
Ġc id
ro gram
ĠA b
* ,
P ay
Ġcomp iled
Inter val
pe dia
new axis
Ġhy d
/ #
j ar
Ġs d
te gr
Ġinter active
PE N
sec ure
R ate
å º
Ġin f
per form
Ġpol ynomial
clean up
Ġshort cut
ext ended
Ġde ad
ord ers
ĠM I
M ask
d ynamic
f inish
ĠIn teger
Ġmark ed
board Interrupt
Parse Error
candid ates
Ġs pi
qu eries
add itional
Ġ"{} "
At temp
predi cate
ĠG u
stack overflow
Ġglobal s
Auth orization
g lyph
or b
Ġf requencies
Ġse n
Ġwork ers
= __
t ls
Ġm ouse
Check s
flo or
3 00
Ġin vert
__ '):
## #
ĠGener ates
Ġplace holder
Ġrespect ively
æĹ ¶
lo pen
Ġassume s
ĠTra ce
C ate
over write
vi le
yg ons
Ġembed ded
T ry
p mag
x t
po ses
Ġ4 00
W ord
Ex p
Do main
Ġn c
Ġn n
an ity
ut ures
Ġge om
Ġmy minion
B B
Ġf in
Ġs lices
Ġiter items
I X
l b
list ener
Ġen crypt
prefix es
Ġ' ?
ch art
Ġsalt env
) ?
Ġ[ %
art ist
Ġen s
log its
Bu ffer
Ġoptim izer
b asis
k m
Ġ ì
Ġ" (
Ġr id
ĠP i
HO ST
Ġdata store
ĠC F
Ġso up
St ats
Ke ep
Clo se
g iven
P ackage
Z one
r mtree
p otential
fe at
s lices
] /
Ġd c
Ġfe at
è¿ Ķ
C alled
n ic
Ġal phabet
sc p
form ula
pa y
Lo ader
Ġalign ed
author ization
Ġlar gest
F E
G L
Ġsession s
non ce
Ġren derer
Ġada pt
Ġpro g
ĠV AL
Point s
on om
ar ily
Ġin correct
qu bits
et ic
Ġ4 04
ĠPro per
Act ive
R andom
W T
e ch
Ġ attention
Ġt reated
al chemy
Change d
Den ied
l m
ser ts
Ġpar s
Ġro utes
loc ator
: {
Ġin herit
end points
ĠSe lect
ch dir
qu antity
åı ĸ
Ac cept
T here
Ġto do
entifi ers
Cre ating
è¿Ķ åĽŀ
c ates
s am
Ġint s
Ġrun ner
Ġbel ong
R aw
ar ound
Ġs low
lex er
Ġty ping
estim ator
******** ********
+ +
lo y
cs r
test s
Ġmedi an
an chor
let ter
Ġm ix
ĠEx tra
Su ccess
S k
data store
ĠHe re
ĠExec ute
Ġre m
Ġr x
c mp
or ies
Ġf rozen
Ġm m
Ġst uff
Ġnot ify
ĠS imple
ĠRe moves
Data base
head s
Ġrecomm ended
. ],
velo pe
ĠCurrent ly
9 7
Ġpo ssibly
be m
H ttp
Ġv cf
Valid ationError
percent age
lo red
ĠA pi
mo ment
tod o
Ġfigs ize
Ġs uggest
Ġe lect
Ġb ranches
di alog
(" <
lin ux
12 34
g d
Ġt tl
li ers
co okies
Ġ[ _
ĠC PU
ĠG O
num s
arg inal
Ġup grade
over lap
Ġintegr ation
ĠOption s
[ \
Ġ è
allen ge
O p
b io
Ġe lapsed
ĠL ength
Ġup on
Ġpl us
TE N
pe g
to o
Ġpa st
Ġâ İ
ĠE d
Dis play
predi ction
k b
at al
ĠY ields
fra ction
h n
ĠI te
Ġprefix es
rel path
Ġhigh light
B in
u pt
Ġlist a
anit ize
M sg
m f
ak er
B ound
Ġt gt
Ġk v
vert ical
ĠUpdate s
Ġ': '
ĠStr uct
co vered
di ents
Ġr pc
ĠM apping
ĠR PC
De codeError
... )
graph ic
Ġdepend ent
Ġvari ants
ĠAss ume
c rs
re store
Ġstruct ures
- \
D ial
Ġend ing
Ġversion changed
Ġinitial ization
in p
Ġin p
ĠS chema
Ġv o
ten ant
Ġindic ator
Ġexpi red
= ('
Ġ-- >
R GB
er ance
Ġre served
ma ils
iv ot
Ġla b
ĠL abel
Ġcor pus
optim izer
Ġ quick
Ġ' &
sp h
ĠL a
Ġent er
ench mark
Ã ©
Ġp b
helper s
Ġimp ro
Al low
Ġconver ts
b ulk
el low
---- -+
, **
d v
ä ¼
ĠA x
sp ice
Ġres olver
ĠO K
Ġfloat ing
TO KEN
c df
ul ary
Ġhe at
Ġcheck point
dat atype
t ell
Ġde velo
activ ation
Ġma il
Ġend points
eps ilon
depend ency
+ "
c rit
h ape
ci pher
Ġerr no
Ġrequire ment
Ġb alance
qu id
H TML
m ant
de limiter
Ġv pc
ab ort
sub stit
idx s
TIME OUT
Ġshut down
sp here
Re port
Ġde epcopy
out come
time series
sc ene
ĠSe ssion
NO WN
re load
ff e
Ġcontain ers
iss uer
ĠRa ise
ĠGe o
Ġsq rt
) })
T ags
Ġan n
ĠS SH
Key Error
Ġmo ving
Ġr and
Ġimp act
Ġgate way
S ymbol
ĠĠĠĠĠĠĠĠĠĠĠĠĠĠĠĠĠĠĠĠĠĠĠĠĠĠĠĠĠĠĠĠ ĠĠĠĠĠĠĠĠĠĠĠĠĠĠĠĠĠĠĠĠĠĠĠĠĠ
Auth entication
Ġresid ue
ic les
DO C
go v
, %
b all
Ġif ace
fi len
')) ,
Ġrepe ated
Ġhapp ens
ä» ¶
ĠReg ister
9 3
S ite
e ach
t gt
Ġse l
ef t
Ġsplit s
b atches
in crement
ĠS ec
peak s
E ngine
in fer
Ġth us
log file
ony mous
Ġcum ulative
* \
i face
len code
ĠR FC
U sing
u it
Ġs pacing
run s
Pro tocol
bre viation
) """
work space
12 7
Ġ\' {
' %
r aries
Ġvalid ated
B ACK
sub plots
Ġwork space
v x
art icle
Run ning
Ġ`` "
Ġ... ,
Ġ8 0
Ġ' ').
ĠW ait
mal lest
w bem
ĠG ra
Ġclo sing
dest roy
Ġvolume s
Ass ign
Ġs r
pa gate
Ġimport ant
ĠMA X
Ġpan el
z a
ma gnitude
---- --+
ĠC alled
dis connect
Ġaccount s
clean ed
A ttributes
u oa
Ġb c
Ġwe bs
Ġsk y
duplic ate
L U
ĠA SCII
Ġref er
AD D
Ġimp licit
ada pt
5 2
] ")
Ġout come
Ġsort ing
Ġpub lished
Pa rent
Ġas sets
Ġkw arg
I t
P e
h df
j d
y ield
Ġhas hes
Ġnon ce
ĠCh annel
P R
ĠI mplemented
Ġpro duced
fo cus
fa c
trans lation
ĠIn clude
Ex pression
5 3
ct ype
ĠCon nect
C ustom
D oc
Ġthe me
Con d
stri de
contain ers
a res
ar p
Ġal ert
Ġapp s
Ġfa ke
Or deredDict
G RO
mo dify
port al
char set
Ġrece iver
rb ridge
utc now
8 7
S tep
W indows
[ [
or ientation
align ed
figs ize
G ui
Q A
ari ant
split s
SE S
vis ions
rf c
writ es
Ġnotification s
M AC
z h
Ġre main
Ġin voke
tain s
Ġcorre ction
den se
na if
gg le
g ain
u li
oth ing
m ysql
con structor
Ġ1 7
Ġde tection
Ġsee ms
ĠVer ify
4 3
D ER
s lots
Ġblock ing
b ian
re start
Ġ' @
'] ('
Ġstd dev
Ġdid n
comb ine
en crypted
de li
ve st
read able
og en
Par ses
black list
g res
to pology
Ġ0 0
Lo op
f ault
t id
li ck
ĠĠĠĠĠĠĠĠĠĠĠĠĠĠĠĠĠĠĠĠĠĠĠĠĠĠĠĠĠĠĠĠ ĠĠĠĠĠĠĠĠĠĠĠĠĠĠĠĠĠĠĠĠĠĠĠĠĠĠ
10 24
Ġcustom er
Ġexpi res
Ġstrip ped
> =
B it
M y
ĠD ep
SH A
Ġsubstit ution
C md
at ched
de sign
Ġl iteral
ab b
bro adcast
MP LE
Ġreci pient
CLA SS
Ġsen se
Ġn t
Ġl it
art beat
client s
initial izer
a mpling
Ġa ck
Ġst e
). """
Ġvol tage
comm unicate
Qu antity
Ġfactor s
Ġrecur se
p od
distance s
ĠIN PUT
G lobal
ver bosity
Ġg ran
Ġnum erical
Ġapp licable
now ledge
Ġsa mpler
}. {
expi res
ĠP andas
Ġx min
Ġgra ins
cent ers
Ġscope s
author ized
] {
et ree
ME SSAGE
su bj
Ġorg anization
Ġp alette
ĠCo unt
Ġstop ped
('. ',
fun ctools
> .
o i
r ations
Ġp f
Ġp added
Ġ( {})
jo urnal
pa red
Ġun cer
ren derer
ll ite
indic ator
N C
ch i
su do
or a
ot ropy
return code
Ġexpi ration
ĠDis play
b gp
Ġd ynam
Ġb old
ver b
Ġr ng
fo ot
Ġx path
mark ers
can onical
strict ed
, :]
N on
] "
dis abled
Ġclean ed
Ġloc ator
ĠUT F
æ ł
Ġp ot
Ġst rain
file obj
aggreg ate
on ts
Ġa mb
Ġe ta
Ġ{ %
cy cles
IT H
LIN K
x min
Ġp itch
is digit
Ġde ci
ĠP op
posit ive
Ġdebug ging
Ġac cum
sub mission
sto ck
' ^
ä ¿
ame l
ate llite
co effs
Ġwh y
TR Y
n y
or al
Ġb ond
ĠIn ternal
Ġcur rency
Ġperiod s
authentic ated
+ \
C DF
D elta
Ġto pology
ĠA N
ĠA z
(" .")
Ġx i
Ġne st
B EM
c atch
Ġs ing
(' >
ĠF rom
Ġpa y
A ng
s b
co ped
ch ors
Ġstr and
Ġsc ripts
Ġqu bits
he llo
Ġo auth
response s
Ġauthentic ate
Ġauthentic ated
å ¼
args pec
lock ed
widget s
N ote
v v
ĠO N
Col umns
Ġtick s
g os
mple ments
Ġoper ators
Ġexec utor
TO DO
Reg ion
Ġm ixed
Ġ" *
LE NG
Ġstream s
ĠLo cal
Proper ties
Ġc n
ri er
load ing
Ġwa velength
' m
4 9
t up
Ġ2 3
doc string
cre ation
Se e
root s
mark up
æį ®
Ġb atches
Ġtic ket
C G
I p
f u
v stack
in file
Ġpro files
ĠP RO
info s
PO INT
writ ing
tun nel
T ABLE
e le
g uess
re quires
Ġ[] ):
Ġvis ited
L en
x large
il de
Ġex ceed
Ġ% }
ans wer
LI B
, \
A X
M erge
U ES
Read s
ĠNe ed
Ġchrom osome
LENG TH
b ill
Ġs aving
vid ing
ĠOver ride
conver ter
probab ility
M enu
li sion
av ig
SI S
scope s
M IT
Ġres ize
Ġgener ating
Ġtimestamp s
Per form
Ġgre en
L P
o ok
Ġth ird
ne arest
chain s
j i
u v
å ľ
on ic
Se gment
Element s
ĠRE QU
R T
ĠM atch
Ġcal ibration
4 7
st p
ci al
LA Y
PAR AM
M ain
h p
p alette
ro me
Ġto k
ĠE ND
mark s
ĠLo op
tran script
+ ',
} _{
Ġp en
Ġpar agraph
ĠL ocation
Ġdis crete
ĠMe as
P op
R UN
m and
al tern
ent ropy
up y
ĠL ink
Con verts
Ġpas ses
ĠDe vice
Ġrender ing
SER VER
Ġapproxim ate
ĠPAT H
{ \
LE V
Ġe fficient
Ġas pect
Ġbox es
measure ments
Ġn v
Ġl l
Ġsh if
ĠAc count
C IM
ot ypes
Ġqu otes
press ure
scal ed
t ex
la m
as sets
out h
po ssible
Ġv max
ĠEx p
P G
ĠV iew
Ġeffect ive
WOR K
ĠKE Y
= ["
b ri
con tour
Ġchain s
Ġasc ending
p ct
w l
et ect
ĠC alculates
.. /
Ġbound aries
Ġcor ner
Ext ension
Ax es
åŃ Ĺ
TEMP LATE
Ġc nt
ĠP ort
mplement ation
ä¸ Ń
Pass word
1 0000
Ġb b
ri cal
ĠP a
Ġne ur
ĠEx t
Ġmo lecule
Se q
const s
ĠAt temp
F ore
Re try
Ġfa ces
dist rib
HTTP Error
Dial og
8 3
g ot
re ach
Ġc f
red dit
ĠV PC
ĠKey boardInterrupt
L ast
ex change
Ġl b
ĠA li
if s
Ġinter mediate
tick labels
Ġbel ongs
Com ment
Ġt weet
script ors
Sec urity
æ ī
ri cs
ex us
AT CH
ĠTrans form
é ĩ
é Ĺ
wh at
Node s
ced ure
Ġsecond ary
sd k
Ġdetermin es
Ġan im
Ġas cii
ĠC lean
cal endar
Ġla zy
Ġfla sk
(? :
SCRI PTION
u c
Ġma pper
Ġare n
Ġint ro
Ġinter sect
Ġtrig gered
tod ay
Ġt t
Ġs urname
ro ut
ĠT er
to k
Ġy min
ĠM atrix
Ġint ended
Ġ3 60
ĠMe m
C CESS
P s
f olders
po licies
ĠĠĠĠĠĠĠĠĠĠĠĠĠĠĠĠĠĠĠĠĠĠĠĠĠĠĠĠĠĠĠĠ ĠĠĠĠĠĠĠĠĠĠĠĠĠĠĠĠĠĠĠĠĠĠĠĠĠĠĠ
=" {
Ġindex ing
DE X
gener ators
L ANG
m r
se cut
et ched
ĠIn dic
Ġmat erial
IG NO
Ġdecla red
font size
End point
ĠSet ting
: ')
S up
in verse
Ġh ack
ĠA ction
Ġnetwork s
leg ate
Ġsto res
nor mpath
' ",
s un
)) ):
Ġth ough
ĠA B
ĠA fter
class name
ĠG aussian
ĠH E
Ġtop ics
6 3
ç Ľ
co in
PA SS
g w
it ect
Ġ' '))
ul ator
index er
ĠPar ses
TR AN
Ġ[- ]
ĠPermission Denied
D ay
z zy
Ġre tain
ata ble
ri ft
ĠS O
MA GE
201 5
HO ME
d ropout
al ert
Ġs ystems
co eff
Ġst yles
Ġh a
str ategy
arg parse
Ġbuild ing
Ġwrit es
ĠRE ST
! =
Ġex ported
Ġlist ing
ac ket
UL TI
COL OR
n ado
Ġ license
al m
ob servation
Inv ocation
i pt
Ġa way
ĠS ample
pre p
Ġ3 1
Ġpl ural
peri ments
Update s
ĠIter ate
SK IP
V irtual
h ub
} ),
al go
al arm
Ġin file
po re
Ġ| |
Ar n
cp us
sim ilar
aggreg ation
attemp ts
Ġo mega
is is
ve y
ĠP AR
"] ]
ins pe
at ios
ct ime
ate ver
ss ue
ine ss
b c
k t
Ð ¸
al ways
out dir
ĠN on
Ġcontin uous
ĠSalt Cloud
REQU EST
6 9
s cheduler
str s
__ ',
ĠM erge
ac quire
Ch ain
Ġfl u
merge d
ĠFI LE
Ġh int
sc roll
Ġover all
re trieve
Ġl attice
dir ty
ne eded
Ġdest roy
R S
ĠM ed
Ġplot ted
Connection Error
ĠIgn ore
Ġb am
Ġw ind
Ġ" :
ĠS P
ĠP DF
inter pre
Ġar row
ne st
Ġshape s
volume s
Initial ize
k o
Ġt m
st ub
Ġinterpre t
l c
l attice
v d
Ġc lock
ug ment
ĠR el
In stall
itor ies
Ġm tf
int o
ĠR andom
ach ine
reg ular
title s
Ġpie ce
OPTION S
en crypt
ĠU UID
sub scribe
REQU IRED
b oth
Ġo prot
ĠTh at
Ġcode cs
Ġsup press
check ed
Ġsimilar ity
mut ations
Ġpie ces
à ¸
Ġw s
ma ker
Ġde ps
comp ar
Ġsample d
S im
d um
e ss
Ġh du
ĠN x
ph oto
) [-
Ġn ice
Ġe vidence
ĠF etch
Ġbu ckets
Ġdig it
-+-+-+-+-+-+-+-+ -+-+-+-+-+-+-+-+
Ġhe alth
| \
at ar
am i
up grade
ĠI mp
ĠP mag
Ġtime series
Object s
Att r
an di
li min
Ġgra de
ĠQ ueue
Ġback ward
bro ker
Ġrot ate
B inary
H as
h olders
al ty
li o
cl ination
place ment
Ġgener ators
Ġab stract
Ġremo ves
ĠRead s
he alth
ad i
ĠC orre
ĠC lear
ĠO UTPUT
Create d
Ġlanguage s
Ġdetect or
Ġfore cast
cred s
d h
æ Ŀ
Ġup loaded
Oper ator
ra sh
pt ide
Re cs
IL D
cla use
Ġ" [
ĠC ho
pa yment
tri al
arg max
Ġlo west
pri v
pub lished
boot strap
Mem ory
T ING
get value
ĠS Frame
ĠS Cons
Ġ2 2
ĠH ost
do i
pk gs
DI RECT
uplic ate
Ġloc ated
Ġcollect ed
f allback
pe m
ĠD NS
ĠO Auth
Ġgroup by
ome ga
TH ON
Ġre mainder
ĠD ynam
Invocation Error
[ ...,
Ġt aking
ĠRe f
Ġen c
comp iler
Ġsc atter
=[ ]
omat ic
Ġexpect s
Ġâ Ģ
multip lier
Ġf ingerprint
Ġg as
mode s
Ġlocal ly
Ñ Ĥ
ke w
ĠL et
Ġmode s
D raw
Ġ um
Ġg rp
Ġsup ply
Lo ck
SIG N
) *(
D AT
Ġp ts
reg istration
assign ed
)/ (
Ġinterpre ted
CHE CK
( """
? ?
ur face
ĠT R
ase d
not ation
Ġload s
LI C
Ġdirect ive
ĠDo cker
tic ket
Struct ure
i fo
in o
Ġm ol
Ġde t
fa b
Ġ... ]
Ġcolor map
201 4
Field s
Date time
f b
s park
s ilent
Ġco me
config ured
right ness
dist s
ĠDi rectory
Ġexpi re
MS G
vol tage
/ *
Ġd p
Ġd w
In di
fil er
Ġmulti processing
high light
" },
kw arg
'' .
check point
CO UNT
TER N
xx xx
imp act
Ġlit tle
al ker
Ġm illiseconds
sign als
GE X
Ġmanage d
Ġconcat en
st roke
ch ines
el t
bu ckets
estim ate
hard ware
secut ive
B LOCK
C d
F etch
S CHE
g zip
={ "
/ :
h stack
ĠF lag
ĠO b
Ġconfig urations
from string
ĠCo mple
MA IN
Config ure
af ka
Ġ"/ "
ĠPre pare
rece iver
B ER
M od
i et
x b
predi ctions
f ed
o res
Ġt up
as cript
duplic ates
Ġbecome s
C al
Ġs wap
Ġint ensity
Ġsub classes
percent ile
P OR
e ast
w it
Ġs f
def ine
RE G
Ġtra jectory
wh ile
Exec ute
Z ip
a e
d ynam
q te
cal ing
ĠV ector
AR CH
cre ts
Ġsc roll
Ġleg acy
h orizontal
æ ŀ
Ġg round
ip pet
comp s
place holder
Ġ'_ '
ĠComp utes
Sign ature
noun ce
H ub
j ump
u df
Ġp seudo
Ġ_ ('
ach ing
ĠDE BUG
Ge ometry
ĠAz ure
D ouble
c ri
in el
TR A
Mem ber
LEV EL
Ġn ick
set Text
`` ).
Ġ{} \
CO D
Ġvox el
S UP
T L
m gr
Ġf lip
Ġ== ========
ĠM odule
request ed
Ġob server
ĠUni que
Ġradi ans
P P
i ro
i ma
å ¯
re action
con version
kw s
Ġdis card
Ġinter p
We ight
d ummy
æ ģ
at ively
Ġt ell
Ġa f
th rough
Ġco ef
Ġco okies
Ġcate gorical
Reg istry
Part ition
+ =
in ity
TA G
need s
O ff
e lect
i ate
Ġcons umed
Ġtransform er
8 2
al formed
Ġs ib
Ġdi alect
Ġent ropy
req s
}. '.
coordin ate
A rt
O D
w sgi
ĠS ize
fo bj
Ġget ter
log level
graph y
Ġcond itional
Temp orary
Ġamp litude
Ġoverrid den
F D
Ġe mp
Ġb r
ra pping
Ġch i
Ġpa ired
Ġback wards
vo x
rece ive
[' __
ĠF lask
Ġv min
lat ent
Id entity
mt p
session s
Ġappe ars
Ġe le
Ġg rant
b az
ĠI S
Ġde crypt
Ġgener ates
Ġfit ting
d ct
Ġc ube
int en
Ġme mo
sub type
19 2
FOR M
snapshot s
ĠOption Parser
Ġaffect ed
ĠIte m
Ġdi c
et ime
In teger
ren d
Ġass oc
qual ifier
pol ygon
] ]:
h ave
Ñ Ģ
Ġs ong
len s
ĠB ut
Ġcomp iler
Ġexec uting
Ġund ers
real path
ĠND Array
B LE
P attern
o ser
st mts
Re trieves
start s
trans itions
Ġindent ation
Ġreci pe
Ġaz imuth
O b
Ġimport s
AC TION
ĠGo ogle
ĠF low
Ġgra b
weight ed
network s
Bu cket
Ġlon gest
Ġinternal ly
Ġmar ket
ar di
ĠA uto
Ġsign ing
w p
Ġspe cs
Red irect
B asic
S ort
av ascript
Ġdist s
Ġoptim ize
1 99
q os
s ink
Ġy label
=' ')
Ġpo licies
ĠM on
Name d
Ġmo ck
pk t
R ender
Ġs lave
ĠT H
ĠS ite
Ġy i
Ġsign ificant
riter ion
Ġdiffe rences
Ġsent ences
L vl
Ġt ip
Ġi x
Ġc he
di p
Ġcont rols
Ġsym metric
scal ing
Ġmis match
5 12
> ')
B S
Q ual
Ġf olders
vi e
ast ropy
timestamp s
Process ing
ĠApp end
unct uation
! '
c annot
In it
In sert
auth ors
DI S
Tra ce
O rig
] ')
b ands
ĠA LL
args ort
AN T
Ġvi m
UT C
ĠOptional ly
Ġtransform s
Ġfast q
s f
Ġ2 04
pla ys
Ġca pt
i mag
Ġse ason
pro files
ĠL ay
Ġperform ing
iso format
optim ize
ĠCa che
sp atial
Ġas k
ĠE valu
Ġcomp uting
ens ities
Ġcent ers
B IN
ate way
red ge
om ic
fil t
be led
Ar g
Ġcolor bar
Cont roller
System Exit
: <
h du
exp onent
Ġzip file
Ġtrig gers
ĠFe ature
A WS
D own
Ġin ferred
Ġs it
Ġg iving
ĠE ngine
read ing
tra ffic
Ġver ification
TE NT
Ġmig ration
Ġs lope
Ġw ater
ER Y
Ġcomp ared
ME TH
Ġview s
Ġwidget s
firm ware
Ġcir cle
precation Warning
{ {
Ġt ensors
Ġto uch
ĠN V
ĠM issing
ps i
Ġline width
Ex pr
dec la
As set
Ġ\' %
6 1
C ho
S PE
b ond
Ġin ference
lo cs
ed u
Ġg t
oc cur
cont ig
org anization
speci mens
Ġescape d
_ "
se cs
or ient
de sired
py plot
ced ence
ĠOr der
ĠString IO
G it
P RI
e th
Ġpre pend
RE NT
auth entication
Ġpk t
Ġmime type
ĠTrace back
æģ ¯
* ',
E num
U AGE
Ġm utation
port ion
index ed
OR M
Ġdist inct
ĠSh ape
S ocket
Ġ' ;
ĠT CP
Ġex clusive
str and
(" #
Ġ2 1
Ġk m
{} \
Ġfind ing
mar ket
F older
S to
w ho
** (
com bo
Ġhow ever
Ġ'{}' ".
d up
å ½
Ġf ocus
Ġs g
Ġb urn
Re pository
ĠF AST
mo use
Ġproto buf
Ġp c
ĠRe ce
=' /
ĠSt atus
Ġc e
---- ---+
Ġ2 8
Ġla g
ĠR ow
Ġsc enario
DO WN
M ust
g le
q dm
ol l
ĠA ST
pa use
pa ired
comp ose
wh itespace
Ġth umbnail
Ġg uest
Ġde g
Ġbase line
override s
ĠGraph QL
Ġf q
Ġf fi
Ġ# ##
ĠIn stall
ĠUn known
Ġ'/ '.
Group s
Ġfun ctools
p ic
Ġd ropout
(' __
gra mm
Type Id
vis ual
N ET
İ ·
ĠS tep
ac curacy
Ġrun as
Pro gress
v iz
Ġme chanism
et ches
Ġfunction ality
"] ),
exec utor
',' ')
ĠTe mp
] ].
Ġt d
ĠE RR
()) [
Se lection
math bf
Ġapply ing
Ġpur poses
Ġn ic
Ġ` %
Ġreport s
ĠMin imum
i am
ma gn
Ġg id
Ġma v
Ġdo i
mon ic
Ġrel ations
h icle
in ventory
ld p
ĠSt orage
du cer
je ctions
Ġcor outine
deploy ment
inten ance
Ġthere fore
ular ity
save fig
gorith ms
Ġlet ters
tol erance
W D
f old
se ctor
al es
pro tected
Ġpa yment
ĠG PU
act ers
Ġiss uer
Ġaccept able
æĺ ¯
O pt
re cent
---- -
ĠN et
ĠR ET
mod s
ob served
201 0
ĠApp lication
operation al
E mail
T ab
Ġf resh
** :
struct ures
ĠWh at
Ġdomain s
Ġhead ing
anis otropy
epoch s
] _
at least
Ġd pi
Ġas sessment
net loc
CRE ATE
Ġtrunc ate
Ġd om
Ġ" ."
ĠD raw
ĠN othing
ĠM ongo
Ġca mpaign
be am
EN CE
Ġag g
Ġlower case
Ġpack ed
Co unter
Ġ'. '.
ĉĉĉĉ ĉĉ
A da
'] ])
=' \
Con v
check er
link ed
ĠQt Core
Ġstud ent
l ator
Ġde letion
ĠF inal
__ ()
late x
App ly
9 2
Ġd m
Ġtrans lated
Start ing
E E
P H
S can
Re p
Ġel t
ĠTh read
ĠSalt InvocationError
Ġflatten ed
Sum mary
0 33
o logy
Ġqu oted
F UN
O FF
[ ~
e per
Ġpo sterior
IN ST
IN VALID
ĠDe cimal
En coder
cer n
Ġjoin ed
e mu
il ation
ist ant
Ġx label
LE N
Ġbehavi our
attemp t
ol ation
Ġor th
per f
ow ns
Ġout dir
AR K
quis ition
6 2
Ġc i
Ġs un
Ġw ish
id entifiers
ke h
][ -
alle li
en dian
am big
ĠS to
out s
Ġproduct s
Ġregard less
N ull
h param
k ers
Ġc rit
an a
Ġto day
ĠC A
Ġblack list
F N
=' .
comp ression
Ġextra s
MA IL
Ġsm art
cons umed
clus ion
) >
) ].
m aries
Ġp w
Ġin structions
ass is
rel u
Ġrespon d
Ġs mallest
la unch
Ġco effs
IN ET
Set ting
Ġmod name
Ġtri angle
Ġtermin ate
white list
i ator
Ġa wait
"] ],
block ing
salt env
Ġt ot
is ation
con fidence
vi rt
sent ences
Ġdesc end
Ġsnapshot s
Ġsec ure
Ġcon venience
Ġsk ipping
F irst
F ilename
h w
Ġ utf
re ed
Ġ& =
Ġappro ach
leg acy
SU CCESS
GRO UP
G HT
d id
k l
de crypt
Ġsh uffle
cor pus
ĠMeas Rec
t weet
Ġc amera
ĠE mpty
cmd s
az imuth
c amera
s lash
ĠPro tocol
cle ot
Ġke pt
Ġens ures
F ull
V ert
q t
Ġ# ################################
Ġa ir
Ġp m
ĠV olume
back ward
Iter able
gap ic
ro i
ĠB inary
ste m
tra ined
Ġca ption
conf lict
cons istent
Ġschedule d
7 55
h d
å ĩ
Ġs am
Ġl w
An aly
Ġsql ite
lip se
ĠSE LECT
er ator
Ġde tailed
string utils
Ġparser s
her ited
tool kit
wiki pedia
iet f
Ġd r
Ġ} }
Ġeas y
C UR
get env
ĠT HE
Ġbe g
code c
x p
ĠS Q
Ġra y
ĠPro gram
import s
âĢ Ļ
qu oted
ĠP l
fo pen
mo ot
NO DE
Ġda ily
rot ate
G T
p itch
Ã ¡
æ İ
Ġh ar
C enter
e mp
f ort
re ject
Ġc ritical
Ġn y
Ġm t
RE GEX
SO CK
Ġstud y
b n
z A
ĠP os
Ġprint s
lic ity
corre ction
v t
ca pture
Ġclass ifier
æľ ī
Ter m
x axis
co effici
Ġg ain
ĠC H
En ter
onom y
T ake
in place
tra j
Ġad j
flow s
pol ar
ater n
N ULL
at alog
lf ile
Ġdata center
Ġres ample
Ġun signed
Ex port
ĠUse ful
head ing
G en
de claration
Ġp rom
Ġ`` .
Ġne ar
rel ations
String IO
86 01
pab ility
/{} /
Rece ived
M ultiple
M ULTI
Ġnot ation
par m
Ġch ip
ĠFor ce
Ġsome times
="" ):
] \
c ube
Ġp ul
Ġw or
'] ).
Ġde coding
ĠD I
op le
Ġcomp osite
graph s
Ġph oto
zone s
Sign al
inspe ction
) ._
G ithub
x ff
¦ Ĥ
en g
Ġf riendly
Ġm gr
ĠS IG
Process Error
) ==
n ost
st ors
Ġre cogn
33 33
Ġdistribution s
Ġsym bolic
Ġyear s
aut if
de ad
de cl
Ġr up
oc c
start up
ĠSe q
Per mission
ĠRed is
C LO
M ixin
u dio
å Į
Ġf ac
pe ed
Ġcol lector
ir th
ertifi cates
Ġbro ken
Ġhook s
ĠAss ign
Ġsuc ceed
E W
e ye
Ġass uming
Ġ[' -
Not ification
Ġrep lic
Ġconstruct ed
moot hed
C ard
Y PE
b rain
id le
ĠRe set
Ġuser id
RE SS
De st
Ġdraw n
Ut il
g as
di strict
(' =
vi des
") ]
oc kets
ER T
201 8
+ )
ca ps
De bug
Ġstop s
Ġut c
Ġhard ware
p f
t pl
ç ¬
Ġd ct
Re mote
]) ):
Ġsub type
mod name
ĠDef ine
ĠMan age
r ating
Ġcont ig
Con struct
Ġmo ved
queue s
Ġop code
AP P
,, ,,
autif ul
5 1
ur ses
Ġch anging
scri ber
File Name
En vironment
Ġear ly
[ ^
f wd
k y
w f
Ġle arn
ĠNO QA
Exist s
omin ator
D T
D X
c ron
{ "
de cay
Ġo pp
ĠV is
Ġsub tract
custom er
counter s
ĠMet adata
Ġcomplet ely
F uture
Ġ Keep
in et
on ce
st re
Ġa a
po le
from timestamp
clo sing
ĠJ ava
h op
un ix
Ġor ient
inter sect
color bar
Ġpol ar
Ġpair wise
Ġoptim al
Ut ils
Ġol der
S imple
\ .
): ]
qu it
ps d
Ġ-------- --------------------------------
mark down
expi red
Ġf ine
Ġp ow
Ġe m
la zy
po w
Ġ` .
bs Exception
Ġrandom ly
LA ST
Ġpla ces
ĠIP ython
}" '.
So up
Cate gory
> {
de ep
un link
th at
Con ver
İ· åıĸ
er ing
ar se
ur ic
ta bs
Ġpa g
comb ined
asa fe
LAB EL
Ġp od
ä¸ į
Ġconver ting
Ġinterpol ate
Ġrespect ive
Ġse mi
Ġle ader
Ġopen ing
ĠDe termines
Ax is
ĠNum Py
y ml
Ð ½
Ġo t
ra ction
ĠĠĠĠĠĠĠĠĠĠĠĠĠĠĠĠĠĠĠĠĠĠĠĠĠĠĠĠĠĠĠĠ ĠĠĠĠĠĠĠĠĠĠĠĠĠĠĠĠĠĠĠĠĠĠĠĠĠĠĠĠĠĠ
EN TI
Ġref lect
Ġmodification s
l hs
Sh ort
itect ure
A rea
M AN
w heel
Ġcon sensus
Ġat tack
LO B
PRO TO
cap ital
("" )
Ġf o
Ġw f
Ġw ire
Ġof ten
{} _
si bl
Ġpri mitive
ick ness
termin ate
Ġsym link
ĠSaltCloud SystemExit
! ".
L eft
Ġcon j
Re gex
ĠE OF
Pro to
p rom
Ġf lo
Ġpro xies
ĠF igure
Ġref s
NAME S
Ġreport ed
EV ENT
; \
res ample
dis p
dis card
comm unity
ĠGener ator
Ġtr uth
UP DATE
built in
al so
Ġ" &
(' \\
Ġco mes
Ġdef erred
py wbem
In f
std dev
let on
roll ment
Run time
sql ite
second ary
Ġalt itude
filen o
Ġ" $
Ġr ing
Ġ2 000
ĉĉ ĠĠĠ
ca ption
ĠIn st
Ġconnect ing
Ġmain tain
Ġcomb inations
Ġsol ar
Rel ation
LANG UAGE
G EN
R U
e very
g uid
l dap
ra s
ol ves
Ġex e
Ġup stream
Ġfore ign
cal ibration
Ġres hape
Ġlog file
DE F
pr inter
full name
Ġgo es
Ġrect angle
manage d
me ter
Ġin ventory
pl ate
Ġcomm unic
App end
Ġperform s
DU LE
Ġsing ular
m utation
u ids
re versed
sh if
Ġpla ced
transform er
ĠMo ve
R M
in vert
pre process
ifi es
Ġne ither
extra s
Ġlat ent
= ",
w ire
on ed
Ġt ranspose
__ ),
Ġpk gs
ORD ER
Ġpur pose
5 7
in str
Ġc le
an ner
Ġm c
[' --
cent ric
indi vidual
ane ous
treat ment
B ody
â ķ
ĠP DB
lit let
OR I
SET TING
Ġanaly ses
gu ide
> /
B ot
g rant
w v
x fer
ĠS ymbol
Ġv rf
{} .
las hes
transform s
ĠEnt ry
C N
C lean
C ertificate
L ike
] })
ch ast
Ġst able
Ġde claration
ĠĠĠĠĠĠĠĠĠĠĠĠĠĠĠĠĠĠĠĠĠĠĠĠĠĠĠĠĠĠĠĠ ĠĠĠĠĠĠĠĠĠĠĠĠĠĠĠĠĠĠĠĠĠĠĠĠĠĠĠĠ
Ġdirect ed
I con
] ",
th umbnail
pro viders
pre sence
ĠB it
Ġimport lib
LI MIT
Mo ve
G ot
I MAGE
b idden
Ġc redential
ĠM ultiple
DO UT
fla sk
16 8
Ġatom ic
ĠAc cept
UNK NOWN
ot ing
ype redge
Ġun changed
so up
ched ul
Ġinstanti ate
ĠNV ML
= \
b rid
m ic
Ġlog its
ob servations
Ġwhite list
æĸĩ ä»¶
iv ari
Ġobj s
Ġexp ansion
resid ual
fab ric
d w
p u
Ġt rees
co lour
Ġcon secutive
Ġy s
f rozen
(" >
Ġwh atever
ON T
comp uted
ĠCon tainer
Ġpl ate
ĠQ A
exp licit
over la
Ġinsert ion
( .*
O UTPUT
d get
Ġl hs
Ġg aussian
Ġco erce
ĠM UST
Ġauth ors
Ġtw ice
Ġsepar ators
æĪ ·
F l
S a
V S
e gg
h g
Ġp ing
ĠP ay
Ġy es
Ġ`` _
Ġ{} .
Ġcons ume
State ment
wait ing
KEY S
Ġpr incipal
C lear
b d
t umor
Ġn m
Ġg r
Re place
Ġph ot
Ġshow s
rep lic
Fe atures
Ġam ong
ĠMag Rec
Temporary File
a co
b old
f lip
y d
Con f
sub s
are r
Ġ", ".
Ġty pically
I SO
ne ur
{} ,
ep isode
LO CAL
En able
abb ix
E rr
G G
ä ¹
de precated
ist ed
pre ferred
ĠU P
we ep
Ġtrans actions
ĠCon st
face t
ĠSe ction
speci fication
æĪ Ĳ
l ue
æ Ķ
or bit
lo ok
Ġd rive
Ġpro viding
ĠJ ust
Ġtitle s
sample d
Event s
Ġ201 7
Ġinstall ation
Ġoccur rences
IST ORY
ĠDec orator
] |
b last
Ġre use
Ġfile type
Ġcomp utes
Ġlimit ed
En coding
OL D
Ġi v
it ers
Ġw eld
ri e
ma s
od ata
ĠF uture
ĠP ut
Ġx x
Ġpa ckets
ts v
man ent
}\ '
corre lation
ĠEn able
ĠLoad s
on to
le gram
Ġr t
ĠH DF
pos ix
pass wd
Ġpla intext
Ġhelper s
N ONE
a ys
pro venance
sh uffle
ĠSe cond
Ġsearch ing
PO SE
By te
Ġcy cles
Ġmeas ured
C alculates
g ray
ul lable
Ġh unt
cer ts
è¡ ¨
POR TED
Ġd n
(' ',
Ġ` {
sc r
ĠO pt
ĠW S
diag onal
Ġsmooth ing
R DF
h r
y r
Ġst roke
Ġh olds
age s
inter active
Attribute Error
Ġpmag plotlib
tor ch
hand led
D river
Ġre cognized
Ġse mant
ĠD es
ĠB Y
Ġpass phrase
request er
CON ST
Ġcir cuit
ch ip
vi ations
ĠL ambda
Ġport al
Ġfail ures
Ġ12 3
Ġautomat ic
Ġrecur sion
B A
` ."""
h uman
Ġf id
Ġf path
Ġre ward
ĠW here
Pro vider
Sh k
Ġflux es
æŀ ľ
C alcul
Ġp rt
() )))
Ġal g
") ):
ĠM D
Ġcol l
Ġun supported
tra cker
Ġca uses
Ġclass name
Ġreal m
ĠZ ero
Ġdrop ped
Ġs he
pa che
ag ents
ME N
plan ation
ĠERR OR
W IN
å °
Ġun set
ĠG en
Ġover written
Ġgra mmar
: ]))
V ariant
o ck
v p
in ject
st ype
ur lopen
Re set
ĠF l
ĠThe y
Ġpa per
Ġqu bit
qual ified
Ġ$ {
Iter ator
ĠMA V
T M
U UID
f ingerprint
r ates
Ġw cs
Ġw allet
Ġm arginal
cal led
ĠF OR
Ġcluster ing
Ġnamed tuple
Ġmodifi er
c rc
g h
Ġf r
Ġ' '),
Ġal arm
Ġ201 8
Ġconver gence
uric reate
" ``
I gn
Ġi mt
ĠT ree
ĠL inux
min i
Ġpoint ing
Ġsubject s
Ġscal es
? \
Re ply
pre ad
Ġj id
TI VE
ĠSet up
sym link
SCRI PT
CLI ENT
Ġal bum
Ġun ix
Ġdire ctions
Ġinter cept
trans actions
stra ined
Ġmark down
Ġregex p
L ines
as sembly
Ġr d
ĠE stim
ĠBy tes
Ġpeak s
ä¿ ¡
an za
li bs
Ġfi rm
ĠS ame
ĠC annot
mat erial
Ġ3 00
Ġindex er
for um
dis crete
201 6
Pri ce
L ong
n k
Ġc sr
ĠP ID
Ġen force
ab breviation
Ġsp here
clo sure
ĠJ son
del t
Ġoccur rence
Ġpotential ly
Pol y
Ġblue print
D K
L anguage
it ivity
Ġ1 0000
Ġpa gin
ps a
Con n
He aders
Ġeffect s
Row s
Dep end
w as
Ġb rain
Ġse ss
ĠN S
new line
Ġver ified
Ġqu adratic
FI L
Ġexp ressed
Not Set
Ġauthor ized
Ġbind ings
Ġtile s
ĠBe cause
Ġthrow n
Ter min
c art
h old
i ff
â ĸ
it ches
ĠT otal
ĠB ig
Ġcmd s
pub key
CON TENT
writer ow
Pub lic
Cd lib
in voke
lo sses
Ġse ctor
te ctions
Ġtrans itions
Ġfl uid
Ġindic ated
ĠProper ty
t rees
ar b
Ġl vl
ĠRe trieves
ab stract
tern et
Ġmin ions
Ġinter actions
... "
Ġgraph s
Ġsim ulated
201 7
language s
Ġear lier
d rive
t mpl
ar ter
Ġ( ?
Ġh olding
Ġ* /
ĠF ix
Ġcont rib
ĠCon d
roll back
He ight
Ab stract
P ACK
d k
w ill
') ])
Error s
ĠĠĠĠĠĠĠĠĠĠĠĠĠĠĠĠĠĠĠĠĠĠĠĠĠĠĠĠĠĠĠĠ ĠĠĠĠĠĠĠĠĠĠĠĠĠĠĠĠĠĠĠĠĠĠĠĠĠĠĠĠĠ
Ġpa inter
AT URE
Ex pi
Ġper iodic
De tails
Ġframe work
Ġcalcul ating
annot ate
Ġqueue s
Ġserial ization
Ġfra c
AS K
ĠTrans fer
cum sum
ĠStruct ure
h h
t len
Ġp sd
ad m
Ġcon struction
Ġsub s
RE E
11 11
final ize
C redentials
S yntaxError
c itation
Ġm n
con sensus
ĠS V
ĠS um
Ġv a
add Handler
fe e
å ¾
ate ly
min us
work dir
De cimal
circ le
alo gs
8 1
g al
t ions
il led
ĠT w
)) ),
as ses
Ġfile obj
Ġj ava
Ġsub mitted
Pro duct
')) .
ĠSt andard
Ġnormal ly
ĠRun s
Load ing
Ġrep lication
Ġseparate ly
Pol ygon
fir med
S cale
S ome
T U
g greg
yste md
schema s
Argument s
Gener ates
éĹ ´
F ACT
I LED
Re lease
ĠF rame
add rs
ĠM E
ĠCol lect
Dec orator
i co
j inja
t runk
Ġ âĶ
son g
IN PUT
spa wn
Ġshould n
Ġqu it
Ġworks heet
anti ate
pur pose
( {})
) ``.
d ent
s z
y min
Ġg aps
ĠA ut
ĠS I
Ġpro pag
Ġra ising
text s
Ġby ref
ĠQ gs
ĠHe ader
autiful Soup
e vidence
k n
Ġt pl
Re quire
Ġfil t
Pro duce
serv able
ĠCol lection
Ġcopi es
Ge o
+ ')
] _.
p atches
w ide
y axis
se cho
ke s
ve ct
nt he
ĠF ull
Ġdef er
Ġk not
ĠWh ich
hes is
SER VICE
('.') [
åĲ į
atern ion
f ar
ł ģ
int ro
Ġ`` `
Ġret code
Ġdis covery
Id x
Ġut ility
Ġexpect ation
predict ed
S ync
e lastic
h ance
q m
| |
Ġd ense
ĠT ABLE
(' $
et s
Ġ3 600
Ġcontext s
cd lib
short cut
rupt ed
Ġreci pients
} </
Ġc mp
ur able
ĠT I
==== =
Ġtrans lations
av en
pop ulate
D im
æ Į
se gs
Ġf f
up d
to uch
ä¸ ĭ
ivari ate
Ġin clusive
Ġb on
ĠC or
ĠRe quires
Ġcur ves
Ġsa f
x FF
de cess
ĠS tack
pro vided
all ery
Ġ` {}
bo ost
CON T
Ġ201 4
Py Cdlib
Ġfirm ware
L ife
y cle
Ġc x
ing u
co uld
sh ake
rig ger
fetch all
Ġtor nado
Ġinterpre ter
pex pect
D ump
Ġf ault
it o
AT TR
Ġpy cdlib
Ġsp ans
TI CAL
SCHE MA
Github Object
. {
Ġd types
In tegr
token ize
LA l
xim al
Act ivity
Comm it
Lib rary
al one
un s
to c
col lector
user id
Ġanaly ze
Ġri sk
Ġpycdlib exception
Ġc ron
Ġe tag
ĠC ate
Ġpro cedure
Ġ` _
Ġmin im
Ġtra de
EN V
char acters
Ġcalcul ations
sv c
åı ¯
= .
[ %
p ment
Ġ unt
Ġde lim
Ġ` '
mo lecule
ĠB atch
Ġstart up
ĠData base
Ġcorrect ed
thro at
' %(
B L
H z
d pi
in table
Ġf ft
ĠS ingle
ĠC OL
Ġlib raries
Ġlock ed
Ġdistrib uted
d types
Ġres ume
Ġreg ression
Ġchar ge
handle s
Ġapplication s
spect rum
56 78
o DB
u ce
Ġh p
ort ed
Ġra d
ĠP UR
DE SCRIPTION
Ġali ve
multip ly
E MP
E valu
d na
è ´
st ick
Ġre view
mp p
ad jac
Ġpro vision
inal ity
Co ordin
ĠLo okup
Ġseq s
SER T
At tach
ur is
Ġw heel
Ġ[] :
Ġsub plot
we bs
find er
Ġep isode
LAl chemy
' ")
on ym
Ġwe ather
Ġge ome
stud y
ĠFa iled
Ġdi ameter
Ġpro duces
ĠIn sert
IO Error
TER S
C or
D one
W R
v fs
ç łģ
Ġc type
Ġg c
Ġ` (
ME TA
Ġinitial izer
LA GS
stop ped
Ed ge
ĠREQU IRED
¦ ģ
al phabet
Ġb last
list ing
Ġextra ction
ĠCo unter
order ing
Di ff
CON NE
ĠId entifier
* )
S ingle
] `
b id
e ig
Ġt iming
(" :")
us ic
pro f
pro blems
Ġtime d
DE N
Ġthresh olds
$ ",
/ {}'.
C orre
L a
d T
y ellow
Ġst oring
ĠV irtual
rs a
ĠUn it
ĠFind s
4 1
SC A
Ġrep lica
attach ments
Ġeas ier
W RI
Ġm time
one y
ĠE N
Process or
Up load
P ick
b ust
Ġstage s
Ġhyd py
d ag
in cluded
Ġc trl
si mp
Ġqu ad
De termine
notification s
c x
c as
ar ct
ut ter
ĠP e
ĠP ackage
Ġset ter
Ġte ch
RE AM
Ġper ms
Ġpart icipant
Ġ"% (
Ġassoci ate
Ġqual ified
W ID
Ġin ds
Ġu int
py pi
Ġper f
Se gments
vl c
Ġattach ments
ĠClo se
Cur ve
ĠElement Tree
Ġartifact s
Ġvocab ulary
Med ia
Ġoverla pping
* '
C allable
t an
Ġ é
Ġf t
Ġpro ceed
mo ck
Ġpri vile
Set up
exp lo
Ġcomm unity
lon s
Ġconv olution
sel ves
Dist ribution
L F
f requencies
Ġto po
qu ential
comp act
Ġestim ation
x d
as pect
Ġdis connect
Ġcre ator
ĠDo main
Ġmanage ment
a way
min ions
Ġsub parsers
{} ]
vis ibility
Valid ation
Bytes IO
Ġc as
um in
ex clusive
Re stricted
ĠP A
Ġla m
Ġun defined
ĠW rap
trans lations
Ġsend s
N aN
Ġp atches
ĠT op
da ily
Ġord ers
= (),
R ight
t ure
å Ĩ
Ġf etched
ĠT ri
Ġth er
__ ')
extra ctor
tr uth
}{ \
ĠPer forms
RA Y
Spec Rec
Ġxy z
Ġtrip le
S F
g ps
u cli
v min
as n
ise ct
ĠE mail
iter tools
fore ign
writ el
clar ations
ĠSign al
b z
Ġst ra
pla cing
IN SERT
Ġinter action
Ġrecord ing
Ġdf s
---------------- ------------
cb c
Ġfrozen set
M aster
r na
par sing
tra verse
To o
Ġconnect ivity
Ġstat istic
expi re
ims how
Ġpag ination
ĠPUR POSE
> %
D L
e lapsed
ma cs
Ġma gn
fo lio
In st
Ġno inspection
mask s
blue print
B reak
l w
ĠT YPE
Ġ> ,
St d
ID E
Ġport ion
Ġprefix ed
Ġtrunc ated
lips is
f ork
r g
Ġ joint
Ġs lots
Ġl r
Ġpa use
Ġ4 2
AL T
Ð¾ Ð
P D
p st
s uggest
la in
op ing
mat ic
Ġtext s
cor outine
Add ing
over all
sa mpler
Ġpop ulated
æķ° æį®
w k
on line
Ġsub domain
with in
Ġvalid ity
Ġgroup ing
Ġassoci ation
Record s
expi ration
Ġmiddle ware
el ded
ab i
report s
Ġcor r
Count s
Ġperm utation
Sk ipping
x max
Ġf out
Ġn atural
id ity
(' @
Ġph rase
tmp dir
Ġpublish er
manage ment
H H
r ms
data center
ĠC ur
ĠF ilename
ign ored
Fe ed
Ġpercent ile
Ġapproxim ation
Ġconflict s
h unt
Ġs ay
ject ories
Ġchunk size
UN I
PAT TERN
Ġzone s
Const s
) [:
O PEN
P ress
c ats
r ink
Ġin complete
ss ian
Ġh i
vi a
Ġpre fer
base line
gen us
ĠPro file
Class Type
MO DULE
Ġspa wn
cod on
PASS WORD
? ',
E MAIL
Ġ== ================================
Ġv ary
ĠRe port
__ ':
Ġmin imal
Ġpri v
Check ed
case s
Ġcred s
7 1
O IN
R oute
m st
sp ot
bu ses
Ar ch
}) '.
Ġman ual
ass oc
ĠHe at
Ġactiv ate
Ġtz info
P AGE
t ensors
Ġr l
([ -
dis covery
Ġ'% (
={} ):
Ġtrack ing
S W
Ġd u
di alect
as m
ĠS H
ow el
sign ing
ĠDe precationWarning
rain ing
radi ance
O O
T r
a ir
se ason
Ġd h
id en
Ġgra dients
alle les
ĠWrit ten
Cond ition
> '.
d ll
ĠT wo
par agraph
00 01
wa v
Ġany way
Ġtoken ize
Ġq ry
Ġhash er
Ġloop s
Ġconsist ency
tlen e
re view
Ġn aming
date d
Ġen semble
Ġcode c
EN ABLE
exp anded
Ġwant ed
serv ing
Read ing
imp licit
(': ',
Ġblob xfer
ĠSim ilar
Ġ Keys
al n
ĠT urn
Ġg f
und ant
Ġfunction al
Ġac celer
SS H
medi um
Path Spec
Ġvirtual env
Su bject
- ',
S napshot
Ġc aching
Ġre pl
wa velength
SE D
ĠDe letes
track s
Ġcir cular
Hel p
Ġtran spa
" ',
Ġm ention
Ġst ub
Ġpart icle
List Type
B us
h am
in cluding
Ġt cp
Ġb ridge
Ġb ands
ad ir
as semble
Ġl max
Ġpol ygons
au ge
Ġtr ust
Per cent
product s
F it
Ġo mit
ch k
Ġg pg
Ġal located
che m
ĠH ISTORY
Ġsc r
=[ ]):
Ġcent ral
lan e
SP ON
Ġsimp li
car ded
circ uit
stud ent
, (
> ",
? )
C ase
F ill
W rong
Ġg ather
Ġpar a
Ġpre cedence
Ġtest ed
Ġbuild s
Ġdraw ing
I mp
h c
h ar
ĠT ab
ĠA L
ub ic
ĠU t
Ġle ad
pos al
decode d
Request Exception
Ġ201 9
Ġnet loc
' ``,
w args
al bum
pre ference
Ġmatch er
mi rror
AR GET
---------------- --------
sn r
ĠQt Gui
require ment
mime type
N ORM
å ¹
Ġp v
di vide
as p
ĠM ain
der ived
Ġsu bj
bs olute
AR G
SE C
De v
fra g
ĠFile NotFoundError
Ġannot ated
authentic ate
ĠSN MP
Ġsph erical
E stim
j ax
Ġp res
Ġs ynchron
(' ~
Ġ[ <
ip ment
Ġen dian
os a
Ġfull name
mig ration
Ġuncer tainty
< =
B ank
M achine
Ġ' ='
ĠCon s
mis c
ĠSystem Exit
Ġance stor
" ')
b m
Ġo dd
ĠD ATA
Ġnew er
tra de
Ġcheck er
RE L
Pro p
... '
P K
S yn
Ġin finite
ch mod
ĠS ET
Ġcont ribution
Ġj inja
Ġ', '
Ġdecor ate
ĠUnicode DecodeError
........ ........
c ity
li ms
is null
Ġ" :"
ĠS Array
Ġpre ference
** *
direct ed
ĠMed ia
9 1
T F
Ġa cl
am az
ĠM V
fa ke
(( (
ME T
Ġ'' }
ND Array
Ġdec ision
MENT S
Ġadjust ed
FIEL DS
è¡ Į
Ġimpro ve
. '))
a con
d as
f riendly
i lo
Ġan ts
Ġal ter
ĠComp onent
Ġfn match
Ġwa ys
Ġc ity
ur st
li der
(' ;
Ġh ot
ĠS yntaxError
ers on
ĠW BEM
scal es
Ġbutton s
^{ -
subscription s
hem ical
ĠAttemp t
e tag
t ilt
z illa
Ġ' |
qu ake
Ġy lim
ĠN umpy
Ġare as
Ġcomp osition
Ġign oring
Ġmedi um
Work er
Ang le
P lace
h ib
IN DEX
12 0
Ġexp lo
diff s
Object ive
Ġremo val
ĠSh ort
IP v
sur f
ĠCall s
åĪ Ĺ
Serial ize
Ġsear ched
ĠFAST A
Restricted ClassType
S cope
Ñ ģ
Ġlo st
ĠS HA
Ġv endor
col l
])) ,
ĠBo vy
ĠRO OT
- ~
G ING
Ã ³
æ Ń
Ġm pl
Ġpre pared
ĠW arning
ou ch
inter cept
Ġextra ctor
ĠAn alysis
sup p
ĠName space
Check ing
åı Ĥ
Ġincre asing
Pri vate
F ROM
H ook
d ri
r pm
ct ure
ĠC re
ĠR ender
ĠL V
cur se
Ġsign atures
ĠCh ar
regex p
Ġspect ral
Max imum
Ġmultip lier
flu ence
Ġmi rror
ä¸Ģ ä¸ª
j k
s wap
u ing
å Ģ
al ready
(' ^
ĠP r
00 000
ĠH ist
cor ded
gener ation
Ġcy l
Ġsv c
å® ļ
L M
T C
v env
Ġ urn
re ction
qu bit
ĠC luster
back ends
ĠEx pected
ĠH igh
default dict
process ors
let ters
Ġscalar s
Vis ible
) ^
= <
A MP
L at
è ·
Ġb io
Ġde leting
ĠB E
Ġat ol
ree ment
sub class
Ġblock size
ide o
cid r
' `
? "
g aussian
v endor
Ġh df
pp ers
ĠC ould
ĠC SS
ĠF ill
pl ural
ĠMe ta
Ġequal s
ĠPo ssible
pers ist
%% %%
tlene ck
r hs
s as
y per
Ġw ants
replace ment
To ols
FA IL
Uni code
Ġrestrict ed
Ġgp u
bri ef
! ='
g rouped
s lope
Ġc k
Ġre duction
Ġp x
ĠA ttributes
to string
ĠS tri
ĠR ange
Ġle m
Ġle aves
ĠIn di
tag ged
Ġretrie ving
avig ation
l unk
p added
me tri
ind x
ĠN u
Ġpre ce
ĠB asic
Ġduplic ated
Ġpers istent
shard s
ĠWrit es
Ġadjac ency
å¯ ¹
A vailable
w ater
in y
Ġd up
Ġg row
Ġlo sses
ĠF ound
Ġint ent
Ġprint ing
ĠB EL
Ġoper ating
part icipant
iss on
serial ization
Ġaccess ible
Pre view
Ġepoch s
ĠSQ LAlchemy
r ng
t urb
de lim
Ġor b
Re moves
ĠĠĠĠĠĠĠĠĠĠĠĠĠĠĠĠĠĠĠĠĠĠĠĠĠĠĠĠĠĠĠĠ ĠĠĠĠĠĠĠĠĠĠĠĠĠĠĠĠĠĠĠĠĠĠĠĠĠĠĠĠĠĠĠ
Ġac cessed
arg min
Co ord
temp dir
AB ASE
}' ".
Label s
interpol ate
s quared
data s
ĠW ord
ret ch
Ġassign ments
Gener ic
Ġaltern ate
reci pe
}- {
n asa
Ġt i
ur o
Ġb ill
Re t
Ġ2 6
Ġcol lapse
... ]
Ġ& &
Ġsplit ting
sid er
vers ation
Ġhead s
66 66
Ġtermin ated
Ġguarante ed
Ġt id
Ġde cay
Ġpath name
Ġsee k
Config Parser
normal ization
BY TES
Hist ory
middle ware
se ase
Ġc rc
Ġco eff
Ġkey ed
RE T
cond itional
Ġtag ged
Th reshold
Ġ"- "
Met ric
ĠDynam oDB
: (
F n
d os
l ng
l vl
t bl
Ġr ates
Ġat las
RE GI
Ġreason s
Ġrelationship s
war ded
chast ic
A tom
j pg
de an
Ġs park
ĠF ast
Ġj ar
Ġreg isters
Data Array
Ġfla sh
Ġface t
b tn
Ġl dap
ĠM AC
sent ial
post s
Ġvari ation
Ġsy llable
dispatch er
represent ation
d ashboard
v g
Ġn orth
Ġker as
âĶĢâĶĢ âĶĢâĶĢ
Ġi e
Ġv oid
ĠE num
fe ats
line sep
row se
find iter
('/ ',
oriz on
FLA G
Ġconfirm ation
ç ±
st ored
ĠC allback
ub er
roll ers
Cont ents
Ġenviron ments
pert ure
~~~~ ~~~~
ĠINT O
F ault
R ST
T ri
d on
n py
Ġst mts
ĠP IL
ĠRe mote
files ystem
dis ks
Ġbreak point
Ġwidth s
PO SI
Ġfit ted
ĠParse Error
Ed itor
________ ________
upt ools
ucli dean
v r
Ġin str
Ġs aves
ver ified
ĠL D
Ġad v
ĠSpeci al
grade book
ĠHandle s
255 19
NUM BER
pas sed
" +
C ancel
h l
ar ith
le ave
me mo
Ġs lash
ra st
Ġl m
ĠS c
et y
tra js
Ġmax iter
Ġli quid
De pth
ĠHE AD
o grams
Ł ¥
st ations
Ġp rune
Ġs atellite
Ġm ysql
cal ib
ĠP open
cre ator
Ġad vanced
Ġman ip
Ġstruct ured
Ġgen otype
Ġvis ibility
week day
z mq
à ®
ro s
Ġcon current
sp ike
Ġme ters
Ġhas hed
gra mmar
Ġ-------- ----
Ġdiff er
Ġref ers
Ġmonth s
big query
TRI BU
D imension
in herit
Ġr p
ca pabilities
Ġab sent
Ġdisk s
rep lica
Bo ol
Ġest ab
amaz on
P otential
ver sible
ig ab
{} "
fla sh
bar s
Ġview er
D es
L C
N EL
] ``
Ġc itation
Ġ' ^
ra mid
to ggle
CON F
document ation
ĠTime Series
llegal State
åį ķ
s ive
} $
ĠM at
ĠM ore
ST REAM
gp g
PRO CESS
Ġlex er
HI TE
Ġw all
Ġh s
sc enario
Ġwe ak
:` <
(( -
Ġ4 5
amp Rec
Ġcom bo
ĠValid ation
soft ware
Ġmot or
("/ ")
RES ULT
P acket
c redential
e a
q ry
z s
le ader
Ġc art
Ġc artesian
Ġre named
Ġp tr
ĠA T
per ly
Ġx array
ph en
class ifier
ON G
Con straint
ĠIn stead
==== ==
fil led
Ġgra ce
11 1
={} ".
Ġsto ck
REC ASE
F FIX
S aml
g ran
Ġ' ['
Ġg ray
ĠS Y
ĠIn it
close st
Ġstack level
Ġshut it
Dist ance
Ġmicro seconds
755 4
G A
e Life
å ¸
in structions
Ġre call
Ġin i
path name
Ġinterpol ated
contact s
modifi er
similar ity
E K
S te
d j
s x
in voice
re ward
Ġs z
ĠI F
Ġpro be
ip ament
Ġhe ap
ĠW CS
ĠB io
lat in
(_ ("
atter y
Ġtri angles
RA W
As sessment
Ġt mpl
Ġs ca
ve cs
Ġr g
ĠF LAGS
url lib
Ġ`` <
log o
ĠL imit
ĠU I
pen ame
LE FT
FA ILED
TER M
Ġdimension al
ĠTime stamp
Ġsto pping
ĠEl se
a bove
q c
get item
ip y
col on
are as
AD ATA
={} '.
Ġsn mp
Ġqual ifier
Ġev t
Ġsoft ware
FUN CTION
A V
} (
Ġv ote
und les
py c
ĠR ole
ĠL ike
gra ds
Ġback ends
Ġfind s
Ch unk
Ġang ular
subject s
ĠThere fore
Ġtar file
g m
w arm
Ġo sp
un wrap
Ġy y
ĠO P
var name
zone file
Ġrel path
QU ERY
ĠTrans action
Over ride
scrib ed
IGNO RECASE
> `.
S core
m ing
Ġd um
pe p
Ġ( \
Ġst im
Ġr val
po sterior
sh p
cate gorical
Un its
Ġcalcul ates
Ġ'{} '.
ctrl pts
b alancer
Ġi ps
ĠS upported
nt ime
valid ators
{} :
label size
Pro blem
Ġalle les
reci pient
Serial izer
M ARY
b t
Ġ orm
Ġl c
ms gs
Ġpre view
ĠG lobal
Ġent ered
Ġforce d
dev ops
TO P
Ġexclude s
ĠQu antity
freq s
Hel lo
Const ants
Ġdiv mod
ĠAli gn
e igen
o ctet
er c
de re
Ġ' ):
Ġb enchmark
Ġ" @
Ġlo cate
Ġpre f
ĠR A
ĠPar ser
Ġgener ally
include s
Ġissue d
A IL
E l
M ore
e ven
h ints
re index
it ations
Ġlo t
Ġpro venance
ag in
RI GHT
201 3
ĠReg ion
ĠMem ory
ç± »
' [
G lyph
g ather
Ġn cols
To Char
Ġcomm its
real m
Al gorithm
a pt
Ġs pread
Ġth ink
__ ']
ON LY
cur ves
Ġoper and
omat ically
åı ĳ
ĠBe autifulSoup
Ġeigen values
ĠLine ar
upy ter
Ada pter
er ated
ar ches
Instance s
ĠGit Hub
LOB AL
y ou
Ġl p
Ġsub command
Ġser ve
FF ER
Ġdesc ending
drop na
PA RE
Ġbra cket
pie ces
Ġadjac ent
S upported
v ault
æ ³
Ġt k
Ġm en
ĠT y
ĠA D
mm utable
ĠM ult
ph p
Ġnetwork x
Ġshow ing
Ġreplace ments
ĠOn ce
tile s
sto res
Ġms gs
detect or
Ġcod on
S pect
S kip
} ))
Ġ lf
set Formatter
ĠV ert
Ġaccording ly
pd ating
" %(
D Y
g ca
o spf
Ġd P
th ree
'] })
Ġde cl
Ġkey board
sh adow
add Widget
Ġpath lib
tern ational
reg isters
cum ulative
Align ment
Ġfoot er
p ul
Ġt ube
Ġf ut
Ġn om
vi p
ub y
ĠB oth
ac le
ures ystems
Ġsc ra
12 5
document s
Mo dified
PY THON
Ġstride s
ĠEnt ity
ao spy
Ġsatis fy
uresystems lib
, ):
] ][
re served
Ġs moothed
is in
ĠO F
match er
Ġroot s
test ing
By Name
lon gest
YANG ListType
l bl
r w
} ;
ct r
Ġl ng
unt u
og onal
env s
Ġtx n
CRE T
Ġoverrid ing
Top ic
- {
P ING
P UB
d ark
e ither
k k
r dd
v network
ĠA vailable
Re po
Ġpro pagate
ĠP SD
line width
fit ness
ĠSo ft
-~ -~
2 34
v otes
w id
Ġn rows
Ġdi vide
ĠC I
app er
ĠG UI
ĠW ARNING
ener gies
ST EM
Ġtoken izer
Co okie
dist inct
release s
fail ures
Ġdot ted
ĠReg istry
NE W
ĠMan ager
Writ es
COMM AND
b ol
o ids
re run
Ġf m
Ġ_ (
Ġpo re
Ġso und
RE SPON
cont iguous
man ual
Ġaccept ance
Ġplace ment
qq q
CF G
ĠMulti Index
- '
C l
g uest
j wt
ã ģ
Ġpro viders
us ually
__ '
Ġvalid ators
np ack
Ġstream ing
Ġrece iving
trunc ate
deli very
] ._
y ond
¡ ç
er ry
qu ares
Ġargs pec
Ġav ailability
En v
Ġknow ledge
Back end
MODE L
effect ive
/ >
ĠR SA
SE CON
ĠHTTP Error
ili ary
w eld
ve locity
ĠA CL
ĠV LAN
Ġexist ence
fore cast
embed ded
Act iv
ami lies
I ABLE
T ransport
d ur
d scp
m or
in ing
Ġe levation
Ġw rapping
ĠS park
ne cessary
IN E
sub parsers
iss ub
seq id
ĠAuth orization
EV T
integr ation
Ġtun nel
DOC TEST
+ (
C V
C AP
_ *
v max
x ls
Ġb as
ol ving
Ġex ceeded
ĠC R
math rm
Event Data
Ġoptim ized
ï¼ ļ
multi part
âĸ Ī
. ]
i map
l just
Ġre lax
Ġs anity
Ġl and
ĠP RE
pa gin
Con sole
Ġac cur
Ġdis cover
Ġtra verse
year s
J Link
x FFFF
se x
ar win
Ġs x
co erce
Ġ" \\
Ġh l
qu ota
ĠC ase
ĠF loat
url parse
ĠL anguage
Ġ[] ))
iter values
Data Type
MA G
ĠInput s
ffici ency
contin uous
Ġaz ure
click ed
ĠResult s
ĠNormal ize
Ġelect ro
/ ')
b w
o ct
y max
Ġf old
Ġs light
Ġs anit
ut ors
Ġd ashboard
th umb
and box
pa que
Ġbo ost
Ġag ents
ĠDe st
Run ner
Ġannot ate
Per iod
Ent ries
Dis patch
ĠInter face
Orig in
B inds
m ble
Ã °
co variance
pt ides
es h
int ensity
ĠD rop
pi cal
stat uses
rep lication
icip ants
l sp
z ation
he mer
ul ates
Ġ{} '
base dir
ST O
Ġq qqq
User s
Could n
havi or
Ġdiag ram
YY Y
ĠMI ME
J S
M ON
S m
Ġp n
ĠEx port
Ġmat ter
Ġproject ed
Group Name
assign ments
Ġinstanti ated
Ġsuc ceeded
Ġresidual s
F L
G PS
w ant
Ġdi vision
file Name
Ġj c
Ġcomp ose
stri ctions
FI ER
pub lication
Ġestim ates
Ġequal ity
('- ',
phan um
ç¬ ¦
t ics
re z
Ġr ating
Ġpar ses
ĠF ore
ph inx
ĠG rid
Ex pect
direct ive
dat um
Ġrec v
IG N
redu ced
END POINT
Ġfore ground
publish er
pie ce
T ASK
b ility
f utures
r ins
y our
Ġc g
Ġco lored
Ġ== ================
ĠV ER
Ġnew lines
Ġj ac
{} '
ĠCon tains
Sub net
CH ANGE
ten ded
ĠFile s
Ġsegment ation
Ġmot if
c and
f x
i ssion
¾ ç
se mi
at ypes
ur lencode
Ġb id
Ġw it
Ġst ick
ĠW rapper
pri mitive
' $
. -
S urface
W M
Ġ jo
Ġf ld
ic ast
ber t
ĠL E
LE S
xx x
Ġsym metry
Pa ir
capital ize
S UM
b ine
s he
Ġc and
an im
con cern
Ġde crypted
Ġr u
ĠH z
fil ing
do es
sl c
Message Box
spe ech
ense mble
track ing
Met rics
Ġener gies
ToChar P
R ot
r ated
ol ing
ĠL ib
lock s
Ġlisten ers
listen ers
ĠAx es
ĠIndic ates
arct an
A m
C RI
u a
um i
ĠEx pression
we ak
ĠAl tern
mar ize
Ġps util
B ro
l xc
è Ģ
Ġre build
Ġif o
ut ron
Ġpro x
ĠD ump
string ToCharP
Ġhas n
lat s
ĠJ WT
Element Tree
Ġloc us
Al ready
skip ped
Ġhex a
Called ProcessError
COD ING
j pl
t ight
ot ion
Ġas sembly
ĠN B
ca mpaign
ab ly
Ġsp ot
Ġ... }
AC CESS
icro soft
Ġlate x
åľ ¨
) ()
T CP
s lave
ad v
Ġh mac
ĠF requency
us hed
sh ipping
ug ate
RE SET
soft max
Ġsph inx
DIRECT ORY
H igh
M ac
S ING
W rap
b ash
u k
Ġt re
Ġc raw
Ġc ertificates
"" ,
Ġpro portion
ĠP EM
pre f
Ġcomp act
16 0
Add r
ĠRa w
perm utation
cred it
ĠCom ment
ĠMongo DB
S calar
T ARGET
Ġa udit
ĠS ends
Ġal go
pi o
Ġle ase
Ġ3 3
ST DOUT
Ġblock chain
Ġallow ing
DB Session
ĠConfig ure
Ġplatform s
ĠInter val
Ġmot ion
ĠFinal ly
B AD
K ind
k args
x ticks
Ġw d
unc er
]] ]
Ġpub lication
break point
schedule d
Ġeas ily
ĠSec urity
Zip File
D N
O mega
W atch
q p
Ġc ance
ol ated
Ġr bridge
Ġro bot
level name
bro ad
Ġdir ty
ĠMake s
segment ation
Format Error
ĠĠĠ Ċ
it ors
Ġpro t
Ġpro duction
Ġx lim
ĠL at
An notation
EX EC
Ġsql alchemy
ĠAs set
FILE S
Speci fication
ĠSup port
Ġrepos itories
ĠCF G
Ġwebs ocket
_ \
er ied
Ġs quared
vi m
ĠO per
Ġmembers hip
Over lay
ĠUp load
METH OD
" )))
A mount
} })
sp ans
pro be
ĠE very
Ġtime step
ĠV i
ĠH as
Ġinter act
Ġ4 01
Ġdiff s
Invalid Argument
hex lify
Ver ify
è® ¤
Wh en
rout ine
: /
F inished
L ambda
S ide
d raft
v ote
ĠT EXT
ĠN ext
ĠL ast
"] ):
sm art
Ġans wers
calcul ated
Lookup Session
WRI TE
> ``
D b
x f
è ¦ģ
Ġa min
Ġin herited
ut s
ex cluded
Ġcontin uation
Ġsingle ton
Ġnon zero
est ed
Ġfra gments
Ġconv ex
ĠOne Login
D uplicate
Ġf coe
ĠD imension
ĠG P
ag ers
([ ('
RE MO
(_ ('
pac kets
BU ILD
tw itter
aut os
Ġvo ice
adjac ency
j j
p du
Ã ¤
re aded
fi sh
di es
Ġ+ \
ĠS ci
Ġ2 7
ĠR ule
Ġid le
cord ance
cre asing
cent roid
loc ities
Ġdatabase s
QU E
Ġ[]) .
mar sh
CL U
DA Y
* :
c g
Ġt qdm
Ġp list
un ities
ra ck
te ins
(" .",
Ġtra ffic
gen otype
Ġlib spice
gramm ing
arb age
) [:,
h ull
me ters
Ġm iss
Ġpy h
PE G
sql alchemy
Te X
some thing
substit ution
Ġ`{} `
` _
a che
w i
Ã £
Ġde serialize
Ġx r
Ġca ught
be ats
ner gy
Ġ"" ).
ven io
fetch one
atom ic
; "
d rag
e levation
g ates
t iming
re gs
Ġ: ],
Ġ1 99
Ġpo res
ĠM L
ĠR DF
AT TRIBU
sub domain
ong odb
accept ed
Ġnu cleot
ĠVAL UES
+ )\
S ys
a udit
b ench
h z
he artbeat
Ġre member
Ġd ash
Ġth in
Ġu b
Re al
ĠS can
pro xies
Ġ3 5
ron s
auth ority
members hip
Ġden om
p ca
at k
Ġ( {}
um idity
ĠM ac
ĠL i
Ġk appa
the docs
ĠGener ic
Ġpartial ly
thresh olds
Ġur lencode
Ġsilent ly
Ġsear ches
c artesian
c spice
s anitize
un defined
ĠT F
set Enabled
Ġdi vided
Ex periment
arg ins
ĠSt at
Ġfla vor
Ġzone file
sha res
mc client
Ġcipher text
Ġconcaten ated
æİ ¥
ĠWS GI
N L
X ml
] ==
Ġh d
ĠA NT
ĠP ress
ty ping
Ġapp let
pack ed
Ġrelease s
catalog ue
pred s
Su ch
F LO
S chedule
] **
Ġst em
Ġr type
Ġon line
cl ust
In formation
for ced
check out
Ġpos ix
NAME SPACE
Ġcons umption
Ġplace holders
month s
Line ar
Ġdeci de
B IT
K B
b ag
h al
st h
Ġl t
ĠS trip
Ġ2 9
Ġ{} }
Lo ok
Config ured
ik a
Ġalign ak
sim ulation
OS Error
Ġvox els
Ġdeli very
RESPON SE
Ã£ o
' (
A ut
m ate
é Ļ
Ġa ch
Ġp run
Ġe gg
Ġ( .
ĠD NA
Ġtype d
ok u
do f
bound ing
success ful
tool bar
ĠDate time
åħ ¥
artifact s
1 10
v z
Ġp ivot
Ġin form
Ġs nap
ro pping
qu otes
our ier
Ġpo le
ip ython
net es
Di ctionary
Po inter
Ġwrit able
Ġfin ite
Ġshif ted
uber netes
P ush
[ ]
a h
j vm
al act
ro ids
Ġcol lision
Ġpre set
ps f
Ġca pabilities
Ġdis carded
Ġmin us
SE CRET
ret ty
AD DR
Ġvis itor
Ġmulti part
ĠAuth entication
modifi ers
coef s
Gra de
ĠImp ro
C atalog
y l
Ġi mplements
Ġre places
Ġin direct
ch allenge
Ġcon crete
Ġth umb
Ġme ant
ĠS M
read thedocs
Ġ{' $
Ġaggreg ated
æĹ¶ éĹ´
' >
C n
Ġf obj
Ġe ver
ate l
Ġw raps
ch osen
(' `
od o
Ġal gorithms
pro v
Ġmult iline
PRO JECT
hy d
sw agger
Ġbuff ers
! )
8 00
M ARK
p or
se ll
re pl
le aves
Ġf utures
th en
ĠS cript
all close
gra ding
AL LOW
ud p
Ġenum eration
roll ing
ä» ¥
redirect s
analy ze
Ġfall s
lips oid
PROTO COL
ä¿¡ æģ¯
v R
ce x
co o
la ys
Ġst rength
nt s
res ume
pa ren
ac cum
######## ####
Ġmask s
Ġsolution s
Ġaltern atives
ĠAllow s
fq dn
ipament o
( .
D M
P en
[ @
k not
Ġe mails
Ġ' ~
(' '.
pp rint
ĠS cale
Ġsh adow
Ġpre served
ĠG PS
Con tact
be low
Ġ5 12
Ġvar name
Ġsur f
byte array
Ġattemp ting
Ġpr inter
Ġbuilt in
Uni que
çĶ¨ æĪ·
i B
u u
w ildcard
in coming
Ġp wd
an chors
Ġb rightness
Ġh ub
ĠI AM
ĠF ITS
ĠP UT
Ġ{} "
ĠG tk
we ather
Ġread line
Ġbreak s
LI P
Ġdb us
Ġhash able
Mo difi
END ING
pers istent
modifi cation
h mm
de m
Ġp ure
par ms
Ġco mplement
Ġ% %
ds a
Ġmin imize
amp s
Ġab spath
Ġgo al
Ġ'- ':
Trans fer
Ġrepe t
mot or
Ġconcat enate
Ġocc ured
D iv
P ower
d temp
s os
st ers
Ġw iki
Ġ[ ['
pi es
Ġgra in
pk l
fra gs
desc end
Ġmodifi ers
YY YY
Ġsv g
zh mcclient
g file
er ts
st ars
Ġex periments
Ġex planation
Ġbe h
pi ed
ph as
ap is
ĠSet tings
Ġtransform ations
Client Error
ĠAc cepts
Jo in
= ("
O ID
P atch
n at
on oi
th an
Ġcon cept
(' |
iz ard
cal es
OR S
Key board
Ġsplit ted
Ġ~ /.
zen desk
Ġ que
Ġf type
Ġre placing
ĠT LS
file Store
ĠO rig
ĠB ro
Ġlat ter
Run s
Ġut ter
Ġinv ocation
Ġsimp lify
ĠCont in
cla ims
; ;
S hell
f onts
per iodic
max size
ĠPar ams
Par sing
Widget s
Ġoverla ps
ĠAb stract
" })
r atios
{ :
Ġin voice
ĠĠĠĠĠĠĠĠĠĠĠĠĠĠĠĠ Ċ
ĠA C
ĠF FT
per c
Ġv t
pa per
Ġk b
ĠEx it
cent ral
}) ".
IG HT
Ali as
foot er
Y ear
ç º
le et
ent ric
Ġm ul
Ġbase integer
Ġdis p
bl k
Child ren
Stat istics
chedul ing
? ')
F ixed
i ser
Ġf b
Ġo id
pro cs
Ġte ams
gra des
Ġsu fficient
Pre di
ĠAd just
Ġconsist s
desk top
Ġexceed s
reach able
Ġyi elded
FIL TER
r sp
le e
Ġm l
ke l
ĠT ags
th ough
ĠS AS
ind ptr
min s
ang ent
book s
Ġtrack ed
web hook
OB JECT
HA SH
Ġâİ ¢
B I
b ile
n ight
n ii
â Ĥ
å ī
in ode
Ġm g
Ġh ue
Ġr sp
ĠS pec
Ġline style
ag rant
Ġ-------- --------
block size
Ġsp line
Ġwas n
Ġyield ing
ĠK er
Ġserial izable
spe ction
ĠDE LETE
sn ps
Ġidentify ing
Ġslight ly
Ġf tp
Ġm f
get size
ill er
post gres
Ġdescription s
full path
Ġsuper class
Ġdownload ing
Ġvisual ization
bon ds
Ġcid r
Ġnv ml
WID TH
E nsure
O G
i vers
s ls
de termine
Ġe th
ri se
Ġde scriptors
group dict
Ġ... )
Valid ator
imer a
Ġown ed
Ġcatalog ue
Ġfraction al
COM MENT
Ġexponent ial
A SCII
I ssue
j u
w allet
Ġi mag
Ġs lic
ke leton
mat rices
comp iled
Ġtra versal
MA V
ĠMe an
Ġrecomm end
ĠEvalu ate
+ '.
F ree
F RA
P ot
P ack
R en
st rength
Ġre corded
Ġd raft
par ty
pro cal
Ġout going
lit es
Ġ[] }
Ġ3 6
Ġclass path
Ġext ents
cor ner
Me an
DI CT
ident ities
Ġsat rec
Back ground
ĠDist ance
è· ¯
R NA
] [:
f resh
se crets
un able
Ġde composition
Ġ{ :.
ĠR oute
ER O
Ġsub dir
su c
Ġop ener
Ġ'_ ')
ĠUni mplemented
('{} :
Admin Session
sibl ing
. ):
W HITE
c dot
d ash
Ġi l
Ġw i
Ġw ide
ow ntime
Ġch ord
Ġsh ot
Ġsub key
Ġsign er
cache dir
PO INTER
PRO PER
Ġspecification s
integr ate
(", ")
recur se
M a
v T
in crease
Ġun iv
Ġcheck out
PI O
trans formed
Ġerr msg
En code
fra gments
Pre pare
A U
b ul
n od
x data
z ier
or arily
Ġi b
Ġw t
te e
vi val
ĠE S
=' {
Ġun recognized
queue d
Ġinfo s
ĠName Error
Ġkeep ing
Auth or
Red is
ĠAd ded
Ġconsist ing
Writ ing
. ))
c am
g is
m ixed
p res
x ffff
Ġs co
ĠA gent
art ment
ĠD etect
Ġro ugh
Ġso lid
Pro gram
Ġnet CDF
FO UND
åı ·
Ġorg an
('_ ')
Work flow
åĪ Ĩ
ĠMark ov
atel lites
d g
g te
Ġc rs
Ġre boot
ĠU DF
host port
Ġqu eried
De code
gin es
Ġmark s
sv d
Ġsn ippet
ĠCont rol
ĠIter ator
Pub lish
XY Z
Ġthro tt
Ġmer ging
? '
R o
R ad
U sed
t ier
re me
ri sk
ex on
as y
Re st
ĠF it
ci an
mo other
so li
su ch
Di ag
Ġ6 55
Ġput s
Connect ed
Ġdecla re
Ġlem ma
B C
] ':
p rune
Ġd ask
co urses
Ġan t
is ons
Ġex its
ext ents
Ġso on
pr t
>` _.
Ġexpi ry
Ġequ ations
Ġmut ations
Ġderiv atives
monitor ing
Ġstand ardi
Ġfire wall
Ġhexa decimal
A ctor
C ATE
M R
» ĺ
an el
Ġs ue
Ġb are
as sed
Ġ+ --------
us b
ĠM ET
Ġwhen ever
EN O
ĠUn ix
ker as
Man age
Ġbar s
Ġcla ims
assert ion
Mon th
J OB
f fi
r find
de tection
Ġc riterion
'] ],
ĠS TR
fo x
Ġby pass
ĠO ffset
ns ide
view er
Ġassert ion
go al
Ġclo sure
Ġpost s
Ġappropriate ly
M ult
W in
_ ]
p ivot
Ġ= \
ol ar
dir path
ĠL ong
Ġz f
Ġper manent
Ġcopy ing
Ġchunk ed
SU FFIX
sol ar
R aster
b ib
d og
mp ot
Ġh w
set attr
ub i
ub es
"] =
ĠIn formation
RE ST
so ap
round ing
TA IN
Server Error
ado op
basic Config
ĠPri vate
interpre ter
adi us
âķ Ĳ
< <
G u
N orm
O W
P ID
g ff
Ġt bl
Ġt uricreate
he ap
Ġf ri
Ġg andi
ight s
)] ))
Comp utes
'} }),
Ġtri ed
Ġve hicle
ĠBase d
interpol ation
represent ative
ĠAssume s
A ctions
] ;
_ ',
Ġp bar
Ġbe yond
Cont in
normal s
('- ')
Ġfeed back
Ġcompar ing
appro x
M is
de scriptors
po ols
ĠD elta
Ġro unded
ĠR DD
sub dir
RE Q
ĠX Y
serial izable
Ġus able
BU FFER
ga ps
ĠConfig Parser
cu da
Ġthro at
: ]]
C ALL
L V
T K
i ri
he at
get Attribute
Ġ" |
type d
Ġg ps
Ġg ender
ran e
mat mul
ME DI
EN TRY
RO P
MA SK
Ġaut oc
Ġcounter s
Const ant
ĠDef ines
Ab ort
('= ')
> :
A fter
I MP
c raw
he ses
mp s
Ġst ars
as yncio
Ġde limited
Ġpro d
ĠF ail
ist s
Ġout liers
Ġsub scribe
IN I
ST OP
token izer
pr incipal
Ġauth ority
ĠQ U
fn match
ĠRE AD
Ġbl k
FILE NAME
correct ed
ĠBase Exception
»ĺ è®¤
N rm
R FC
_ {}'.
i cons
de compress
le ading
ra gment
Ġ( *
==== ===
float ing
context s
ĠPro duct
Ġsee m
201 2
EX CE
Ġ"_ "
Stream Handler
Ġden ominator
è¯ ·
F req
H ierarchy
i rical
de limited
Ġc rash
Ġre actor
Ġb a
Ġfi ve
sp her
ĠE qu
Ġch k
col lapse
ĠEx pect
Ser vices
:] ):
az y
('/ '):
Ġtrack s
Ġhy pot
relationship s
Ġ################################# ################################
H AND
] [:,
c en
d q
å ¦Ĥ
Ġ ç
re levant
Ġf ed
Ġm alformed
ment ion
ab out
item getter
AN Y
Ġpat ient
Ġdl g
Ġ'? '
å¼ ı
SUP PORTED
3 60
U TE
e mails
n es
v ailability
w c
Ġen rich
ber g
Ġcont rast
ca o
ĠH ash
St atic
Ġpass wd
AR M
Ġhost ing
Ġcent ered
success ors
sym metric
Ġdump s
Ġcir c
Ad ded
Ġsib ling
Require ment
D uration
_ ))
Ġf und
Ġm ongo
is y
Ġun specified
comp osite
cmd line
ob server
TR M
MAT CH
Sp in
Ġbelong ing
substit ute
occ up
> ")
c ens
n rows
s rs
Ġs b
pe cs
ta ken
Ġme ss
ers hip
Ġpre processing
ĠIn tegr
sum ers
du cing
CE S
ĠName s
Ġund o
import ed
API Error
('_ ',
Ġmultip ly
Ġide a
) `.
A gg
B F
or ical
Ġre li
ra ses
(' *
Ġl xml
to po
ĠRe cursively
Ġk s
ĠTh us
ir cuit
ab ling
01 0
sign atures
Ġtemp oral
Message s
Ġiterable s
Ġintegr al
SETTING S
MET ADATA
C ATED
D rop
D etect
e lasticsearch
in cr
Ġc txt
el net
Ġse quential
(' ''
Ġr st
Ġme et
ĠP E
Ġv x
read only
Ġpre process
op ener
Ġover flow
Ġback off
Ġign ores
Ġ'{ :
spe ctor
aa a
ĠANT s
' /
n atural
y ticks
é ¡
in asafe
Ġs anitize
Ġb gp
ch assis
ex cel
Ġcon form
Ġl ats
int ent
Ġstr ong
]) *
op code
:// %
Ġpri ces
now led
Ġrank s
ĠCO M
ĠDate Time
ĠMy SQL
Ġfu zzy
sph inx
nthe tic
G ene
t g
ĉ ĠĠĠ
in struction
he res
Ġf names
Ġ' "'
Ġd rag
ĠT r
am a
ĠC PE
Ġpro tected
ĠD ensity
([ \
Se conds
bound aries
ĠAl ways
Ġweb hook
ĠEnd point
b log
l ings
Ġs lide
ro bot
Ġm asses
Ġex cluding
ĠS C
Ġpro bs
ĠM B
ĠO k
Ġsub tree
ST OR
Ġper mitted
Ġtra ined
off line
Ġsk learn
rate gy
15 0
Ġho mo
trig gered
ĠLay er
Conver ter
åĢ ¼
\ _
Ġa ugment
an onymous
ub ble
Ġen velope
DE L
Ġuni versal
Un recognized
PO S
ĉĉĉĉ ĉĉĉ
EX TEN
M any
U MP
u cs
} ').
re connect
Ġd os
un signed
con ut
Ġal most
ĠG amma
Ġcal ib
File Entry
lig ible
Ġflow s
ĠInvalid Argument
-------------------------------- --------------------------------
comb inations
equal s
button s
Timeout Error
So ft
Ġguarante e
aco bian
Ġsca ff
M IS
S igma
c ers
f ld
Ġre construct
ra b
)) ])
Ġg old
Ġsh orter
[" _
Ġbin ascii
User name
Iter ate
expression s
Ġcla im
aff ine
Bo olean
Uni form
provision ing
decla red
Ġ journal
an o
lo yment
Ġ' </
am in
Ġ* .
Ġas semble
ĠU nsupported
field name
([ ],
Ġimport ing
limit ers
zen ith
Ġreject ed
Go ogle
Ġsubstitution s
Ġpen alty
ĠBytes IO
$ (
K er
N X
U ri
k in
ľ Ģ
in side
ke eper
is finite
ver gence
Ġr y
ir ing
ĠCo ordin
Ġschema s
Ġpe ople
Ġrece ives
Ġsuffix es
ĠRequest s
Method s
Ġpur ge
Ne ed
Ġcomplet ions
F igure
L R
N P
] "]
x iv
} ).
al loc
lf ill
Ġn ap
Ġe ff
li ant
Ġw ent
Ġ( ))
par a
as ctime
Ġco vered
Ġlog level
py psa
mit ives
Ġtra ces
frame work
Ch art
Ġarch itecture
ĠStart ing
Bo ard
$ {
d set
n f
s ystemd
Ġe limin
ĠA da
ĠC al
Ġma chines
ĠE NA
config urations
Ġz order
com ma
Ġtarget ed
Request s
Ġsim ulate
ATI C
Ġpred s
ĠPass word
deriv ative
nv ml
Ġach ie
L ight
w ell
Ġ í
Ġt urb
Ġan chors
pt ype
name server
Ġfield names
iter ate
ap ses
loc us
comple ter
vm ware
Ġident ities
Ġgu ide
Ġear th
chrom osome
Internal Error
c rt
re actor
Ġo q
Ġo dl
Ġd ri
Ġl d
to s
ns ures
Ġsub string
Ġapp ending
Ġjson ify
escape d
band width
vest ig
compar ison
coeffici ents
/ \
Y our
Ġd ual
Ġdata source
ĠR ot
ca pt
DE VICE
(* [
fill na
ene ss
Ġkw ds
Ġidentifi es
(': ')[
Min imum
Ġeigen vectors
Ġmonitor ing
Word s
Opt im
Ġcommunic ation
S ent
x z
st ab
Ġe fficiency
Ġd v
Ġd end
ate x
Ġde que
Ġpro posed
cs i
AL Y
AN NEL
tx n
List s
speci e
Ġlib xml
Ġmark up
Ġfit ness
' ``.
G M
T s
] .__
a ware
è ½
Ġ 99
in sensitive
Ġp ng
Ġn f
Ġw p
Ġ""" \
ma chines
ver ity
tra cer
Ġinput ed
sub tract
Ġup sert
AR GS
Ġcur ses
To String
ĠPro vide
gre ater
Default s
zz le
Success fully
Ġamb iguous
d V
Ġa id
Ġa io
Ġo ct
Re moving
nt p
Ġsh all
mb l
ĠB ound
ST Y
Ġsup posed
PE D
pass phrase
ĠDe bug
HEADER S
SY STEM
buff ers
ĠHttpResponse Redirect
Elements By
A ns
F R
L B
M X
Ġt ransp
Ġe ig
one t
Ġh aven
Ġg w
ĠA bsolute
Ġme ter
Ġj u
ome tric
Path s
Ġstack ed
Ġradi i
Ġred undant
åĪĹ è¡¨
RET URN
s lack
w ner
x l
Ġin active
la beled
Ġh ull
ĠA MQ
add Callback
pre set
Ġpre p
Ġtext ure
Ġmin i
ID S
ĠQ ual
bro kers
desc r
ik o
cos ity
Ġdat um
security Handler
Attemp t
Vert ex
Take s
M atches
V ol
l max
u lo
u ck
er m
Ġp si
Ġs coped
li x
Ġas n
log ic
gra in
LO CATION
sys log
Auth entic
ATION S
Ġmk dir
U pdating
b at
n w
n os
å İ
in ference
Ġd L
Ġex pen
con ns
ist ical
Ġv c
oc entric
Ġun install
Se lector
Ġidx s
asure ment
Ġresid ues
diffe rent
Ġgs i
SES SION
PARAM S
perly Configured
G C
q d
an c
ro unded
ut ral
Ġex ha
Ġg ff
Ġal location
ĠD X
pla intext
Ġne cess
Ġsu ite
TI ES
post process
let ions
As ync
stand ing
Bind ing
Ġreach able
i mplementation
Ġp th
pe ers
is class
is abs
di f
Ġg ates
Ġr tn
pro filer
log out
Ġun available
Ġoff er
cor o
Ġdist ingu
tun ing
FIN I
Ġance stors
ĠExt ension
Calcul ating
Ġsaf ely
C ent
c url
e b
s nap
é ¢
is q
ĠU ID
ĠB U
connect or
Ġconst s
sym links
screen shot
Ġquant iles
Ġdispatch er
2 25
D ing
M s
T mp
f ri
h u
Ġm ir
Ġcol on
Ġ{} ))
RE EN
sk i
org an
Ġcould n
ĠBu cket
pars ity
XX X
Ġadmin istr
contract s
Loc ator
RUN N
U D
b are
s np
un supported
Ġto ggle
() ],
Ġ+ ------------
set ter
ĠS phinx
be g
SI TE
connect ivity
ä¸ Ĭ
Ġfra g
Dis k
ĠId entity
PL ACE
Ass oci
Ġsever ity
Ġbra ckets
Ġfront end
dere rs
A I
S Z
s coped
è İ·åıĸ
ro ps
Ġ- (
Ġdi p
Ġv cs
pi log
In clude
=" /
lob ber
Ġsys log
exp ansion
tab lename
sy llable
Oper ations
ç» ĵ
scrib ers
S CO
è §
Ġin cl
ĠA SN
ĠC ore
== "
ir p
Ġtra jectories
the se
gre ssion
sens ors
Ġkw s
flux es
Ġsubstit ute
ony ms
pur ge
Ġ"{}" '.
Named TemporaryFile
M dl
S G
U Int
c lf
s ay
ç §
() `.
Ġh ierarch
ĠA void
Ġde letes
(" *
Ġout line
py der
class path
Res olver
grid s
Art ifact
Relation ship
ĠTI ME
x ref
Ġre cover
Ġn i
co up
la bs
ĠT itle
Ġex on
ĠD IS
__ ):
Ġnum er
pla cian
Ġj wt
Ġpy cbc
gen o
DO MAIN
... ',
ĠDe precated
uest ion
Pi peline
A K
C la
C lick
P ut
} ^{
de tach
Ġn ullable
Ġin come
Ġ# :
ĠV CF
Ġac quire
play list
access ible
Ġdown stream
ĠPo ol
Ġdetermin ing
Qt Core
Ġhappen ed
Ġprevent s
reci pients
rem otes
ĠPl ugin
FACT ORY
Ġjc vi
f ds
k de
è °
ce an
ot onic
Ġ" `
Re present
ĠRe lease
ĠE lastic
ST AMP
ay esian
ffect ed
fici ency
Ġ9 5
Ġaut om
ha ps
cb io
Ġdescrib es
Ġsecurity Handler
ĠGu ide
åĩ º
! ",
N s
S ending
V ED
p lex
t ml
t cex
Ð »
Ġfor k
Ġan onymous
Ġfile Name
und ers
im c
log ged
SE NT
Ġmo ves
Ġph enotype
MO D
Ġintegr ate
åĪ °
trip le
) ".
G LOBAL
Ġs kew
() ;
Ġu df
ĠS ync
Ġal locate
Ġpos it
AC H
Ġstat uses
Ġcent roid
Ġ'{} .
Al t
resid ues
ĠTra ck
USER NAME
confirm ation
Ġlif etime
åŃĹ ç¬¦
ĠRel ative
Ġcle ared
åī į
a emon
n able
n grams
re comm
Ġi c
Ġre actions
Ġo ctet
Ġe ast
ra ppers
Ġg ui
te ch
Ġal n
Ġv env
pre sen
im t
ĠL oc
iter keys
run as
ap lo
fla vor
ĠPro bab
Check er
Sh ift
ĠAl ready
ĠTrans ition
Ġdot s
Tag Name
Ġnap alm
6 01
d yn
in a
pro of
Ġ3 4
Ġpy mongo
ĠAdd ing
[:, :,
effici ent
scan ner
estim ated
orth and
Ġwebs ite
Ġaccur ate
" ^
R SA
a pache
i ated
al ts
un lock
Ġ`` /
ĠM ask
ren dered
Ġcomp osed
ard s
** -
([ ^
do ck
cho ose
Ġtrain able
EX IST
Ġalign ments
ĠArgument Error
200 1
Token s
Ġrespon sible
äº ¤
Ġdynam ically
. ])
7 00
M Y
a rent
en ses
Ġd k
fi li
is her
par ql
Ġdi visor
ĠP lace
ĠN E
ĠM od
()) ]
record ing
Ġqueue d
distribution s
appro xim
! \
! ',
N F
` ),
o pacity
t te
Ġ' +'
Ġb ul
Ġ: ])
Ġh ence
ĠC T
os ing
ec c
ĠData Array
tr ust
Ġfreq s
ĠDO M
Ġroll back
Ġstra ight
agin ated
T imer
Z ero
b lo
d ue
h ouse
or table
Ġf x
co ind
Ġde legate
ĠS aves
ĠU s
Ġsuccess ors
ĠZ ip
Ġevalu ates
IG H
Clo sed
enum s
ffic ult
Mark up
æł ¼
Ġunders core
CRI TICAL
Ġ ul
Ġt ier
de mand
Ġw alker
di ence
ĠA ES
fo s
Ġon nx
ĠD C
und ance
py lint
mo id
Ġro bust
ĠV AR
ĠH A
pen ded
Ġiter ating
Ch at
Ġretri ed
Ġ12 7
convert ed
sen se
AUT O
Ġmar sh
E qual
V als
c wl
h an
q name
s mtp
æ ¶
re spon
Ġde serialized
`` ):
ĠP osition
Ġpre defined
Ġle ts
ab u
cre ating
---------------- ----
tax on
Def erred
Ġsat uration
Ġ'# '
åĲ İ
evalu ation
Try ing
O VER
p seudo
Ġd j
Ġh r
Ġde tections
ĠC LA
ĠE V
ĠM ost
ans wers
Ġcor o
ĠApp lies
Ġrot ated
Ġanim ation
BIN ARY
C Y
Ġ è¿ĶåĽŀ
Ġc amel
sp am
ĠI ssue
ĠC ar
pre pend
ĠR oot
ĠL I
Ġblock ed
Ġsuccess or
Ġdebug ger
sto pping
Ġradi al
ä¼ ļ
S ta
f und
r up
è Ĥ
Ġc el
co pt
Ġl iter
Ġv el
ĠD oc
ht m
Ġlen s
Ġsh lex
pa st
Ġcomp any
=" \
IN D
pop left
Se cond
Ġrepresent ative
ĠRes olve
ï¼ ī
ĠLog ger
Ġdelay ed
Ġturn ed
Ġcancel led
Ġspi ke
ĠAx is
pic ard
Ġbon ds
z fill
í ĺ
er atures
Ġm orph
Ġu g
ĠA F
ĠS A
ord inal
), ))
Ġch allenge
Ġpy plot
ĠCon v
Se par
stop s
Log ging
Per m
Ġimplement ations
Ġscan ner
extract ed
Ġsy mpy
pm n
Ġ[{ "
ĠClient Error
L i
a es
er ase
fi er
Ġas ked
ĠC ertificate
Ġ{} .".
new lines
Ġmo ments
ĠNot ification
oper and
Or g
Ġfetch ing
Ġround ing
compat ibility
Speci fy
Ġcard s
Ġpersist ed
ĠImpro perlyConfigured
F inal
S creen
p ants
t ical
Ġt umor
li et
ĠS K
Ġ`` [
ab br
bu dget
Ġtra il
ĠComp are
Ġå Ī
mk dtemp
selector s
ĠOR DER
ĠPay load
F ac
P ull
lo ut
Ġan nounce
pa ste
ste mp
File Path
DI ST
dat al
Ġmost ly
ï¼ Ī
]+ )
Number Of
ĠAt tach
Mark er
Ġocc up
Ġfew er
provision ed
adapt ers
ĠAMQ P
N ON
b ow
Ġi mpl
ct s
Ġd ont
Ġw id
Ġst re
ve al
Ġl y
Ġde tach
Ġde clarations
str ong
ĠP RI
Ġla beled
ll ing
PE ND
Ġag o
ĠPro xy
Ġ201 2
ĠAl gorithm
Update d
ĠInvalid Parameter
Ġsn r
Part itions
Ġsec uresystemslib
rgb a
Ġtrim med
VAR IABLE
Ra ises
T c
a id
l te
p val
} [
Ġw c
ed y
Ġ[ ("
ĠC RE
Ġpub key
Class Name
Ġdirect ives
ĠBuild s
Ref resh
Ġadjust ment
9999 9999
ĠUN IX
Extra ction
vox els
4 01
F ast
b as
g auss
Ġg arbage
ĠS parse
py xb
ne ar
rt c
Ġoper ate
Di rect
Ġus ual
LOG IN
rand n
em ma
Ph ase
ĠIgn ored
Expi red
' (?
A verage
E mbed
L ER
M F
S alt
S ensor
U C
U MENT
v ity
w rong
Ġf lex
Ġst ations
Ġex am
Ġex posed
ĠF ourier
pre serve
Ġla mb
ĠR o
comp any
av atar
Lo ss
Ġaut os
Pre dict
activ ated
ĠOPTION S
Ġinstrument s
Ġcap ital
ĠPart ition
æī Ģ
ĠAB C
ĠCho ose
Ġtranspa rent
STOR AGE
' ',
Y ield
Z ED
d L
g ender
s ch
al locate
def erred
() })
ime d
sp i
fe rer
In dic
In dent
Ġtra cker
err ing
local ize
Ġvi ol
IL L
For ce
Load s
Ġbig ger
ĠDist ribution
éĢ ī
5 000
L ow
m ine
v ms
Ġ Ã
or um
Ġw v
ĠA tt
len coded
mo m
ĠG alact
fa bs
pos itional
Ġclass ify
Ġ4 1
amp litude
Ġsym links
VAL UES
Ġcost s
æĸ ¹
WA IT
ĠPub lic
åĮ ħ
Ġamin o
G amma
O bs
f atal
ã Ĥ
di vision
'] ].
Re moved
Ġr sa
ĠS w
ĠP ower
ile stone
Ġhe ur
Ġac quisition
De tail
util ities
Ġ[" -
ĠPo licy
Ġindividual s
WOR DS
Normal ize
Wait ing
Ġâİ ¥
ĠEd ge
ĠRece ived
stre rror
FRA ME
i ation
Ġt abs
Ġb ag
Ġto ur
Ġst amp
get ElementsBy
up stream
Ġse cs
Re ferences
ĠW eld
AC TIVE
Time Series
Ġthem selves
SC ENDING
ATI VE
('. //
27 3
sat is
Ġcred it
ĠTer min
_ ')
b fd
m ux
at las
at tack
Ġp val
Ġp ressed
() [:
Ġth ickness
ĠS m
ĠP ers
]) ])
comm its
Ġrepresent ations
EN CODING
ĠWh ile
ĠZ one
Ġsens ors
enum erate
Ġorg anism
('/') [-
ĠFe ed
LAN K
ADD RESS
a fe
g ative
in clusive
Ġre connect
Ġs mtp
ul ename
Ġ* (
vi sed
Ġkey ring
00 4
py mongo
). "
ĠM IN
Ġ** {
ll dp
Ġpy game
be red
cons ume
calcul ation
associ ation
Ġdevelo pment
Ġperf ect
phanum eric
d bs
o int
Ġm r
Ġm type
get pid
', ',
Ġl bl
Ġ1 000000
ĠP R
ĠN UM
ĠU S
Ġaccess ing
termin ator
ĠEn code
Ġtab ular
Ġes sential
ĠState ment
develo pers
Random State
DAT ABASE
: \\
re cs
Ġre servation
Ġhe l
ĠG d
:// '
pri ces
requ ent
Ġpe ers
Response Error
LOG GING
Ġtermin ation
ĠPi peline
8 000
b urn
f us
l lab
de e
Ġre write
ro ck
Ġb alancer
co var
Ġex plain
Ġh yperedge
Ġma intenance
]) /
Ġlog g
ph ys
ac ion
Ġfe e
ĠAn g
Ġfunc s
Ġconnect or
Ġcustom ize
Ġreport ing
Ġsens itive
Ġmount ed
Ġquant ile
!! !!
ĠNaN s
**************** ****************
éĩ ı
âĸĪ âĸĪ
> ]
D NA
e mb
Ġc df
Ġd set
as numpy
ĠP NG
ĠRe p
Ġpa ren
ph y
St andard
Ġmo vie
Ġsc oring
Ġav ail
Ġhist ograms
Ġder ive
Ġmultip lied
Ġcontour s
Ġrecogn ize
V O
g tf
o ssible
p wd
é Ķ
at tached
en velope
Ġd bsException
Ġse crets
con c
Ġr ms
Ġpro of
ĠIn voke
RE SH
AL IGN
vis ited
ĠList s
Ġsee also
ĠName d
fit ted
From String
sr v
ENABLE D
; '
d ut
Ġm utable
ul ating
out going
ĠU SER
Ġsub list
by pass
DE V
ym metric
orig ins
lem ma
ĠCommand Line
Ġplay list
ĠSign ature
trim med
Ġtreat ment
Mon itor
ĠUP DATE
^ ^
f am
n dims
t here
w or
er k
ar ms
Ġf atal
Ġp config
Ġd ark
ent a
Ġan no
Ġr b
ĠR ect
Con sumer
ens ive
ass istant
Class ifier
global tt
ĠPrint s
Ġhour ly
fire wall
Ġmoment um
Pay load
3 84
B its
D H
S Q
n z
o e
} %
Ġs weep
Ġd q
ĠT or
ĠA tom
and roid
Ġel lipse
ĠC C
om er
ĠU SB
ard own
Ġz mq
LE AN
api key
ĠDe code
25 0
fast access
tick er
Ġside s
cu ssion
pat ched
Ġtax on
front end
thro tt
*\ *
Ġsit uation
EXCE PTION
1 30
E ffect
F requency
M ass
a ken
r nn
Ġif f
Ġ' ),
Ġ: -
Ġco ding
per sion
), )
Ġ`` __
Ġun lock
Ġ{} .'.
ĠG ot
ĠB lue
Ġtra cer
lib vlc
Ġchange log
local time
Comp onents
card s
Ġsym metri
Build s
onto logy
Ġnecess arily
C TED
S y
k nowledge
Ġp unctuation
ist ency
Ġ** *
Ġrequest ing
Ġpol ling
fin ity
Ġdecimal s
Ġcontact s
Med iator
Assign ment
shif ts
PyCdlib Invalid
/ {}".
A ggreg
L im
d P
v pn
er mi
un g
di com
Ġco er
ĠC DF
Ġint f
Ġca ref
Ġdis covered
Res Rec
Ġenum s
CH ANNEL
Ġgrid s
An chor
Ġexit ing
Dis position
PAR AME
ĠLD AP
igab ite
H dr
a ffected
f out
co mplement
ĠA mount
ĠP K
Ġv z
fig ures
fit ting
36 00
Ġcomplex ity
Ġ"' {
Ġscreen shot
cnt l
ALY SIS
) ][
G IS
S amples
s co
u ations
x array
Ġo m
pe ar
un less
par alleli
Ġg uid
min imize
Ġli bs
ĠAr t
debug plot
items ize
Ġdis connected
ose Version
FI CATION
inte rest
Ġactiv ated
micro second
Ġna ive
ĠSu bject
ffe rent
Ġbeg ins
ĠUs ually
f type
x m
} |
st aff
Ġp yn
Ġg d
Ġr tol
Ġconfig parser
attrib s
Sub scription
CON TEXT
Sh ut
Ġshort est
Ġsw agger
MB OL
nost ic
' <
F un
` ")
f k
il lis
od ate
sp line
Ġr atios
ĠS calar
Ġv ault
ic ense
__ ]
ĠM ode
ded ent
ab la
gra dients
Ġspecifi cally
Ġact s
Ġfig ures
Ġdir path
Ġlookup s
Ġur lopen
effect s
ĠComm on
ĠTy pically
) '.
? ")
T X
T ON
Ġ Î
re call
re strict
un zip
ra c
Ġh op
pro pagate
ĠM ar
Ġle d
mit s
ĠIn fo
St rategy
reg ression
io loop
ĠY YYY
gen cy
Di rection
ift i
Ġ'* .
Ġcor ners
seed s
85 9
bi os
å¤ §
OFF SET
CONT RO
Ġsimpli fied
ĠENA BLE
is k
'] },
time line
ph enotype
ĠB AM
Data Instance
av ailability
Ġoff line
Ġuni q
ĠPro gress
Ġ[" --
ĠPer iod
free ze
ĠFilter s
ĠExec ution
adjust ed
Rule s
ĠMay be
owns ample
5678 9
igabite thernet
D J
W iki
b ak
x a
en ing
en queue
Ġc hemical
Ġp ct
(' +
Ġh ouse
Ġco in
Ġr pm
ĠS k
(" `
ĠĠĠĠĠĠĠĠĠĠĠĠĠĠĠĠĠĠĠĠĠĠĠĠĠĠĠĠĠĠĠĠ ĠĠĠĠĠĠĠĠĠĠĠĠĠĠĠĠĠĠĠĠĠĠĠĠĠĠĠĠĠĠĠĠĠ
op atch
ST ACK
inter action
av y
De termines
search sorted
'} }
Argument Error
Ġreason able
ĠCO MM
åĲ ¦
Ġmig rate
Ġmig rations
Ġinherit ance
æł ĩ
Qual ity
A re
F amily
P rf
R AN
` '
k appa
r just
ĥ ½
st s
am ax
ult aneous
mm er
index ing
cont ribution
AL LED
ho le
entifi c
man ence
Col lect
EX P
Sign als
sock opt
enari os
taint ies
Allow ed
Ġheat map
decla re
S pan
½ ®
Ġs outh
Ġto ks
ad os
Ġh c
ĠS pace
ĠH O
Ġmax len
inter mediate
oth ers
Ġqu ota
AB C
ĠValid ates
ĠTe legram
Ġmot ifs
probab ilities
Ġ^ =
PARE N
getElementsBy TagName
+ ",
4 03
B ATCH
t ur
t ie
Ġf cntl
Ġe quival
ĠI ns
str ate
Ġname op
ĠW indow
Ġsub graph
RE SOURCE
Ġurl join
stri pe
ho mo
}, {
Ġnormal s
has hed
Ġlon s
ĠUpdate d
Ġcompar isons
Ġexperiment al
ä½ ¿
B l
C ols
J obs
i q
j p
l z
x e
re mo
Ġt runk
st a
Ġo pacity
Ġs il
un expected
ch ore
Ġg y
Ġhe artbeat
sub tree
dire ctions
Ġ5 9
Ġfull path
Sh are
transform ers
ĠStart s
Ġfore ver
azure arm
altern ative
CUR RENT
Arch ive
rins ic
, [
= /
G D
H S
c lic
o pp
v in
¥ ¨
Ġa ware
le cular
me ster
Ġo paque
la mb
get text
vi al
ĠC B
ĠB in
Ġmod s
depend s
Ġmeas ures
ĠAdditional ly
bra cket
ç» Ħ
Ġaff ine
Ġsatis fied
Ġinvert ed
Ġsib lings
ĠDest ination
/ _
j peg
ä ¾
Ġc bar
an ger
li est
id dle
ance stor
pre ferences
tra iling
sub missions
ename s
Ġass umption
List ener
Ġcom ing
vari ation
Content Type
Store ID
Be gin
pet ition
Ġgrade book
POSI TION
STO RE
g atk
æ Ģ
ar ity
ĠC alcul
ĠĠĠĠĠĠĠĠĠĠĠĠĠĠĠĠĠĠĠĠĠĠĠĠĠĠĠĠĠĠĠĠ ĠĠĠĠĠĠĠĠĠĠĠĠĠĠĠĠĠĠĠĠĠĠĠĠĠĠĠĠĠĠĠĠĠĠ
os ity
Ġj body
ĠH o
Ġca iro
ĠCon venience
Ġsp rite
Ġqu ite
Text Cursor
Ġtri ck
Ġweek s
Ġhyper parameters
elect ro
$ '
D NS
R outer
g old
u gs
re ps
on o
Ġt l
ar o
Ġh g
ĠA P
ure n
pa x
__ "):
ĠM ass
back off
Ġpy tz
ID ENTI
SE ARCH
Index Error
Ġ201 0
Ġtr usted
loop back
COL UM
æľ Ł
Ġlisten ing
Ġol dest
ĠIndic ator
) },
/ ",
H EL
R D
å ·
Ġt ex
Ġs lab
ut ations
Ġ' ('
Ġ' ..
Ġme s
tra il
ap ing
Ġpl ug
Ġwork around
De letes
DO M
struct ured
pol ygons
sl t
sem ant
ĠST ATE
ĠConstruct s
pw m
fu zzy
Ġele ms
Attach ment
V ec
V ideo
Z a
t im
ur y
Ġ' ))
Ġd store
un os
ul ls
ex periments
ab orn
Ġz lib
host ing
temp file
Ġplot ter
Ġrelease d
ä» ·
bill ing
D er
S heet
c gi
am bu
ĠA UT
file type
ĠS W
ĠS tyle
ĠS DK
Ġpro grams
out liers
'. "
ĠB oot
tra ces
check ing
strip ped
man n
pat ient
micro soft
lu ent
ä¼ ł
å½ ķ
ĠVis ual
STY LE
C SS
M apper
f light
g lobs
i ct
n orth
} ^
Ġre vert
Ġ' )'
id ata
po ssibly
ĠP ick
ĠE q
ĠN X
Ġ` __
mo ments
valid ated
vent ions
Ġfield name
we red
ket ch
Ġca used
ME M
DE C
su ite
ĠUn able
author ize
PRE CATED
Ġps f
ĠLe vel
Ġonto logy
ĠPub lish
ele ms
Double Vector
cri min
Ġgeome tries
erry py
FLO AT
E LE
T LS
e quivalent
m orph
æ Ł¥
Ġ' >
th in
ĠS ER
im mediate
pa ger
Ġwe ird
Ġso ap
Ġac quired
Ġany more
ĠJ OIN
TE GER
ĠY our
CH UNK
rec ision
Ġpe ptide
Ġdecor ators
ĠArgument Parser
Ġdraw s
SION S
ĠPre fix
feed back
break points
æĹ ¥
Ġwildcard s
Coordin ate
CLU DE
è° ĥ
, _
B ranch
P DF
T urn
s kew
Ġin consistent
)) **
ber os
load txt
ĠB GP
ĠIn crement
Ġtrans ient
... ",
Ġsum maries
description s
mult iline
Exec utor
Ġrh ol
ĠWork s
ĠMag IC
WA RE
Ġmav util
Ġsanit ized
aginated List
E AR
I E
O ther
P latform
U pper
x ticklabels
in n
st rom
Ġr f
Ġres cale
ind rical
Ġen rollment
In correct
Ġfa vor
Ġquery ing
DE NT
ten ess
Resource s
ĠDis able
SA FE
Ġconversion s
/' +
Ġer ase
Download ing
Ġinterest ed
f ts
| _
er n
ame s
Ġd ur
Ġd as
Ġb isect
Ġh ints
Ġde viations
ĠC ell
ĠP H
ĠP ull
pro duction
hed ral
App let
sym metry
Ġstand alone
glyph s
Indi ces
vox el
ĠProgram Error
replic as
ĠLookup Error
: '):
D id
S lice
f ers
ã ĥ
å ŀ
Ġn axis
Ġm b
Ġl g
ig raph
ress or
rc Params
ĠSe gment
uni q
dev null
EL LIP
}. ".
Ca pacity
diag ram
delay ed
Ġspect ra
Ġunpack ed
named tuple
Ġke eps
Ġwave form
Ġglyph s
Ġfasta file
çĽ ®
I TE
set Current
Ġsub parser
gn c
ĠCon sider
SE CTION
err msg
Ġdiff ers
network x
itch en
ĠGener al
pid file
gp us
Inter pol
Change s
cod ers
Cho ice
centric ity
ĠâĶ Ĥ
F MT
P mag
w g
in ches
Ġp or
Ġ( ~
end ers
po res
ĠF ree
pre order
Ġro llo
ys cale
Ġj avascript
tra jectory
Ġper c
Ġqu ot
Col lector
Ġast ropy
virtual env
ĠExtract s
analy ses
("" ,
person al
åŀ ĭ
Y AML
d ual
Ġt ls
Ġg a
que t
Ġ` [
py rogram
ĠB ody
so lid
plot ting
fore ver
ĠQ MessageBox
open id
Ġweight ing
Ġph ases
DI T
Comp osition
Ġappro val
asc ending
' -
> )
P ur
S pi
W ITH
c ash
g ss
h m
p unctuation
t v
z i
é »ĺè®¤
re actions
Ġa head
ar xiv
Ġs lower
Ġb qm
pe ek
value d
Ġg al
Ġg rand
sp end
ĠI mplements
ĠR ight
Ġ\ *\*
Ġz abbix
ĠAr ch
()) ):
db name
temp orary
De leted
CO UN
Ġ'/ ')
spe ak
gg ers
Ġstrict ly
semb l
conver ters
ĠAllow ed
mig rations
ĠMet ric
Ġide al
ĠCre ating
âķĲ âķĲ
æ¶ Ī
ĠInvalidParameter Error
æ ¡
pe ts
pe imc
Ġto c
get argspec
am g
[' -
Ġde crease
ĠP lots
Ġset uptools
Ġj av
=" #
gra b
cont igs
reg round
Key word
Ġext ends
AL SE
fl ds
Request ed
Ġunder stand
Ġband width
ĠSerial ize
Attemp ting
Ġpyh peimc
nowled ged
ä½¿ çĶ¨
H unt
g allery
m w
n me
or row
Ġa e
Ġf onts
an nounce
Ġ" )"
ĠF actor
ist ance
ĠD ynamic
pa res
join ed
tra p
ls m
Ġ4 8
]] ))
stream ing
Ġ'/ ':
Ġ'- ',
En codeError
ĠOr dered
Ġenable s
CP U
clip board
è¯ ¢
Ġrh og
åĬ ¡
distrib ute
S Frame
S izer
W CS
W HERE
b enchmark
c ule
Ã ¶
è ±
in oto
Ġd ag
Ġ( ),
ĠT rigger
ode tic
con strained
con firmed
ĠP ref
ĠĠĠĠĠĠĠĠĠĠĠĠĠĠĠĠĠĠĠĠĠĠĠĠĠĠĠĠĠĠĠĠ ĠĠĠĠĠĠĠĠĠĠĠĠĠĠĠĠĠĠĠĠĠĠĠĠĠĠĠĠĠĠĠĠĠĠĠ
ER ENCE
Ġver s
ĠQ R
Ġdf vfs
ĠDe velo
Ġsent inel
Ġgre at
ense mbl
ale o
Speci fied
micro seconds
P F
S ens
S witch
en ed
[' $
Ġu v
ĠF ollow
Ġlog arith
Con nections
ac celer
tri ggers
Ġed ited
Ġcl oned
mod ulus
Ġbin ning
Ġcut out
utor ial
Ġsw itches
ĠAuth or
Ġcomma s
ĠCON FIG
Ġtrip les
embedding s
Ġhar monic
( ...)
b la
e os
k u
s la
an si
Ġe sc
li ef
ra dio
() [-
ol w
Ġ+ -----+
ĠF ire
ĠP assed
us able
time period
Ġ** _
log ies
ĠR T
ĠB ox
ER IC
pen alty
cy an
Get ting
201 1
rep orter
Ġseed s
Ġmodify ing
00000000 00000000
ĠPh one
ĠPos itional
inoto py
F Y
Z IP
b v
Ġi mmutable
Ġin jection
Ġs ockets
un ched
Ġfor get
ch ord
Ġde signed
Ġlo s
out side
ĠV RF
Ġcont iguous
ax y
pr j
Ġqu aternion
Ġprocess ors
Ġexec utes
eric a
Ġneg ate
Ġut ili
Ġtab lename
Qt Gui
lst m
stage s
subnet s
äº İ
Sc roll
stddev s
ĠSV G
M ouse
b anner
c amel
f ine
j avascript
u fact
â ľ
å ¿
de mo
ar ded
Ġ' ).
qu ot
Ġde s
app id
ĠE quivalent
ari o
'. ")
ĠH andler
Ġca ches
orre lation
no aa
Ġpe m
NO TE
Ġdimension ality
VI EW
Ġbuff ered
Ġguarante es
ĠAN SI
Ġshif ts
sth rough
) |
R ANGE
u ds
Ġt ie
Ġre visions
Ġb tn
co lored
ĠRe store
Ġch ance
Ġtime line
St ri
[: :
Ġpy lab
Ġpost gres
Ġ201 3
SO L
QU AL
PAT CH
Ġrank ing
Ġface color
ĠContent Type
EMP TY
B oth
C EN
D ROP
G ate
R s
S aved
o ol
o lete
p lat
u ched
v oc
ç Ĳ
ë ĭ
it ution
un quote
id ue
Ġfor um
Ġse d
Ġco arse
Ġdi com
form set
Ġv p
ĠV ar
Ġnew node
start time
Ġsub scriber
feren cing
PI X
Ġfind er
contain ing
20 3
Qu ant
Pri mary
Ġwa its
ĠWork flow
Speci fic
Ph one
ĠConfiguration Error
ĠJo in
Extra ctor
Ġdescend ants
ĠOpt im
/ -
B r
G ateway
N a
se ud
st ory
Ġa se
ĠRe quire
Ġkey pair
ĠEx periment
field names
Ġtrans it
DE P
pri vile
ster day
Ġsplit ter
oper ators
her its
Ġheight s
TO M
Ġslice d
Filter s
Ed ges
week s
recur sion
Ġflo or
= ")
M ar
T W
[ ['
] *(
} ):
Ġi ll
co pg
di go
ser ting
Ġ+ ----------------
') }
sp ir
sc ra
ok ing
inter actions
face ts
amp aign
ĠY ield
Ġph ys
Ġdifferent ly
SO LU
ient e
activ ations
ĠSu ccess
101 6
Pay ment
(".") [
h mac
y data
} \\
æ ¯
re h
re play
Ġfor med
Ġ( ('
di ameter
ĠA verage
ab sent
AT AL
{} </
Ġevent ually
Request Error
Ġimp lies
vide os
ĠExec utes
repos itories
ĠConnection Error
ĠGra b
Pe er
1 12
D st
E FF
P aginatedList
V Box
Ġs ms
ro gate
ch ans
Ġr dd
Ġar ri
Ġ` <
do ct
part ner
Ġlocal host
14 2
Gener ating
ĠApp ro
Ġexpect ing
expi ry
break s
---+ ---+
è¿ ĩ
gu ard
åº Ķ
Short cut
uncer tainty
Ġexpen sive
è± ¡
A Y
P lan
æ ¬
re visions
or ation
Ġb ump
Ġh is
Ġsh rink
Ġuser data
Ġca pability
Ġinter sections
SE EK
of s
part ment
ert ia
ĠAn aly
Ġsa ys
Ġge vent
Ġtrain er
Def ine
orth o
ev t
Comple te
vx lan
H int
N Y
_ ()
st ash
Ġre versible
ent ify
() -
Ġth rows
con current
(" |
ow els
ĠRe try
Ġpre cip
Ġcont igs
ca ches
sub command
Ġtoken ized
Ġfinal ize
Ġextract s
any array
tax onomy
Ġdepth s
ole cule
200 4
)- >
ĠCall ing
Ġtor rent
ĠMo dify
mot ion
quant ile
ĠPol ygon
BE GIN
silent ly
) ["
F LOW
N I
d bsException
m ro
s ound
Ġp sy
Ġp ract
Ġst anza
() ``.
Ġr an
ĠS UB
Ġpar ty
pro x
ĠE nsures
=' <
log l
ĠU SE
line style
ĠDi rect
spect ra
Ġdat al
Ġrep orter
="" )
MAP PING
mig rate
Ġsemant ic
Ġacceler ation
Ġprece ding
ĠVER SION
ĠPress ure
F ix
G U
G uest
G NC
g am
s lashes
æ ±
def er
ver ses
)) *
sp c
ĠI C
vi ct
data source
ĠP hi
Ġv type
att y
Ġpre decess
ĠR ate
ĠB LAST
Ġsub missions
De leting
Ġ6 3
Ġgen us
Ġgen omic
US R
Ġsur vey
TIME STAMP
Ġtool bar
tp u
interpre t
Ġorth ogonal
ufact ure
B OT
M aps
S parse
n io
an no
Ġw av
Ġfor warded
as anyarray
con struction
Ġl int
(" !
ĠP V
out ing
Ġpre pended
ump tions
Ġdis count
Ġsource Time
face color
SS ING
(** {
stat istic
height s
bed file
ä» £
ĠCO MP
Ð° Ð
macro s
sam tools
TRA IN
Ġmagn etic
ç±» åŀĭ
* ",
h ighest
n Data
u ge
Ã §
Ġre covery
Ġp ushed
lo ci
ul ent
ri ent
con cept
fo reground
=' '
__ ",
Ġpre ferences
ĠL ower
IN TS
bu gs
Ġpart ner
64 00
Ġport folio
DO T
Ġsome one
ven ient
Ġindic ators
ĠCh ain
FO RE
protocol s
æĸ °
ĠDesc riptor
UST OM
met al
ĠComm it
ĠRET URN
B P
C ert
o q
Ġt ty
ur k
Ġs li
Ġe cc
(' !
and ra
Ġon set
ign Key
In strument
** .
Ġbase dir
host ed
Ġab bre
ä¸ ²
loop s
spect ral
Ġ", "
Ġcommit ted
suffix es
ĠBo keh
Ġcla uses
Ġentire ly
Ġrdf lib
Ġembedding s
Sc ene
ĠSec ret
Ġresample d
ĠBig Query
hance d
Ġscr atch
æ³ ķ
B SD
T x
` """
st al
Ġre lat
ur lencoded
Ġb anner
str y
ĠP ush
per ts
Ġx l
len ary
ĠN L
ĠM X
Ġun zip
Ġk l
AC ES
Ġ'. ':
]] ):
open ed
Ġab i
Ġ'- ')
Ġ7 0
down loaded
Ġ201 1
month ly
Call s
ĠReg isters
mot if
ĠState ments
nost ics
Dispatch er
A rc
L inux
M aker
b file
b rightness
d vs
t ips
re boot
at ers
de posit
Ġe mitted
Ġ' `
di mage
Ġbe at
pp y
ĠI llegalState
Ġlog out
spon ds
Ġ3 9
Ġmax val
ach er
del tas
has attr
Ġrece ipt
sym bolic
ĠCON F
CLA S
Ġpg mpy
Ġann ual
coeffici ent
ĠLib rary
G H
y ticklabels
z ing
² Ī
ar th
me ss
un e
Ġfor ces
Ġse x
th row
ĠC ID
time step
Ġy data
lif etime
Ġsub system
mpl erate
Ġpy pi
EN TS
Exception s
." ))
au li
sn ippet
ĠUser name
dic ated
Ġbot tleneck
Ġ': '.
Ġstation ary
REC ORD
Ġunders cores
% .
B UT
\ ":
a head
b one
b alan
o ses
Ġi oc
de termin
Ġ' )[
pe ptide
ot ic
Re q
Ġ_ :
ĠI ts
ĠC D
im ms
Ġun necessary
ĠL IM
ab ric
Ex ternal
:// {
Ġcmd line
Ġpe ek
Ġpredi ctor
prob a
dead line
Ã³ n
REGI STR
ELLIP SIS
A GER
B AR
ì Ħ
re mainder
ar cs
il ton
ĠT ries
Ġg h
Re view
set sockopt
Ġdata s
bo ss
ca iro
pla ined
lic enses
tri angle
Ġhost ed
ĠID D
32 6
ob ao
Ġhttp lib
CON TAIN
Process Id
Le g
tab ular
_' +
Ġbi ases
ĠPAR AM
ĠTH IS
ĠCate gory
' ')
B ig
` -
h ang
p Num
s ma
re lax
Ġre act
Ġs olved
Ġb ib
ul ner
get members
con tra
to ver
ĠP ack
Ġx data
und ancy
Ġnew est
Ġte mpl
Ġ} ]
mt Inf
De coder
Ġcolor ize
Ġag reement
Ġdim od
Time s
Ġdir names
Ġ". ".
Ġimp orter
For ward
Ġcontrol led
accept ance
Ġturn s
Select ed
ĠJo urnal
Ġdead line
ĠEd itor
Sup port
Ġretain ed
6 55
C ar
d arwin
h yperedge
ë ²Ī
he red
al ing
le ap
Ġc ame
Ġs lack
Ġm it
is co
is ite
el come
as i
set Value
ĠP I
ĠP attern
Ġv host
Ġpre order
Ġpath way
ĠR R
ĠL ab
return ed
Ġret ention
work sheet
Ġdoc strings
Ġcount ing
Ġcl ust
Ġstep size
wh m
Ġus r
Ġsepar ation
rect angle
mk time
edit able
BO SE
ĠInter pol
Ġ19 2
AA AA
Ġri ch
ĠCom bine
indic ators
Ġinject ed
ĠProper ties
Custom er
MULTI LINE
La unch
Ġrelax ation
íĺ ¸
in ction
in come
Ġa ds
ce e
key stone
ĠP EP
Ġkey stone
=' .',
ĠW atch
count ries
Ġcomp uter
Ġli m
Ġfound ations
Ġad vance
])) .
ĠK afka
Ġpick led
XX XX
Ġanaly zer
Ġsha res
COMP LETE
Ġwor st
Conf lict
åıĤ æķ°
xls x
, *
- ')
b irth
m arginal
v rn
ĺ ì
at um
la ps
am ble
ver ification
as ible
Ġg n
Ġor phan
Ġpar alleli
Ġv id
add Action
col lision
In ference
AR RAY
Ġ[' --
datetime s
rop ic
exclude s
Ġve locities
Ġdx py
Ġtun ing
smooth ing
Has Field
ambig uous
scr atch
C AN
L iteral
c name
i ents
m h
v ature
z ij
Ñ ĥ
in active
or onoi
ro c
Ġe lastic
Ġpar ame
=' *',
log dir
Ġsub plots
Ġtext wrap
Ġ4 03
Ġpri me
Ġsum med
rap id
Ġbyte string
('. '):
Mo dify
Link s
nu c
enc il
Ġcap able
Comm on
sph ase
Sa fe
ĠOrig inal
ë²Ī íĺ¸
C andid
L n
h andling
l al
re wards
re stricted
me tic
it ute
Ġd vs
ĠI R
set item
Ġy aw
ill s
ec ycle
run cation
Ġinter rupt
play ers
Ġref erred
chunk size
SH ED
App ro
ru ption
Ġupper case
Source s
estim ators
ĠNetwork api
Ġè İ·åıĸ
Ġimplicit ly
H DU
b ams
s lab
in dependent
Ġa perture
Ġe lasticsearch
Ġb ri
un q
bj ct
ĠA re
ĠI I
Ġas array
ĠU cs
ag p
base string
tri als
sum maries
Res pon
TI AL
ret ention
build ing
Ġglobal ly
Ġpayload s
Ġpresent ed
QU O
experiment al
ĠAct iv
Ġcrop ped
ĠLa TeX
uli an
Dest roy
webs ocket
Ġposit ives
) ^{
= ':
B oot
W L
W ER
g andi
m ir
ç Ń
Ĵ Į
Ġf reed
"" .
Ġn w
di ffer
ĠA ns
Ġdi sease
ĠS te
ĠC l
Ġv otes
cl r
Ġhe ld
Ġpre trained
ĠW idth
tra versal
lin ed
Con version
ĠH AS
ĠH yd
work s
sum s
Ġclass ical
block chain
net conf
Ġhelp ful
Ġoriginal ly
Comp ound
Ġmedi ates
sen ger
Ġweb driver
instrument s
Sk y
Runtime Error
overla ps
WIN DO
ĠAut omatically
Ġbill ing
? ",
C ut
G UI
R ank
Z ATION
h ue
ge bra
Ġe tl
la re
ig ar
ĠC RC
ic er
Ġsub sets
St ation
place holders
Ġtra j
Ġsp lunk
Ġpri mer
ĠUn like
Ġsim ultaneous
Ġappro x
Ġ'* ':
OP ER
Ġ"{} .
separ ate
mut ate
Ġrdf value
åŃ ĺ
BY TE
ĠNotFound Error
ĠVAL ID
Pick le
Ġprivile ges
ľĢ è¦ģ
" )),
/ ?
> [
B LANK
S ampRec
X i
f lex
m ers
} `.
se verity
Ġc name
Ġc data
Ġc able
Ġ( <
as ynchronous
Ġg ues
qu adratic
Ġra ce
ci a
mm at
mo e
ĠG L
ĠU rl
ap du
Get Value
AC CE
Ġgen o
ĠLo ck
ĠComp ile
Ġrest ored
pair wise
ĠReg ular
ĠPop ulate
ĠExp licit
ĠComple x
Ġslic ing
" ;
_ {}".
k id
l xml
n av
s lide
v able
Ġa i
() ")
am er
Ġ" ="
sp ring
ĠS chedule
ci ss
Ġpo ss
Ġsh o
ME TRI
ĠCon sole
10 2
cent ered
link age
Ġav atar
Ġab breviation
ĠRa ised
Ġob servable
Dis able
Ġedit able
Ġep hemer
éĢ ģ
dynam odb
ĠLay out
ĠEOF Error
æĮ ĩ
Evalu ate
A VA
R Y
g row
i mplemented
u ptime
Ġi ms
Ġto ok
(" \\
ĠC AN
Ġpro v
Ġpro ximal
ĠD uplicate
ne monic
Ġ/ *
pop up
Ġ'. ')
annot ated
Ġright s
Ġ'_ '.
NT U
fetch er
ĠSpeci fic
ĠCommand Error
åĪ Ļ
Handle s
LD AP
compound s
Bound s
Ġcapt ured
want ed
ENO ENT
ĠANTs Image
' ;
' \\
) ]:
= ()):
F P
G IT
_ '):
¤ º
Ġi prot
he l
Ġc u
un register
ad y
sp l
om al
ĠL ow
ĠB ind
Ġle ap
Ġz en
Ġ5 3
Ġsupport ing
Ġtemp orarily
Ġenv s
Ġstat istical
fici al
Ġdownload s
multi processing
sd l
ĠLog ical
Find er
Ġ:: =
ĠProcess ing
Ġqual ifiers
Ġquant ities
> ".
B lob
Ġt im
Ġre qu
Ġin sensitive
ce f
Ġo x
Ġs np
Ġs queeze
fi ce
Ġto wards
Ġ( ...)
)) /
Ġl al
ta obao
ance stors
us hes
Ġwh ence
len ium
ĠU pper
In line
trans formation
net s
inst ant
ĠPre di
ĠInst antiate
ĠDIS ABLE
O wner
e thernet
re ls
an u
id ge
(' =',
Ġ1 20
Ġde mo
ĠS caling
Ġfile paths
ĠD er
pre t
Ġ`` {
Ġ< -
Ġnum erator
group ing
File Handler
Ġab ility
ĠAPI Error
Ġbit stream
norm s
ĠUser s
ĠBy te
tw is
ĠBe fore
Ġedit ing
GR AM
('# '):
Ġpat ched
ĠPh ase
Ġfoot print
ĠTer m
Ġsucceed s
d urations
n itude
p run
à ¯
re ma
le le
Ġin compatible
ss p
un ce
ad vanced
get mtime
to bj
ĠS ent
Ġpro tect
op ub
Ġun wrap
ĠU DP
ho ver
Ġlook ed
Ġprogress bar
Find s
Ġtar ball
SY MBOL
ĠOverride s
IGNO RE
fwd l
Depend ency
* ):
M ER
T XT
m nt
o sh
r us
} ={
ro te
Ġb irth
ma j
Ġco up
file list
ĠĠĠĠĠ Ċ
ub las
Ġfile list
ci Ã³n
out line
ĠRe pository
ĠE ng
Ġsh p
ĠW idget
start Time
ag o
LE TED
xy gen
ĠAn not
cli m
oto pe
ze ta
Ġimplement ing
ĠAss oci
ĠMark down
Ġneighbor hood
Ġgran ted
Ġsemant ics
ĠdbsException Handler
C trl
H idden
N AL
O ld
R atio
T ip
U AL
n lp
v ors
y in
å ±
re cover
add er
error Code
ĠG C
ĠG PG
ĠW in
tri ps
Res olution
ĠSe par
pk s
den om
Ġtmp dir
ker n
Ġkeep dims
Parser Mediator
Ġintegr ated
ĠWork er
Sec ret
Ġshard s
WE B
Site Rec
Ġfq dn
ĠUt ility
[ {
f ns
f amilies
m ongodb
r q
y i
z o
Ġn gram
Ġin serts
Ġs quares
get Id
Ġse m
ode s
sp ent
Ġde mand
path sep
Ġel lipsoid
ĠC UR
mat gen
ag ain
cont rollers
call ing
Me mbers
Ġvar type
ĠCheck ing
Ġencoding s
Te am
Start s
cla im
Ġtick er
Ġtran scripts
NET WORK
Ġopp osite
ĠSoft Layer
F ACE
F ragment
M V
ì ŀ
Ġp du
Ġs ns
ver ifier
Ġ+ -+-+-+-+-+-+-+-+-+-+-+-+-+-+-+-+
ext s
ĠI ND
im gs
Ġint ensities
ĠB LOCK
Ġsub title
cont rols
AR C
Ġdf datetime
Ġdocument ed
80 80
PRO FILE
Ġty pical
Ġ"{} :
clus ions
Ġstri ke
activ ities
Ġdeploy ed
ĠST AT
ĠAR N
Ġstddev s
Ġleader board
REMO TE
F luent
P AN
R AD
^ -
Â °
Ġd urations
is close
file paths
(" $
time tuple
Ġx m
=' #
Ġen ded
ĠV ariant
op c
ĠW a
Get Row
color map
Ġdel tas
Ġapi key
dot ted
mount s
insert ion
ĠOr g
Ġconver ged
Ġleg al
Ġidentifi cation
actor s
ĠSup er
ĠDep end
Ġchromosome s
contour s
ĠComple te
ĠTop ic
T rigger
V ID
c riterion
f names
l lier
p ls
Ġc ad
Ġb read
Ġ( ((
ex ons
Ġg df
Ġco inc
ĠI MC
Ġde co
ĠN ested
Ġtime steps
:` _
Ġcomp liance
lib raries
mt x
trans lated
AC L
RO W
Ġcli que
Ġtri angular
Table Name
Reg istered
Ġface ts
æľ Ģ
Ġcontract s
Ġir radiance
rh ol
Ġmacro s
CONNE CT
> /<
B and
C tx
E poch
Y es
re use
Ġif ield
is Valid
name list
Ġu fo
Ġres ampling
per to
pro ws
Ġx p
). \
mb ic
lit tle
sub graph
Ex ceeded
Ġbu dget
lib input
dis cover
Ġpi ka
Ġbyte code
200 8
ĠCON ST
expect ation
('" ',
ĠCor pNum
Ġwit ness
P ers
Ã µ
an i
and oc
ort ex
ĠP acket
ĠE M
-------- +
Ġhost group
De lay
Ġ"" ))
Ġafter wards
ĠTO P
ng l
Ġtransform ers
ĠIN FO
Ġrep lies
Ġpr intable
Ġsubnet s
Ġclip ped
Ġtrial s
follow ing
ĠManage d
= \"
S ur
T rain
s av
w al
le sky
Ġn io
Ġb t
Ġb unch
sp ines
te ams
att s
ran ks
sc lient
ab ridge
Ġbu ses
Ġblock stack
ĠGet ting
]] ),
Ġinitial ly
ĠUn expected
Ġedge color
reference d
Ġnet mask
Input s
Ġæ ĸ
lar gest
('.') [-
Ġord inal
dh cp
Ign oring
¡ç ¥¨
$ ')
C OR
H ome
a ches
g ri
n ary
q r
Ġt ilt
Ġp name
(' (
data Type
ĠU npack
ĠW ORD
ne o
ĠB ar
ĠType s
Ġhelp me
build s
mal e
Ġpredi cates
}} }
Ġspe ech
CODE S
chr one
ĠVM ware
altern atives
ufacture r
C lasses
U LE
i ous
k p
o ken
Ñ ı
al ic
Ġp ep
Ġd g
Ġb ios
Ġde comp
ĠS ocket
ĠS yntax
our se
ity Error
Ġpa ger
Ġpa ssage
Ġsub directories
ĠAr c
'], \
AN ALYSIS
Ġcount ed
Ġ(' %
temp oral
Ġq os
ĠWe ight
TR UE
ze ug
Ġeffect ively
Ġå ¦Ĥ
ĠNode s
Ġden ied
Uni mplemented
Ġtax onomy
backup s
Ġestab lished
SECON DS
Ġprun ed
ĠFail ure
' (\
C y
G ame
J ar
R ON
c ds
h la
t if
re write
un ge
get root
am ber
Ġ[ {}]
Re ason
ĠF ort
ĠM S
ĠV ari
ari al
Ġapp arent
RE TRY
stri ke
tx id
Ġ'. ',
stack s
Ġretry able
Ġfill ing
effici ency
Ġsens itivity
Ġreci procal
proto buf
æľ ¬
mis p
INTER VAL
Cre ation
CR Y
flu ent
FE ATURE
UNI CODE
ĠChar acter
issub set
ilton ian
F ront
e of
Ġe type
el en
'] >
con da
ĠA st
Ġde sk
Ġde precation
(" ~
sc m
ĠR s
In crement
IN IT
ac s
ST ATIC
ĠPar am
Ġindi vid
UN ITS
200 9
Ġkind s
UB LE
aut oc
Ġcard inality
built ins
åĬ ł
Am erica
C ross
M icrosoft
P at
b ang
æ ĭ
Ġc url
Ġn od
Ġb n
Ġb lobs
co arse
up sert
Ġbe acon
ser vo
ci m
ĠE ffect
Ġ< %
ĠH and
lic ated
Ġimport ance
Ġlin ux
ell ar
LO C
ĠPro vides
termin ation
US B
Ġarch ived
expr s
Ġprotocol s
download s
Ġneighb our
SA ME
mk stemp
Ġadapt ers
Ġdescend ant
xFFFF FFFF
. ),
E scape
V ATE
al located
Ġc ds
pe ff
ot t
Re cursively
Ġpro posal
per mutations
und o
Ġun quote
lic er
sub system
bu y
alt itude
Ġtra cing
db g
Ġwork dir
Ġver ts
Ġsum s
gr pc
Lo gs
US H
Ġimp lied
mesh grid
TA IL
ava il
rr p
Sign ed
Ġcer ts
Ġroll ing
Ġmeaning ful
ĠLook s
Ġsuggest ed
å¼ Ģ
RDF Datetime
- "
O A
b iter
h ort
m oc
p ane
s it
å Ŀ
Ġi llegal
Ġb undles
Ġse per
key file
ĠA rea
Ġde compress
po pen
url join
der ive
son gs
Ġsub path
Ġread DataInstance
PI C
Ġdatetime s
ear th
Ġselect ing
Ġfail ing
An not
Ġevalu ating
UR ATION
ĠDataFrame s
ĠPre dict
ĠObject Id
ĠAd min
Multi Index
Ġcar ry
nick name
Ġtweet s
ales ce
ĠDes ign
. ).
Ġ ë
le metry
Ġf inis
Ġre ly
Ġre play
Ġn av
Ġd omin
li k
ĠI NS
Ġelse where
Ġr nd
ĠP otential
Ġres olves
add Child
pa ces
__ ).
gra ded
AR I
part icles
Ġallow able
Ġop name
Ġlib virt
Ġ'{} _
PAR T
conv olution
conv olve
Ġrank ed
Ġgu ard
Api Id
------------ ---+
ĠUnicode EncodeError
!=' ':
ĠAltern atively
- $(
T un
d ens
i pp
n axis
s lit
s ockets
t ilde
Ġ river
an or
Ġb w
id y
ad b
Ġse gs
ect ors
ĠP ER
pro duce
class ify
ave at
Ġspeci mens
Ġj j
Con tract
max iter
split ter
PE M
Ġbreak points
ĠData Calculating
qual ifiers
Ġdb name
ĠK wargs
na ive
Ġ'\ '
Ġretry ing
sage maker
Ġanaly zed
Rece ive
ĠSO AP
occur rence
Produce Event
åĨ ħ
PROPER TY
Ġliter als
âľ ĵ
BUT TON
- (
A ge
E B
] _,
g auge
n gram
Ġ è¯
li days
Ġan alog
Ġex pose
sp ider
ci ous
Ġ`` -
-------- --
ĠL iteral
ĠO PEN
ca pability
Ġ\ *
ST M
Ġper mutations
iss calar
copy file
32 0
ear ly
Comp at
Event Type
EX IT
MO DI
ĠDis crete
Ġpartic les
Ġactiv ations
Extract s
sol r
Ġregard ing
Ġ"* "
Ġintro duced
Spect rum
Ġbas ically
' ^\
B lue
F ONT
S ends
V i
e vals
g ens
g igabitethernet
| ,
en di
Ġa w
Ġp type
Ġin asafe
lo st
Ġ# ################
Ġh orizon
key board
Ġde clination
Ġ{ (
ag ue
Ġsub reddit
not her
ĠH DU
Ġread only
OR IG
Ġ[' ']
Ġ6 00
Ġarch ives
Reg istration
foo bar
fasta file
Exp and
Ip Address
TRAN S
çĲ Ĩ
Ġ+-+-+-+-+-+-+-+-+-+-+-+-+-+-+-+-+ -+-+-+-+-+-+-+-+-+-+-+-+-+-+-+-+
> _
T raining
U V
Z ONE
e id
g if
s is
s ip
se lections
re li
de que
de legate
Ġn lp
an sible
Ġs ls
Ġst ype
ver aging
Ġcon cent
Ġex ts
ĠC N
Ġname db
Ġx ref
Ġany where
func name
be cause
Par agraph
Ġiter ates
Ġcount ries
Ġqu arter
part ure
Di Graph
sv n
34 5
dec ision
plan es
Ġsubscription s
ĠEnvironment Error
DateTime Values
fort un
ĠConst ant
NORM AL
Ġutter ance
: [
B undle
E p
g un
m data
o logical
() '
Ġex cess
Ġex pert
Ġ1 01
Ġres ized
ĠE lasticsearch
ĠN A
Ġ` "
Ġsub module
ĠH IT
ĠCon tract
trans it
Ġ5 6
Ġph en
Ġcomple tes
cluster ing
Ġmultip lication
Print s
ĠPol y
Ign ore
uro pe
S AS
T D
_ ),
a py
m peg
n ex
Ġa pt
de viation
Ġp ane
Ġn side
Ġ" ;
'] ='
Ġkey file
ip pets
Ġpre par
ĠL azy
ĠB reak
AT T
ay es
dis c
Ġ"" ""
comple tions
Ġip address
depth s
environ ments
vers ity
Ġattemp ted
Ġconstruct ing
Ġcompar ator
Device Get
è¿ Ľ
cost s
hour ly
INST ANCE
ĠProtocol Error
Ġru pture
Ġnucleot ide
Ġfri ction
onet ary
æ¶Ī æģ¯
; <
A RE
P V
] },
n ice
t ures
de letion
al location
Ġre factor
Ġp q
Ġe lection
Ġcon duct
Ġcon soli
key space
set Attribute
ĠC ancel
kw d
00 5
ind ers
ĠG ive
Ġover writing
DE FIN
lower case
Ġentry point
Ġselect s
Ġextract ing
ĠIP s
Trans ition
ĠAs ync
ĠCol umns
database s
CS V
SIG INT
ĠMo difi
Ġrc Params
integr ity
VM ware
ĠChange s
ĠXXX X
Ġquick ly
fed eration
fort ran
ĠTw itter
Ġnom inal
I SS
h line
h az
z n
} ``
å ĵ
de ck
Ġs lashes
Ġe e
Ġd na
pe l
""" )
Ġw ar
Ġ""" .
Ġst ay
ter o
Ġsh allow
py tz
__ `
Ġsub directory
sub classes
iter rows
Ġ4 10
Ġwork unit
LO T
Lo aded
Ġpi cture
Ġneg ot
Ġcy thon
Ġtensor flow
Ġprec ise
Ġgood logging
Up grade
("' %
meas ures
lick r
Ġnest ing
ĠDes ired
warm up
Ġdum ped
Div ision
D on
W ill
` \
r ust
on set
Ġre nd
Ġin gest
Ġb az
ri ane
key ring
sp s
format ters
ĠN TU
mo s
ĠR idge
ĠL ED
ĠW ITH
tri angles
ak ed
man agers
Ġinst ant
ĠPro blem
stack ed
lear ner
speci ally
upper case
:% (
Ġexit ed
Valid ated
ĠQu ant
prob es
STR U
)** (
+' /
PL U
conj ugate
ALI ZE
Ra ise
ĠRel ation
å½ ĵ
ĠSeq IO
oint ment
GetRow Value
( ...
F ig
M ongo
U ns
b ys
l ates
s ids
è ¾
è ĥ½
ì Ŀ
Ġre strictions
Ġs ch
ad am
ri s
key name
Ġel l
ĠC he
Ġpro filing
ĠF older
iv ar
__ ``
Ġcol lapsed
sum ing
Ġpart icipants
trans ient
part icle
... '.
ĠHTTP S
Ġ7 5
40 96
pan els
radi i
Ġmut ually
course id
appro val
Ġdeal ing
ĠDep ending
INST ALLED
residual s
ĠSum mary
Ġcyl indrical
Ġhel ps
Dst n
A udio
D et
F ALSE
b rand
d path
i y
n id
p le
r va
v owel
de ls
is ns
Ġex if
Ġres olving
ps y
son ant
vert ise
DE SC
dis count
ud ge
vis itor
xml ns
Ġcli pping
Ġ"% .
AP PS
([' --
Ġsn ake
\' ',
sy ms
With EventData
Ġclip board
Ġbook mark
ific ance
ĠDocument ation
Ġbeh ind
RUNN ING
ĠGalact ocentric
Ġcaref ul
CONTRO L
S n
W ave
b an
m jd
n avigation
Ġf re
ent ions
)) ).
Ġg ss
Ġco vers
ĠS UP
Ġget pass
** ,
place d
rig id
pr intable
pk i
Ġbind s
indent ation
Ad just
SIG TERM
Ph oto
Ġaux iliary
trunc ated
Ġrem otes
Ġgran ularity
Ġparagraph s
Ġpropag ation
Expect ing
substitution s
ProduceEvent WithEventData
: *
D ot
D ynamic
V e
d K
m ute
Ġb z
Ġw rt
Ġan si
Ġde limiters
path way
file size
ĠF AIL
Ġj d
Ġquery string
lib ri
Se lf
Ġchange set
Ġtemp dir
ass ume
Col ors
roll ments
Ġunique ly
Ġboolean s
Read Only
commit ted
success or
Ġupload ing
NotFound Exception
separ ation
SA MPLE
AND ARD
mut ex
pag ation
åº ¦
ĠTemp erature
perto ire
H yper
S PI
c pp
p ragma
in cl
Ġs ids
urn ament
() +
ĠS lack
ĠF raction
Ġra dio
time steps
Ġch errypy
ph ens
Ġj vm
Ġexist ed
print Ln
Ġ'' ',
DI SP
Ġtri ps
Ġker n
Ġlock s
loss ary
ĠDis patch
Ġsy nt
Ġgeo json
Ġfree ze
lv in
Be fore
Char acter
ĠSN Ps
ĠCID R
S ame
n ans
Ġf am
Ġre new
mp ts
ch irp
Ġst ale
Ġl inal
ĠS pect
Ġpar ms
ĠP retty
Ġv owel
ĠB ot
Key Id
plot ter
struct s
Ġgen otypes
speci fy
Ġcent roids
Ġcallable s
Reg isters
Ġcp us
Build ing
Ġnx t
ĠTensor Flow
Ġwatch er
WA Y
pag ination
ĠEX IST
ĠPa rent
ĠPmag SpecRec
ĠâĢ ĺ
DIS ABLE
who le
Dest ination
stre et
Ġpagin ator
Inst alled
Ġmention ed
Ġhierarch ical
unders core
8 859
D G
D RI
G PU
P lay
P anel
S ym
p format
s outh
Ð º
Ġc pd
Ġc lobber
ad joint
is lice
form atting
Ġv l
ĠRe pe
ip ap
ĠR AM
ren v
Ġsub folder
Ġmax im
Ġspecifi er
right s
open quake
Ġ8 5
nap alm
Ġspace d
card inality
Ġindent ed
]+ )\
rece ipt
Function s
Ġrect angular
BO X
Red uce
duplic ated
Public Key
Activ ation
ALLOW ED
xffff ffff
! '.
B EL
a ugment
i ak
p ids
s wa
t qdm
å ĳ
ç İ
ar range
Ġn g
Ġn bins
Ġw sgi
Ġreturn code
'] ()
file info
ĠS lice
Ġal one
Ġra pid
fo ur
Ġy p
Ġch assis
00 2
mo vie
Ġun compressed
Ġmax imal
cs rf
ĠJ S
Ġarg in
ĠData frame
AD MIN
Ġ'/ ',
insert ed
gt Key
Ġdat atypes
(', ')]
sy mm
aggreg ations
Ġsto chastic
Ġbuilt ins
Ġmis c
Ġinc ident
Security Group
ĠAda pt
Ġlinal g
B RO
S yntax
] ?
h id
i ra
l g
Ġt ango
""" .
Ġg am
ĠA ggreg
Ġme d
(" __
ĠĠĠĠĠĠĠĠĠĠĠĠĠĠĠĠĠĠĠĠĠĠĠĠĠĠĠĠĠĠĠĠ ĠĠĠĠĠĠĠĠĠĠĠĠĠĠĠĠĠĠĠĠĠĠĠĠĠĠĠĠĠĠĠĠĠĠĠĠ
ren ew
Ġac id
ID X
Ġta per
Res olve
FI ED
Ġhash ing
Ġart icles
application s
Ġgre p
Sp atial
ĠAuth entic
çĶ Ł
Ġweek day
ĠInstance s
PyCdlib InternalError
ĠPA SS
Ġther mal
Ġ655 35
J ava
L ower
W K
W BEM
b en
f ro
ç «
on sets
Ġa ce
he t
Ġb log
ver sing
(' )
---- +
Ġbe aring
ĠI M
ĠS ensor
ers ions
Ġch root
Ġch aospy
pre cip
pa int
Ġun register
ĠR ound
ĠR ock
fe red
ĠTh er
be havior
Ġdate util
cy l
Ġsign s
pl ates
Ġtw itter
open flow
=( ',',
Ġus b
enum eration
Ġredirect ed
anis ms
scalar s
aff inity
ĠDef in
wave form
interpol ated
ALI AS
buff ered
ä½ į
iline ar
Ġhyd ro
Break point
PLU GIN
0 25
; ")
D aemon
N v
R V
c able
f con
Ġ ]:
Ġi on
Ġi ma
Ġf ptr
un install
ra dec
ri ed
Ġcon venient
rom an
Ġal tered
Ġal though
Ġnum s
Ġun like
ĠG B
St ar
Ġser ving
with draw
Ġ5 2
Ġqu adr
FI RST
Ġclo ser
Ġvar args
CH O
ire ction
Ġbar code
Ġutil ities
Ġâ Ī
Match ing
Ġ({}) ".
ĠMAV Link
Ġprox ied
Ġå¦Ĥ æŀľ
( ~
: {}'.
A ES
C li
D r
D ays
P NG
p int
x mpp
in venio
Ġt angent
li pt
Ġm or
Ġm ind
Ġm df
Ġfor bidden
Ġh id
Re ci
ĠI mplementation
ĠRe po
ĠD AG
ĠR ename
fe rent
ĠEx cel
Ġser v
Ġpy amg
ap se
Ġattrib s
ĠCon cat
10 5
Set Input
change log
(* (
Ġref ine
round s
Ġ8 601
now ait
19 70
Ġimp ossible
Ġ"{} ".
ĠVariable s
PACK AGE
Ġdistingu ish
8 02
M at
M ath
S aving
T or
j unction
n ical
r k
v n
Ġt ells
Ġa es
Ġre lay
Ġn k
ra ce
Ġse rie
Ġcon firmed
[' <
Ġco vari
to ms
to ks
Ġ_ )
ĠS witch
Ġpro jections
pre decess
om it
Ġpre fetch
ĠEx tended
Ġ3 8
split ted
pect ive
Ġvalid ates
si a
Ġext reme
pass ive
ĠDe pth
bit mq
sn ake
ĠLog in
Ġeven ly
Ġactiv ities
Ġmodifi es
trie ved
Loc ations
illa renv
Ġdevelo per
Analy ses
overla pping
Ġjav abridge
D ONE
K NOWN
f v
k no
å ĴĮ
Ġt n
Ġre cs
Ġe ight
Ġd amp
um bs
ma de
[' @
Ġal phanumeric
ĠRe st
read me
ĠB ED
sing ular
Ġjson schema
ĠAn gle
RO LE
DI s
gy ro
ĠComp ound
kind s
nb r
Ġsl c
Ġselector s
Pix map
ĠAb ort
ĠOb tain
ĠMult ip
atex it
ORIG IN
C ERT
D ensity
E PS
H tml
K W
T LE
T rip
f all
p name
p fp
s atellite
Â ł
å §
Ġre draw
Ġn id
Ġn max
Ġin fluence
Ġin finity
Ġ( '.
am qp
as dict
ĠS AM
ĠC ross
Ġdef ect
]) +
Ġx c
Ġ2 50
col name
Ġen gines
Ġ[] ),
ag en
Ġ\ "%
Ġsource code
pl ug
ĠSt ats
Ġsome where
go als
extra ction
Sh ared
NO TI
([' -
Per forms
Ġaverage d
ĠPO SI
ĠLe g
Ġvisual izer
Ver b
Ġsoft max
Ġartist s
Ġwavelength s
ĠExp and
ĠEstim ate
simp lify
Ġelectro de
Ren derer
fili ation
Ġdesk top
a de
h oriz
n ml
s ms
Ġn grams
co ok
Ġcon currency
Ġh h
Ġ1 50
ĠI MP
ĠS y
ĠF ixed
ĠR C
Ġover view
Id List
Ġtemp eratures
project ed
cp d
ĠLo oseVersion
IT ER
rest ype
AB I
Al pha
Do cker
ĠIN DEX
ĠField s
ssib ilities
éĢ ļ
Ġuncer tainties
dynam ics
shif ted
supp lied
Ġscra per
iddle ware
( :
G aussian
L AT
R b
k ube
p Lvl
w m
w ik
al ong
me chanism
Ġre index
Ġs on
ul as
ĠA vailability
ĠI nd
Ġdi e
Ġr data
Ġfile handle
Ġch ron
Ġpo ols
py lab
sc aff
dict item
In d
Ġcomp ilation
stri des
Ġsp am
sign er
ĠException s
exist ent
CO OK
KE D
DS A
We ek
ĠQt Widgets
Ġsat osa
è¯ ģ
super class
Ne ighb
corr scan
Com bo
ĠRed irect
Ġnick name
district s
+ (\
. ::
] [:-
d cm
m usic
r at
v type
in j
or acle
he ta
al a
Ġn th
it ched
it ative
def init
ĠT ran
ĠT rain
Ġcon versation
'] *
ĠA m
et ter
Ġar cs
ub untu
ĠRe present
Ġlog l
ĠR en
([ _
cur dir
{} -
Ġ. /
Ġback ing
Ġdiff usion
function al
child Nodes
oper ands
zip file
ced ent
Ġassoci ations
PRO XY
Ġkernel s
cons istency
36 5
ĠInitial izes
Variable s
Ut ility
nom inal
Ġgreen let
tweet s
2 24
S peed
e ol
k ms
s mi
u ate
Ġt max
er able
Ġi j
Ġe i
Ġe pilog
Ġst aff
'] [-
Ġde leg
ĠS ch
ĠS anity
Ġv iz
art icles
ĠD river
ic a
py ramid
-------- --+
user info
Ġdist ro
qual name
dist ro
serial izers
0000 000
20 4
Form ats
Ġmon key
IL Y
Ġown ership
Ġden ote
decor ators
ĠDef erred
ĠFa ctory
Datetime Index
%%%% %%%%
SING LE
Keyboard Markup
Indic ator
ĠLIM IT
Z ERO
f info
h ips
© º
en rich
Ġs lim
Ġst ory
Ġcon strained
qu eness
ub it
ĠP lan
Ġx b
Ġlog store
ph ases
ca b
Ġnode list
Ġdis placement
var args
Ġpassword s
ĠJSON Client
gre p
ĠUser ID
ident ify
Ġmut ate
Ġcos ine
ĠSQL ite
Ġbus iness
Ġok ay
å¤ ļ
LAB LE
Pi pe
('" ')
conflict s
ĠCond ition
Corre ct
descend ants
cens us
ĠJSONClient Validated
E ither
F ocus
R DD
T REE
_ `
i mm
j am
r ss
Ġf wd
Ġn arrow
Ġe vals
Ġ( =
up g
ma intenance
as ures
'] )))
Ġg ri
ime zone
vi es
ĠC L
Ġar n
Ġma kedirs
ic ket
text ure
Ġlog gers
Ġpo se
Ġla unched
Ġcomp licated
comp utation
og gle
ak a
use c
Pro t
`. "
)] ),
Status Code
inv ite
ĠPre vent
ĠSub classes
Job Fn
optim al
aggreg ated
Ġmarkers ize
ĠAct ive
utter ance
F W
N B
O Auth
P rom
W ARN
a cons
m illis
s aving
an other
Ġm h
mp state
Ġex ports
Ġh ole
Ġu d
Ġco urses
to ml
`` ."""
Ġpro f
Ġar range
ill ary
Ġsh aring
Ġen closed
ĠW orld
Ġj itter
Ġstart time
ĠIn line
ref ine
Ġclass ified
block stack
10 4
Ġ... ")
Ġform er
igh th
Ġoper ands
16 6
Ġaccess ion
ĠBu ffer
ĠTrans late
Ġredirect s
Work s
Ġabort ed
Ġ'@ '
sibl ings
å¾ Ħ
ĠLat itude
) ``,
C redential
O k
S ig
S AT
d itional
f ps
m ad
u ity
y ak
æ ĥ
in ferred
Ġc rypt
Ġp imms
Ġe opatch
Ġm data
pro du
pre fs
ĠM P
ĠM aster
not ice
md l
Ġcheck points
Ġpy emu
block ed
Ġcommand line
DE TAIL
no va
Ġref res
hash lib
ĠAPI s
Ġcent re
oto pes
vers arial
Ġkw d
Ġinv olved
ked ir
Ġknow s
Ġæ ĺ
ĠST ART
ĠNormal ly
ĠMat plotlib
Ker nel
æ¡ £
anu ary
; ')
= """
F lask
N ER
P LAY
r ator
v ary
v line
x sd
en force
Ġc ats
Ġre gs
Ġ# ############
ch own
00 3
col lation
Ġli e
ĠIn ternational
Ġhost port
rt l
graph ics
SI C
sort ing
Ġlook back
Log ical
Ġdisplay ing
mount point
Ġseries List
Ġsur faces
span ning
ĠObject s
Call Error
Ġmx net
ĠQuery Set
Be arer
Ġbackup s
ĠSome times
Ġinterest ing
war p
Ġdistrib ute
Ġju icer
HEL P
ĠIND RA
b h
e uclidean
k d
n exus
y ang
y lab
z max
re build
Ġt end
le y
Ġf k
Ġin let
Ġs as
ĠT raining
Ġnot ice
up o
)) }
Re verse
Ġr na
ĠC HE
cal ed
ĠP C
Ġkey name
ĠE nergy
Ġlog o
=' ?',
ĠB undle
ag reement
Ġle f
=" .
ĠH DX
ax on
Ġdis plays
10 6
ĠY ubi
ĠReturn ed
Comp ile
Ġpop up
AP ID
ĠNo Access
cb i
Ġspan ning
Ġrout ines
Ġtm ux
Ġemp irical
Ste ps
Ġposix path
Ġscaff old
' *
> âľĵ
B rowser
E F
F s
G REEN
M ID
P lain
a ud
a wait
d end
x so
} }{
Ġw ild
di sease
con currency
Ġl sm
Ġg tk
ĠP auli
ci f
Ġhe llo
log z
Ġid p
ĠB ayesian
Ġle aving
Ġlin enum
Ġver ifier
task id
Ġdb Conn
Ġreq s
dat adir
Count ry
hy po
car rier
åĲ Ī
RPC Error
ĠMI B
Ġconj unction
ĠXY Z
, :,
C rypto
S olver
h dfs
n cols
r ls
s anit
y o
Ġt ro
Ġt ill
Ġd max
Ġd owntime
is link
ĠT M
app lied
pre pared
Ġsh orthand
ĠM ambu
ĠG PIO
Ġk o
ĠB O
ty pename
Ġ3 7
Ġcall ers
cs m
ĠCon tact
auth n
io di
Ġq name
hash able
``. *
Ġvi rt
ĠUn its
PO INTS
direct ives
Ġpop ulations
sy llab
Ġss bio
cancel led
CHAR S
Ġshortcut s
Ġinterpret ation
ĠRef resh
reject ed
-~-~ -~-~
åŃĹç¬¦ ä¸²
B V
M esh
T MP
j b
j et
n ational
r ds
r partition
y t
or ry
it a
Ġe mb
id entifi
co conut
Ġst retch
Ġu ptime
ĠF etches
ĠRe verse
ĠD AT
ĠD ay
Ġro i
-------- -+
ĠR S
ĠR ab
ĠG ene
Ġcomp liant
Ġ/ >
Ġne ural
own ed
md s
sing leton
01 234
ref lect
Ġ5 000
File System
ĠSt atic
net mask
LI CATION
cat alogs
Sub mit
Ġdepend ents
Ġthrough put
defin es
sy mpy
Range s
Ġvide os
Ġrecent ly
âĢ Ŀ
Ġmagnitude s
IMP ORT
misp here
DateTimeValues Event
>âľĵ </
R adius
T wo
V ari
e lection
h or
n args
n bytes
s andbox
x or
¨ ¡
ar ison
Ġre quis
Ġp st
Ġd bs
ĠT EMP
', \
ve hicle
ta p
sp read
sp lunk
ĠP latform
ic ing
Ġpa ste
Ġpre serving
ĠR NA
ĠR ES
ost er
comp artment
Ġover head
Ġgra ds
Ġqu iz
Ġdist utils
ru it
READ ME
Ġconflict ing
Ġneur ite
Ġadv an
inherit ance
Ġheur istic
æ¬ ¡
G V
I AM
W F
s parql
al man
Ġre order
Ġin clination
ro oms
Ġ' '):
Ġ: ].
(' &
Ġh dfs
ig mp
Ġde creasing
ĠS cope
ĠC SR
ĠC MD
Ġpro filer
Ġv ms
Ġdef s
pi lot
ĠL eft
ĠG E
St ates
sent inel
ĠCon straints
use ful
Ġdiff use
Ġlocal ized
ret val
Ġ6 5
pol ynomial
Ġclo ses
En cryption
Comp osite
au c
ĠCh unk
ĠPer cent
ĠUser Warning
sim ulated
('. /
ĠTe ch
SD L
super user
ĠAli as
ĠMem ber
MAN AGER
åıĳ éĢģ
G N
L ON
T Z
T ile
V C
a jax
g ist
h px
k le
k df
v agrant
w alker
Ã ¼
â Ī
al ter
ur t
Ġe specially
Ġd dof
ĠA DD
Re pe
Ġ- .
`` ),
ĠS imp
ĠF O
ĠF ont
Ġkey store
ĠD b
jo bject
ĠR V
ĠW iki
fix es
ĠCon version
ast imezone
Ġ5 8
Ġad joint
LI T
Ġ{" $
align ments
Ġbuffer ing
Ġsur vival
OP T
Ġweb hooks
Ġ"' %
Ġear liest
expect ations
ĠGit lab
Ġsci kit
cipher text
Ġremain s
ĠHE AL
Ġhdu list
wavelength s
ĠLong itude
Mis match
Ġcoer ced
PARAME TER
F oo
F raction
_ {}_
d rift
x range
Ã Ń
è ĩ
Ġ atten
or o
an tom
() ["
ĠT S
el m
ĠG reen
return ing
sub st
sub title
np z
parse String
ĠJ acobian
ĠSe arches
over view
UN IX
diff use
Ġaccess or
LA S
ater ial
thread ing
ĠRuntime Warning
Ġndarray s
Per missions
dic ates
Desc ribe
invalid ation
utc fromtimestamp
Ġden oting
Ġdry Run
decor ated
Meta Data
------+ ------+
SPE C
SPE CI
occur rences
magn etic
æĮ ģ
fortun ately
H SM
t ld
¨ ĭ
Ð ¼
Ñ ĭ
æ ®
Ġ questions
Ġb la
li ze
Ġbe have
Ġg lobs
ĠC atalog
Ġal loc
") ;
]) **
ĠL P
ll ation
Ġtra ding
iss pace
Ġcolor ing
Ġvi p
ĠRun ning
Ġinvalid ation
ĠSh ared
CK ER
ene as
Of P
redu ction
moment um
Ġsuggest ions
Ġcas cade
overall RC
Sm art
ĠOk ay
) =
2 11
3 11
F etches
I V
T V
l ut
r nd
w r
z es
in force
or ange
al Error
Ġp layers
Ġp RF
Ġd ut
Ġw arm
ĠT s
ex if
Ġh m
ĠI V
ĠS ky
mo bile
bo unded
ĠM u
Ġk afka
pos ures
Ġper turb
Ġ4 4
']) ]
sign ificant
Ġzip ped
ĠLO AD
ĠSh ift
ACK ET
ĠInitial ise
mx net
Ġred shift
pas ses
ĠLabel s
Des ign
Ġexha usted
presen ter
Ġcel ery
* ')
2 20
A MPLE
M er
S caling
d oping
{ /
at im
Ġf an
Ġo file
ad vance
ch aospy
Ġse lections
Ġ_ `
(" @
ĠThe ta
Ġk illed
ns igma
by e
sub scriber
Ġ4 7
:// ',
find text
current ly
ĠPy PI
Ġlib vlc
FA M
ĠDi ff
24 0
chunk ed
Ġconf usion
extract all
Ġcir cum
geo json
tor rent
Ġ40 96
ä½ ľ
Mag ic
ĠLa unch
Ġ204 8
Sto pping
CLO SE
Ġreplic ate
Ġprivile ge
nes ses
ĠCoordin ates
' _
D ING
S RC
_ ='
_ .__
a SAFE
b rowse
f an
k i
Ġ ]))
Ġt alk
Ġd fa
Ġst ress
Ġco uple
to il
and b
Ġr w
ĠC y
ĠC RL
Ġfile size
ĠRe ply
pre fetch
sc f
Ġiter ated
su fficient
keep alive
Ġsuper cell
gre y
lig and
ĠOr bit
fact s
PRE SS
tor nado
âĶĢâĶĢ âĶĢ
Ġeigen value
Ġmix ing
ogen ous
Fl ush
ATTRIBU TE
ĠSTR ING
capt cha
Ġzen ith
ĠFort ran
: >
B M
R ename
T ran
[ ^\
k dims
s weep
t max
v host
Ġt one
me mb
Ġc am
Ġc cd
is atty
Ġ" ?
ex er
'] ._
Ġl xc
Ġu dp
Ġdata Type
Ġv b
ĠD im
=' _
Ġwe st
Ġtra vel
Ġmo lecular
Ġarg parser
De g
DI FF
SC AN
Comp iler
ĠZ IP
Ġjoin ing
Trans late
ĠIN ST
Ġsy nthetic
mut ually
plan ar
Ġes ri
mis match
ti po
analy zer
rh og
front ier
Ġsatis fies
Ġcolour s
Ġsd k
gw py
ĠJava Script
Percent age
REGI ON
Ġmes hes
" />
B ed
C ER
E mit
c ke
n pix
u is
u um
or ters
de b
id p
Ġ" '"
(' //
(' </
end a
Ġdata file
ĠC atch
Ġpro teins
Ġy r
sh aring
ip yn
bo keh
ĠM esh
Ġun matched
fa vor
:` \\
ir m
qui libri
IN F
Ġax s
ds n
block Signals
']) ):
Ġopen s
Pro vide
pri mitives
Ġav oids
Ġman ner
Ġgraph ics
CE F
En semble
ĠOpen ID
ĠError s
progress bar
estim ation
Ġdig ital
Ġretrie ves
IST ER
CA ST
ĠOver write
arc cos
ni que
Vis ual
Ġmicro second
ANCE L
ĠON LY
upy text
writel ines
Ġmen age
MEDI A
Ġpsy copg
Ġpract ice
CONTAIN ER
ìŀ Ĳ
A E
B alancer
O sid
P layer
T ick
U DF
d rain
m illiseconds
t u
v ni
â İ
Ġi opts
Ġs atellites
Ġe ligible
(' ---
Ġh alt
Ġh pars
Ġor acle
to ps
Ġdi fficult
Ġme ch
ĠP CA
Ġat ype
ĠEx ternal
ab ilities
pos als
ac quisition
ap ig
ĠPro to
Comp are
Array s
train able
any cast
ox mpp
AS N
ĠEn ter
Exec utes
ĠHe ight
Ġcut s
Ġmime types
tran spa
ATTRIBU TES
postgres ql
A Z
G ATE
H P
V PC
b lobs
c data
e i
j r
y ms
he mat
Ġc tr
Ġc delt
Ġre ferencing
Ġin j
Ġin ternet
li fication
Ġ# .
co pied
il bert
ble s
ser ves
ort ion
ĠS ampRec
Ġra mp
), (
Ġkey space
ĠG D
ste in
Ġread ers
ĠCon f
cy thon
ai oxmpp
ĠSe lection
Un authorized
Ġcmd args
connect ing
DI C
ĠNote book
pc ion
Ġcat alogs
Ġconver ters
Ġpers onal
sur vey
Ġtool tip
è¿ Ļ
Ġnu c
Ġemp loy
Serialize ToString
ĠIndi ces
ĠOper ator
æīĢ æľī
Ã§ Ã£o
) [::-
+ ")
N x
P erson
h ale
v ap
z yg
é Ŀ
st ress
"" )
Ġn pts
it ored
Ġin fra
ro red
Ġe ager
li cal
li day
Ġw ake
un ame
Ġst y
is Checked
ĠT TL
Ġh or
ĠS hell
(" :
ĠG ateway
num er
ard ware
ĠH MAC
lat er
Ar r
Ġsk i
inst antiate
Ġhist orical
IO S
ctx t
Ġfra ctions
cla ve
syn set
Ġarc py
STATE S
hyper visor
Sim ilar
Ġpropag ated
SCA LE
Ġestab lish
Extraction Warning
Ġgd al
semant ic
Ġindivid ually
C ampaign
I AS
P hi
U cs
W a
h ter
p al
p il
x dr
ç ¼
re covery
Ġa ug
Ġc ry
Ġb kg
Ġb orders
def ect
ch rome
qu arter
Ġlo ci
Ġlo cs
ĠS igma
ĠRe ci
ĠO mega
ĠH ence
sub parser
Ġtrans mit
cent re
Ġtask id
Ġattr name
Ġcomm unicate
Add resses
rol led
Object Type
No ise
Ġdesc r
Ġmerge s
Ġmon o
Ġnet s
13 7
Ġneighb ours
Sp line
Over lap
simple filter
ĠNetwork X
ĠDO I
yy yy
Ġthro ats
blacklist ed
PUB LIC
MAG IC
ĠContin ue
Ġaio http
ĠCLA SS
Predict ed
Ġpyn os
ELE MENT
> {}</
c rash
h umidity
m z
n ullable
s low
s ched
s ynchronous
æ Ľ
re cogn
ct g
Ġe lev
Ġ' }
Ġb urst
Ġan ti
Ġ" </
Ġl un
Ġh am
': [
to scape
ĠF S
ĠP ur
pro ducer
red o
ms h
append Child
Ġpre condition
ts k
RE DIRECT
off ered
Ġcur s
Ġ5 1
Ġq t
mag enta
Ġtotal s
Ġerr s
Index es
Ġow ns
aut omatic
Ġpipe lines
Ġscheme s
ĠSup press
Vis itor
Separ ator
REGISTR Y
æĥ ħ
ipyn b
> ':
s db
z k
Ġd sp
get s
th ird
Ġr n
ĠRe al
Ġdo copt
Ġadd on
Ġsub sequence
da e
Ġmax size
sent ry
LE ASE
LE CTION
copy right
Ġbin ned
Ġsim ulations
cut out
ĉĉĉĉ ĉĉĉĉ
Ġclick ed
ĠRE F
sim ulate
As sert
ĠBo ol
repe ated
adjust ment
Ġpointer s
BR ARY
equ ation
ĠSto res
Ġessential ly
anor oll
quilibri um
+ ':
H IGH
J WT
M IC
a ug
n h
n aming
s al
| .
Ġ Ï
ķ Ĩ
Ġt rend
ar a
Ġc im
it lement
Ġin spector
Ġin vestig
ent e
is Enabled
() ._
ĠT reat
ex ports
Ġcon cepts
Ġg m
ĠA nother
sp ended
Ġlo ge
set Results
ĠF IL
Ġout let
__ _
Ġtime period
Ġk k
Ġca using
Ġbu y
Ġinter rupted
AN DS
Ġmult id
uni verse
ĠPro duce
est he
Ġerr back
Ġsuccess ive
Ġob vious
20 8
Ġunicode data
_{ \
Ġequal ly
}\ ''.
writ able
Ġpercent iles
Ġregular ization
Su ffix
Bo ok
ãĢ ģ
Make s
Pix el
vx vv
PRI MARY
contiguous array
ĠDatetime Index
WHITE SPACE
ä¾ ĭ
ĠEng lish
, ...
D irs
H W
R AM
S ince
i ment
ç Ļ
en rollment
Ġa le
Ġb an
list Regex
Ġde m
Ġde tached
path To
Ġdi ction
Ġv v
pro posal
ĠD ir
ĠN EW
py snmp
Ġvalid ating
Data Source
Get Output
Ġwhere as
copy tree
Ġshape file
Un defined
Ġinitial izing
ĠPro cesses
UN IT
ĠLO CAL
Ġauthor ize
Ġscan ned
Code s
Ġmove ment
Ġdataframe s
Ġhand shake
Ġgeo graphic
need le
Ġmeth s
ĠAct ivity
REF ERENCE
Ġuniform ly
Ġdeli vered
Ġincrease d
ĠPY THON
Termin al
writel n
{}" '.
Ġí Į
Ġgy ro
SOLU TION
+ )',
; ",
B GP
C amera
E nergy
S lot
b son
b undles
c z
c ad
f ut
k ick
Ġf min
Ġn col
Ġm q
is hed
el b
as contiguousarray
Ġex clusion
Ġg z
Ġg allery
Ġ* \
Ġra re
ĠĠĠĠĠĠĠĠĠĠĠĠĠĠĠĠĠĠĠĠĠĠĠĠĠĠĠĠĠĠĠĠ ĠĠĠĠĠĠĠĠĠĠĠĠĠĠĠĠĠĠĠĠĠĠĠĠĠĠĠĠĠĠĠĠĠĠĠĠĠ
ĠM gtKey
version ed
In dx
join path
ĠB ASE
Ġdis cret
Ġcorre ctions
ĠDe serialize
Ġph y
rs vp
No Such
sq s
nan exus
SP ACES
tensor flow
Ġconstruct s
cod ename
vocab ulary
AG ENT
ĠPi pe
Ġ({}) '.
SOCK ET
invert ed
å¯¹ è±¡
Ġadministr ator
rient ation
setResults Name
( {}
A ff
A cc
B D
M ig
ç ī
or ate
al gorithms
Ġp mid
ge ome
Ġd z
li dx
ra form
mp i
ĠT P
di angle
') ],
to bytes
Re ject
ĠS ym
ĠF oo
Ġma j
Ġv en
ĠRe ason
ĠD id
read ers
Ġun directed
min imal
ĠB ed
Ġapp ends
yste matic
Ġ5 5
iss parse
Ġlimit ing
0000 1
MP C
ĠDi fferent
Ġ(" %
Ġmod ulus
Ġour selves
ĠNo Such
Gener al
Ġmonth ly
ural Network
predict ive
multip licity
Ġincrement al
Param File
SIGN ATURE
Ġpul led
ĠManage ment
å° ı
Coordin ates
Modifi er
ĠDevelo per
A IN
E OF
H C
N R
c sc
d R
h ive
l un
p key
s aml
x pos
æ µ
re ts
st uff
st ale
he els
Ġm ine
Ġco var
ĠA A
ĠS napshot
data file
ĠF UN
us al
pro duced
mm ing
Ġpa used
Ġ) [
"] (
ĠEx clude
Ġ3 65
ĠH ook
Ġno isy
Ġmin s
SE ND
Ġ[' .
flow Error
Ġcl c
Ġgraph ic
bit MQ
gress ive
VER BOSE
*( \
cos mo
Ġrot ations
Ġhy phens
IF T
Ġadjust ments
mot ifs
Ġsol r
ĠSup ports
abc def
Ġaccum ulator
Produce ExtractionWarning
ĠShort cut
BLANK LINE
ĠEXIST S
+ ='
E qu
E thernet
Ġt ips
ur a
Ġin herits
Ġin serting
Ġo sc
co ms
Ġse ct
Ġcon c
Ġco ok
Ġde mag
file Path
ĠC S
ĠN P
py py
Ġen caps
ren derers
ĠW raps
iven ess
ĠH ex
Ġ... ],
12 6
gen omic
Time d
11 5
Ġvari ogram
total s
ĠAl t
Base Error
rep lies
Ġorbit al
Comple tion
ĠPop bill
distrib uted
Ġmav link
æĶ ¶
SCA PE
Ġturb ulent
CEN TER
OfP rd
ĠPopbill Exception
1 33
B T
I llegalState
S olution
b nd
c ite
r ts
} &
Ġf requent
Ġw r
ĠT T
up loaded
iz ar
qu il
Ġ0 1
Ġfile server
ĠD ot
Ġpa ging
port ions
ĠO UT
ĠG M
work unit
cre th
25 4
istr ations
den ominator
Form ation
Ġ7 2
Ġclean ing
================ ========
Ġcomb ining
Ġpipe s
sto od
Ġmultip licity
ĠElement s
Ext ensions
Import Error
Test s
Ġaffect s
Hist ogram
RGB A
tan h
amazon aws
C ycle
J OIN
N IST
b ids
c raft
d nanexus
f olds
f olding
p q
t one
z fs
re tain
Ġp ic
is l
ol tz
th ickness
Ġl u
ĠA PP
Ġ{ [
ĠC ent
ĠP atch
Ġy o
Ġ` --
oc s
om aly
Ġbu gs
Pro cesses
Ġ(' ',
ĠFor ward
net cdf
Ġsum marize
Ġjob Graph
Ġvector ized
access ion
Ġpe ptides
By Id
66 6
(', ',
anis ation
estim ates
ĠMo dified
ĠSN R
Ġrgb a
Align ments
Ġmi ssion
Ġsci ence
associ ations
ĠTimeout Error
perform ance
Pop up
ĠAttemp ts
SECON D
Ġrepet itions
aro on
Division Error
? ,
c ors
c rl
u fo
ç ©º
è µ
in del
in ternet
Ġc rd
Ġ' !
ue l
Ġm z
ra ms
la w
Ġan sible
Ġh over
Ġstr ate
Ġr dtype
Ġv Center
ĠO ld
ĠW alk
ost a
Con venience
max len
ĠH yper
ac cel
RE AL
ef it
Ġdis cussion
SE Q
Ġcoord ination
Ġcopy right
bro ks
Ġlink age
=[ ])
App lies
Ġinsert ions
Ġ"/ ".
Table s
Ġmedi ator
Ġty pename
åı £
Ġexpect ations
Ġnorm s
hy pot
æĪ ĸ
}}, ),
Ġocc uren
artist s
Ġadapt ed
Retry Error
priv key
individual s
ĠCate gorical
('; ')
. **
C AR
g f
t ps
t plot
t uricreate
v name
Ġre map
Ġp key
la cp
ĠT E
ol r
---- --
Ġl an
Ġh er
Ġ% -
Ġar biter
ci de
sh tein
Ġpo ssibilities
config file
St im
SE P
Ġbreak ing
cor por
ank s
\\ \
Ġpost fix
Ġchain ing
Ġsur rounding
bot tleneck
sens itivity
FO LD
HTTP Request
Ġweb browser
tw isted
Ġpid file
iterable s
Ġæ ķ
"> %
cn f
ĠOutput s
fft n
MI SSING
chan ger
Ġplan es
Bad Request
Defin itions
meas ured
Ġpys at
Ġconcaten ation
ilo ver
SCO PE
ĠSk ipping
ĠCUR RENT
C DR
F M
I RE
M alformed
R ATE
Y EAR
b al
c itations
y um
ç ´
in ge
in stead
in fra
re striction
Ġre direction
Ġp ids
Ġs lider
Ġs cheduling
Ġd rift
'] '.
ta ges
Ġg one
ĠA sk
Re store
vi ol
ĠS un
res nums
out ube
ĠRe gex
Ġon error
ĠM achine
Ġtype code
ĠU ns
Ġsub script
ĠH MC
da cl
ĠPar sed
Ġresource Version
Ġsc ans
Ġsc enarios
play book
other wise
ob ile
Ġ'- '.
En crypted
ven shtein
termin ated
tail ment
")) .
.* ?
Ġfill s
IM UM
Ca ched
PA Y
74 9
æľ į
MI ME
game s
trip les
åĬ Ł
mant ic
ĠNeed s
ĠMon itor
Ġorth o
Help Formatter
________________ ________________
heat map
Ġhypot hesis
aplo type
D SP
L ONG
U ME
h dd
s ynchron
x o
ç ¤º
Ġ )))
ļ Į
ion al
Ġre create
Ġm usic
Ġan chore
Ġl ane
(" ^
ub ric
ĠD ID
ĠN a
pre dicates
ĠM AT
om ers
log it
ĠTh ose
ec dsa
Ġtext ual
ĠPro duces
Ġconnect s
Ġinvalid ate
('/ ')[
TH RESH
lev ance
high er
(', '):
Ġå °
Part s
Api Error
Pl us
multiple x
åħ ³
Ġrid ge
ffe rence
Ġ'; '
åı¯ ä»¥
ç»ĵ æŀľ
Ġug ly
QUO TE
æ® µ
) %
b isect
Ġf ly
Ġn exus
Ġ' }'
Ġb f
ol ded
Ġh sp
Re vision
qu ash
ĠC ircuit
ist ing
ĠRe fer
Ġx axis
ĠN AT
Ġun successful
Ġparam iko
Ġrun nable
Ġmatch obj
Ġpy bel
Ġformat ters
Ġtable Name
Ġcorre lations
PE C
De precated
uni prot
Ġcomple teness
org anism
Ġind x
ANG O
AP H
Ġsql Query
Ġsupp lement
tool tip
bed s
Ġve to
TA GS
Ġcir cles
Call ing
Ġintegr ity
Ġ? ,
("- ",
BO O
Ph ysical
Ġrestart ed
FIELD NAME
tran scripts
kv store
Ġpersist ence
equ ipamento
Authentication Error
Ġapproximate ly
Ġflu ent
Sa mpler
Ġshe ar
Ġdas hes
æ± Ĥ
OfPrd v
C USTOM
H ow
K D
L ar
O c
W orld
d z
s li
x si
à ¹
Ġt g
Ġa str
Ġto wer
um able
par c
Ġcon sumers
Ġcon ventions
Ġh al
te en
str ation
Ġra id
all er
Ġ` /
log pdf
Ġcont rollers
Ġid f
"] '
Ġsub modules
AT OM
face book
Ġsort s
bar code
Ġdisable s
API CallError
200 2
sig moid
imp orter
ĠOpen SSL
Num bers
Ġdriver s
decor ate
detect ed
æĸĩ æ¡£
ĠWith out
Gra dient
Ġdynam ics
wit ness
Ġautoc orrelation
spher ic
ĠSw agger
Spi ce
listRegex es
+ ".
E val
v ex
Ġt arg
Ġa veraging
de tections
Ġn tp
ra i
Ġcon cordance
set Graph
`` `
ĠS urface
iv ities
Ġpa int
Ġsub scribed
ab cd
yn olds
Ġno va
Ex tended
Ġread me
DE LI
Res ize
Ġpri mal
Ġqu oting
top level
DI TION
EL L
Ġbit string
Ġbit map
14 8
Parse Exception
Ġcor rupted
Ġpool ing
WS GI
PATH S
nn abla
Ġbro kers
ĠHe aders
ĠForm atted
ĠSub stit
equal ity
Ġden otes
BO OK
watch er
orph ic
Ġoutcome s
Ġthrott led
Obs Track
" $
D n
I ON
Q Widget
S i
S id
p list
s ized
u f
v gp
re vert
de composition
Ġin et
Ġ' "%
Ġd cm
Ġh gnc
to array
ĠS D
ĠC trl
ĠF ake
Ġy axis
ĠD ATE
ĠE L
Ġk ick
Ġuser info
num erical
RE SOLUTION
Pro bab
bit map
ush y
Ġjust ify
Ġsent ry
oto ServerError
Ġunder stood
Or d
Ġscan ning
Ġhy brid
Ġsimple x
Ġsigma s
ĠWindows Error
Ġarc name
thro ats
eg gs
Http Response
Ġneur on
oser s
Trace back
explo rer
ĠDefin ition
Ġæĺ ¯
Ġstrate gies
3 75
H IT
S Array
c j
s izer
å »
st aging
Ġf ps
ot or
id f
co ffset
ol ate
', )
', ))
---- ---
set timeout
ĠS S
red raw
ĠE Q
ic mp
ĠM icro
om l
In voke
Ġsub node
ĠAr g
arg types
Ġmsg pack
Ġauth n
AC C
Ġgo id
PO CH
Ġcustom ized
Ġ9 7
Sh ould
Ġinstall ing
Al tern
nb sp
Ġdetermin istic
Function Type
ĠBe arer
Ġpotential s
Ġpredict ive
fc n
Ġpublish ing
Ġrev oked
ĠEvent s
war der
ĠRow s
coup on
irection al
ĠCHE CK
ĠHEAL Pix
apig ateway
) //
1 16
C ti
R B
U i
U npack
` ]
s se
v ac
{ %
Ġf v
Ġp ron
Ġn iter
Ġs ystemd
): \
Ġm us
il x
am ond
el lipse
nt il
ci ble
ĠW OR
ost art
ĠB its
01 6
lib c
Ġcontinue d
action point
File Type
rit es
bro k
Ġvar Num
Ġcalcul ator
Ġgo ids
Ġob serv
Ġ'{ "
Ġbit coind
ĠCh ild
Ġregex es
cd n
Ġau dience
cod ons
ĠGroup s
cnt r
ĠPass ing
ĠEl lipsis
outcome s
ĠGeo JSON
Ġreplic as
Ġopp osed
('\\ ',
ĠFl atten
upd ater
~~~~~~~~ ~~~~~~~~
çº ¿
è·¯ å¾Ħ
ĠREAD ME
Ġeff ort
Optim izer
NY U
ĠSTAT US
J PEG
_ ",
t min
Ħ çĲĨ
at ol
ur andom
Ġn ans
lo ver
lo Error
li con
Ġto il
ed is
Ġ( _,
ke x
None Type
ol erance
par g
ma kedir
Ġex plained
key pair
od d
Ġra ke
Ġv name
text Cursor
ĠV ideo
bel l
ĠW F
Ġdo f
ag ency
Ġli es
sub script
Ġread ings
Ġup loads
lib nl
AN SI
Ġextra pol
comm ission
Ġfunc name
tr usted
mal low
Ġdifferent ial
Ġrece ivers
Ġbyte order
Text ure
install er
mid t
ĠForm ula
('_ '):
ja co
ĠPh ys
æĺ ĵ
OPTION AL
Ġack nowledge
rout ers
Ġsit uations
æĶ ¯
mess aging
" /
3 000
K S
R N
b attery
e ph
l attrib
m andatory
s ystems
t ransp
æ ¨¡
at hered
Ġp et
Ġif os
un parse
Ġan ten
ĠNone Type
pp able
Ġco oling
po pt
ĠF lags
ĠĠĠĠĠĠĠĠĠĠĠĠĠĠĠĠĠĠĠĠĠĠĠĠĠĠĠĠĠĠĠĠ ĠĠĠĠĠĠĠĠĠĠĠĠĠĠĠĠĠĠĠĠĠĠĠĠĠĠĠĠĠĠĠĠĠĠĠĠĠĠ
ĠRe ynolds
add Item
Ġ`` --
low est
Ġpath To
ĠR mag
ĠO B
ĠG T
Ġuser names
Ġcomp os
Ġcomp utations
Ġz s
ep hem
inter act
arg count
Ġ{' _
mi ko
db us
GE O
bit rary
ob serve
Ġcustom ization
optional ly
33 3
Ġretri eval
nn z
Ġhy phen
Block s
JSON Encoder
Ġmis sed
Ġsv d
ital ic
Ġwave let
stud ents
Ġacc ident
Ġbed file
Dep loyment
pas sthrough
ĠVAL UE
Ġincorrect ly
adi ct
perf ect
Ġtransp osed
ĠCRE ATE
ĠCOMM AND
ĠINS ERT
STRU CT
; ',
E Q
N ative
V ars
a q
d ask
e lev
} ],
Ġa db
ur ated
Ġin ches
Ġin cr
Ġd sn
Ġ# %
di e
as px
qu at
pro grams
ind b
Ġlen out
ip a
ĠR MS
In c
ĠH H
Ġpy matgen
table Name
dis cr
err back
ĠJ inja
Ġ(' -
Ġneed le
Ġdel attr
PO P
TH READ
Ġim gs
byte code
bus y
umbna ils
bet ter
Ġgame s
åº ı
Ġpay off
åľ °
ĠPAR AME
ĠME SSAGE
ĠFrequency Series
Ġrollo ut
doct est
ĠPOSI X
1 34
3 02
F TP
H ex
] =='
b untu
i id
s ns
v center
re map
st anza
Ġi am
ar ri
Ġf leet
Ġp il
Ġp tc
it u
Ġs ized
Ġs litlet
Ġb ail
el ts
'] /
con cepts
Ġg db
ĠI on
Ġde lays
ĠC G
ĠC enter
Ġv pn
ĠM utable
Ġla ck
ST AR
row n
inter rupt
Ġpy psa
Ġ[' %
Ġchar m
Ġcomm unities
Ġiss uing
imp ute
CP D
scheme s
Back ward
SN R
Comple x
Ġens uring
Ġrepeated ly
Indi vidual
issub dtype
QUE UE
CLAS SES
C Z
M iddleware
O AUTH
Q C
S w
o sp
z order
Ġc ash
Ġc sphase
Ġn ational
Ġ' >'
con versation
set ta
ĠS HO
Ġra fcon
ĠP s
Ġv d
fo bject
Ġy c
ĠE r
ĠE CEF
Ġen g
ĠM a
Ġ{} ):
ĠG ithub
ener ate
** (-
cur ie
Ġz i
Ġca ps
ash ion
var names
ĠJ PEG
pr s
LI GHT
gr r
Not Supported
ĠTo ol
NT AX
vers als
Ġmut ated
Ġsyn apses
phot os
exponent ial
ĠPos itive
MEN U
Google APICallError
DEP TH
setGraph Val
] `.
` ;
k ins
n oc
p lease
Ð ²
de letions
me ts
Ġo gr
Ġb k
ra iden
Ġan ime
is ions
el ch
(' ['
Ġl inter
ĠA udio
') ;
ĠS olar
ĠM icrosoft
Ġun bound
tra vis
ml st
rst ate
we ixin
Ġpass ive
Ġ-------- -----
Ġsu cc
df vfs
filter ing
Pro tein
Ġqu orum
exp num
ĠCreate d
bin ning
\\ \\
Config Error
ĠDi ameter
ie i
EL S
Ġ9 6
SO FT
ĠDE SCRIPTION
Dis abled
ĠObject ive
bus iness
Ġslug ify
CB I
SUB JECT
Ob tain
ĠVert ex
tg bot
Ġsho cks
* -
A st
C AT
P recision
Y ields
d am
v our
y ards
Ġt v
Ġin del
Ġs rs
un changed
ra id
Ġ( **
Ġst aging
', ),
ĠS U
ĠS i
ĠS amples
Ġpro ducer
ĠP UB
ĠD one
ĠD ET
ĠE ven
pa used
01 2
Ġ4 6
Ġed ition
mon otonic
Ġtop k
ĠPro vider
The ta
FA ST
Ġsa id
ero ot
Ġaccept ing
Ġjoin s
Image s
draw s
oo keeper
Command Error
mar ily
Color map
Qt macs
Match er
Ġstyles heet
anim ation
Ġreli able
èĤ ¡ç¥¨
æŁ¥ è¯¢
Ġsimultaneous ly
C ls
C ron
F lat
G RESS
I B
I llegal
L ab
N IC
O DS
T OT
V IS
b ing
x en
ĉ Ċ
in validate
Ġn bytes
Ġs keleton
Ġb m
un escape
Ġ# ####
co oling
ĠT odo
Ġde ck
set Checked
ĠC ast
sh oot
im ation
ile up
Ġhe art
ĠG MT
Ġstart Time
IN TEGER
ach ans
Ex amples
Ġpy wbem
new s
Data Base
doc graph
Ġform set
comm unities
CE L
Ġsa ver
Ġ'{ '
tmp file
Ġserial izers
cc d
Ġfix es
56 7
slice d
Ġho pe
bed tools
ĠBe ta
cla uses
decimal s
Ġrout ers
âĢ ĵ
Ġcar bon
sci ence
tid y
æĿ ĥ
ĠCOL UM
ĠHist ogram
ĠCOM MA
PEND ING
Ġposs ibility
again st
I m
W W
\ ',
\ ",
b ump
d sp
p ure
r conf
u lf
y z
re lay
st an
Ġi g
de clarations
Ġf ancy
Ġe f
Ġb attery
Ġb ubble
is c
con crete
list ed
sp ents
ĠI de
str al
Ġas sess
time d
ĠD ue
Ġpo isson
bo b
Ġtime periods
Ġhe ssian
ĠL im
ĠG CS
Ġreg ime
Ġtrans lator
no logy
Ġmo bile
part icipants
Ġag ree
Ġ'% '
gener ally
Ġab br
ĠUn der
Ġ8 6400
cf m
11 4
fs m
ĠMe asurement
desc s
Sh adow
edge color
({' _
Input Error
install ation
Dis covery
Exec utable
ĠPo ints
ĠCont rols
predi ctor
Ġcrypto graphy
altern ate
ĠClean up
through put
Orig inal
Ġwor ry
frozen set
ĠFOR MAT
Ġsaf ety
Ġtranspa rency
Estim ator
å§ ĭ
ĠDim ensions
3 15
B est
I OT
P ref
Q T
V R
W H
t end
ì Ĺ
Ġ ].
re versible
Ġt an
Ġf al
ro ma
Ġm obj
id d
ch isq
get attribute
Ġex ce
con vention
qu ist
Ġdata point
res ol
ĠRe places
error Message
Ġen queue
ary centric
ĠM Q
Ġla z
ĠL ines
Ġk args
tra cing
Ġuse cols
ĠEx act
Ġinter ior
arg name
Co lour
AN CH
err s
File Info
vis io
DO UBLE
... ".
Ġsum mar
go id
Ġvar Binds
Fa ce
book mark
Ġregister ing
Ġstack s
Instance Name
PC A
ĠString s
ĠXML Error
conv ex
Ġsy mp
77 7
bank s
trie ving
tunnel s
Ġfinis hes
endi x
C ir
F ollow
G OR
b cbio
i at
p ressed
r ance
y x
at an
Ġc lf
ra ke
ul um
Ġh unk
Ġco o
to uched
Ġname server
Ġar p
ase q
app name
ff mpeg
add on
). ")
Ġnew path
ca ught
sub module
place ments
av oid
ĠQ uestion
ĠY es
TI TLE
temp s
gen ic
Ġtimeout s
mon omial
:] ),
Ġlib cloud
"]) .
train er
CK ET
Valid ates
rece ivers
ĠId entify
Ġæ Ī
ĠNe gative
è¯ ¥
Ġmis matches
ĠST D
Ġvariance s
balance d
Ġsink s
,,,, ,,,,
ĠZero DivisionError
===== +
Ġprovision ing
Mult ip
é¡ µ
äº¤ æĺĵ
ĠAtt r
ABI LI
" [
( {},
0 20
1 64
1 999
9 00
A z
S ql
S aves
U DA
h oc
v box
x n
de tailed
Ġp data
Ġw b
Ġ( ):
ch root
is m
int el
ith metic
ĠA riane
to oth
to csr
Ġ{ \
ĠS core
(" (
ĠĠĠĠĠĠĠĠĠĠĠĠĠĠĠĠĠĠĠĠĠĠĠĠĠĠĠĠĠĠĠĠ ĠĠĠĠĠĠĠĠĠĠĠĠĠĠĠĠĠĠĠĠĠĠĠĠĠĠĠĠĠĠĠĠĠĠĠĠĠĠĠ
ĠD FA
sh lex
col names
Ġun subscribe
ĠR ULE
Ġint rinsic
"] ='%
ĠB PM
ste am
ĠIn ject
Ex act
wa ke
Ġ... "
dis position
Ġ'% .
send ing
seq res
access or
Ġleft most
Ġassign ing
Model Index
Ġbit mask
MO VE
Ġcomb in
byte order
Ġgre edy
Lay ers
)+ '
('_ ')[
hand shake
Ġcar rier
MON TH
C ircuit
F ire
H o
L ater
S pa
S pecs
T COD
V m
W hether
k pc
s urname
z abbix
in direct
Ġt sv
me g
Ġd yn
Ġ( #
pt c
Ġbe zier
ĠS ID
ĠS TE
ĠF urther
ĠP OP
pro vide
ĠN ONE
ĠM olecule
Ġla gs
valid ity
size of
ĠW GS
Ġapp name
Pro jection
trans mit
Ġshape ly
Ġab und
pol ling
Ġunit ary
SP F
Ġcor rupt
Ġho les
âĶ Ĥ
ĠMessage s
cn v
Ġboto core
Struct ured
Ġinstanti ation
stand ardi
ĠCom bin
ĠPart ial
BR ACKET
Ġfu lfill
associ ate
Ġmolecule s
Weight s
ĠGPU s
webs ite
hib it
Ġcraw ler
ĠMX Net
1 32
Q P
a mpler
n bins
q emu
s atellites
t arg
t elnet
re raise
st on
le a
Ġc rl
Ġp lenary
Ġb other
co ut
pt p
ri ers
di cular
Ġ" ?"
th readed
'] [:,
ve led
ĠI llegal
Ġde dicated
ĠC ir
Ġ== =
ĠE mbed
Ġtype def
log gers
op ens
ĠG ame
ste st
Ġle ak
pen se
Ġca mp
si gs
10 9
ud nn
Ġad versarial
replace ments
Ġexp orter
Ġob fus
20 48
git lab
TER MIN
Ġnd min
Ġneg ated
ĠEn coding
Ġbro ad
flatten ed
Work ing
ĠTensor Board
('# ')
ĠÐ ¿
Ġprob es
Att rs
associ ated
ĠMO C
Ġvcf utils
Cho ose
hd rs
Press Event
Private Key
Ġcyl inder
erc ise
Ġnucleot ides
Ġachie ved
datal ab
æĮĩ å®ļ
" }}
' `,
G Y
K ill
R TS
S tage
h v
ç Ĥ
en ode
Ġre mot
Ġp seud
Ġs dp
Ġb rowse
am t
ext rap
ĠC AS
ĠE arth
Ġx ls
ĠM ut
Ġro l
ĠV e
Ġ{} ),
ĠG SS
Ġne utral
not hing
tt m
Ġpy emma
LE T
ĠCon sumer
ĠY Y
Ġq c
change set
EN SE
ring s
Me asurement
]] ])
Ġ"" ),
ĠK B
irs peed
ĠDi rection
Ġcons ul
ĠSh Ex
=% (
100 000
cr d
ĠLog ging
ĠTe am
VI SI
Ġforward s
accept s
Task s
Ġconsider ing
Ġplay ing
("' ",
COMM IT
Ġelect ron
ä¸Ń æĸĩ
ĠCorre sponds
Ob server
Poly Data
ĠCur ve
Ġgrow th
Ġrepet ition
DEFIN ED
/ *.
E EXIST
I ES
I LABLE
L ear
y aw
Â ·
Ġt es
Ġre fobj
Ġthe ore
Ġe scal
is inf
get ting
sp lice
Ġstr at
Ġdata points
ĠS ql
ĠC ut
ow ski
red shift
Ġy e
Ġkey chain
Ġout path
Ġun ary
ĠR UN
ĠO ID
string ify
Ġne utron
ĠH er
own ers
IN S
ST ER
move Position
pen dicular
Ġdis persion
sum marize
Ġtrans ferred
AN TS
10 7
Ġq q
LO OP
LI BRARY
Class ification
site map
.* )
Ġ$ (
language TypeId
pkg name
Ġtar info
semb ler
Back up
conver gence
rv r
INTER NAL
å® ¹
Ġjump kind
Ġnor med
ĠCalled ProcessError
éĩ ĳ
ĠCorre ct
chedul ers
Diag ram
Ġequival ence
crimin ator
* ((
+ "\
C ANCEL
T ier
d block
in list
Ġa Process
Ġf rm
Ġp ca
Ġ' ']
pe ptides
is olated
um ulative
Ġ" >
'] [:
') (
Re gression
ĠI mplement
Ġde posit
ĠC ard
ĠF ed
ĠE P
Ġro c
port folio
class method
ĠW A
Ġdo ck
Ġuse arch
for cing
shape file
Ġform ated
rt m
current Index
Ġ'_ ',
'} :
Ġtri mesh
('- ')[
Inter active
ĠEn cryption
uff led
aut om
Ġdry run
appro ve
Global File
Ġefficient ly
Ġgr ph
NORM ALIZE
Ġsyllable s
ITE M
Ġski prows
/ ~
I RA
N M
P DB
k c
s ar
z f
} ({
Ġt name
Ġre sets
Ġp lo
Ġs parsity
th reat
Ġl gc
Ġde cryption
age Maker
ĠS olve
Ġra m
ĠP lay
Ġfile Path
Ġv R
format TypeId
add Cons
ĠN T
ph oe
ĠL IST
Ġk p
"] }
ag onal
max es
ĠH orizontal
user data
sub mitted
sub scribers
Ġversion ed
rid den
cy g
10 8
link ing
tx index
ĠCo pies
prefix ed
script TypeId
cli que
Ġph rases
Ġlink ing
gr ind
cc ion
TO OL
Ġpkg name
Ġinv oking
Ca pture
aut ore
hy brid
nu cleot
Ġquote char
Ġgenes is
Ġcod ename
ĠIte ms
ifo s
Cal endar
Ada pt
Estim ate
bul b
ĠExpect s
Ġstrong ly
ĠRab bitMQ
phoe be
G reen
G MT
K it
O US
P LE
n in
s ftp
v ts
al erts
Ġre lies
Ġin clusion
Ġo d
pe ople
Ġ""" !
() *
() )),
il it
Ġcon da
as us
to mo
to DoubleVector
Ġdata find
ĠS PI
Ġal erts
ĠF ace
Ġlist ify
pro portion
pro vides
Ġy t
ĠD H
ĠD ouble
url safe
Ġk de
Ġat mo
Ġsub scribers
Con tain
ac m
sub string
Ġread out
Ġsp ider
Pro mpt
Ġiter ative
color ize
De precationWarning
12 4
cat ter
fl t
=[ [
Ġpop ped
just e
13 5
For bidden
SET S
Ġrepe ating
Ġbad ge
"> </
åĪ ¶
Red shift
==' ':
ĠSerial izes
Ġì ķ
ĠNx N
SCHE ME
ĠTemp orary
sector s
Ġot u
Ġphot os
Ġgeome tric
Tr unc
erk zeug
pax es
ĠArch ive
Ġfreed om
Ġæķ °
å» º
$ "
* _
H orizontal
[ ,
h dx
k nn
p len
t utorial
x E
z pool
Ñ Į
ī ¤
in ite
re act
re servation
Ġt ight
Ġp ch
Ġn ex
Ġs ip
Ġ""" *
Ġan iso
Ġst ash
ol lar
'] +
data path
Ġres istance
ĠD en
ĠE MP
=' +',
ded Interval
ĠL ar
ĠO f
ca ch
Ġk ubernetes
os i
Ġsub dirs
node id
ac ct
Ġac cel
01 5
Ġgroup er
si bility
:// '):
Pro vided
mt f
Ġpart icip
ĠJ upyter
Ġback slash
12 2
like s
Ġab c
Ġab corr
Ġcom petition
ĠLo ader
dot s
15 9
Ġcho osing
14 0
IP S
ED GE
Pre vious
]+ ',
hy p
accept able
94 96
Ġ'# ':
Ġlig and
ĠCloud Watch
Ġaff inity
Ġatt s
ctet s
Ġgzip ped
Ġcn f
è¯· æ±Ĥ
æł¼ å¼ı
Ġstre et
Ġsil ence
kno b
ĠFUN CTION
: #
C ost
C AS
Q uestion
V s
^ (
b ai
e cef
k ron
k afka
s anity
x F
é ķ
é ĺ
re strictions
Ġp ed
Ġn odata
Ġs andbox
Ġd ownsample
am ino
ma gs
Ġfi red
ĠC lick
ĠP L
]) -
sh op
Ġout lier
Ġset t
__ "
ĠM any
Ġ{} ;
ĠR b
Ġk nn
ĠW rong
arch ived
Ġz arr
Ġend time
Ġfa pi
Ġ4 9
File Dialog
qual s
Ġcomple ter
16 9
Ġpost ed
FF T
ET A
Ġdebug plot
IP V
Start ed
writ ers
Ġcsv file
web driver
contin uation
Ġactor s
ĠSp in
Ġvisual ize
pert urb
åĬ ¨
FORM ATION
ĠCur sor
Ġstick y
èĢ ĥ
èĢ ħ
;; ;;
Lim its
C lip
W ARD
b ic
u ers
á »
Ļ ¨
in gest
Ġt ies
en es
Ġa part
Ġc ras
Ġre do
Ġre raise
Ġo v
Ġb all
Ġb cc
Ġb rand
Ġis olated
ch g
Ġth reat
Ġh older
Ġco he
to pt
ĠC rypto
Ġ== >
Ġv asp
ĠĠĠĠĠĠĠĠĠĠĠĠĠĠĠĠĠĠĠĠĠĠĠĠĠĠĠĠĠĠĠĠ ĠĠĠĠĠĠĠĠĠĠĠĠĠĠĠĠĠĠĠĠĠĠĠĠĠĠĠĠĠĠĠĠĠĠĠĠĠĠĠĠ
Ġx xx
=' -
ĠM ATCH
ĠR ST
ĠR APID
Con straints
gra ce
Ġindex ers
Ġper haps
ef ermi
ĠX s
Ġwork book
pri m
Ġindi cation
child s
char ges
Ġph antom
bit depth
pk cs
Ġskip s
Or bit
URL Error
Exec uting
drop ped
ĠHe alth
Ġgu ild
44 3
fire store
Dep loy
ĠAnd roid
Comple ted
../ ../
æŃ £
Ġgrace fully
Ġelectro des
ĠSM TP
ĠProbab ility
ĠAUT H
ä»£ çłģ
Ġæĸ ĩ
ĠSUP PORTED
B H
E m
I RES
I mplementation
L on
M ol
N ii
P B
S ender
V OL
` '.
c ertifi
k pars
n ine
t pm
ª Į
Ġ vice
Ľ Ĳ
Ġi y
Ġre current
Ġin jections
Ġd ll
Ġw rappers
is function
um ask
as ion
con sumers
ta ches
ĠA gg
ig i
sp ort
ext n
ĠC artesian
Ġv box
Ġv ulner
Ġch rome
ĠN C
ĠL icense
Ġrequest er
ren cies
ĠW ire
ĠTh reshold
ST D
Ġper iodi
Co verage
Res idue
]] ]):
ĠData BaseError
Ġmod ulo
Ġrest ype
Ġ12 34
Ġexit code
Ġ200 8
Ġrepe ats
Ġcast ing
Ġdesign ated
SN P
äº Ĩ
Ġfront ier
Ġec centricity
Ġmeth codes
alo ader
Ġpolynomial s
Pop ulate
Ġnice ly
persist ence
Ġprot otype
ĠWeld Object
Ġom im
Ġpredecess or
) [:-
3 01
= ?
A W
B i
I ss
Q ubit
h orizon
n am
n as
w ins
x scale
y et
Ġn ml
Ġn dims
Ġs age
Ġb d
Ġb tc
Ġb cbio
pe ting
ra ble
Ġto y
ri l
() /
Ġl ut
ble matic
ort ical
ĠC RS
ist ries
Ġv y
ĠRe served
min max
Con cat
mit ian
RE PLACE
ep ub
for ces
Ġdis c
Ġpy ramid
Ġgroup name
off er
ho les
onent ial
hash er
pol ler
mark ed
Not Implemented
den y
Ġmain ly
sq la
IO D
18 5
Ġpartition ed
Ġdrop na
Option Error
Widget Item
Ġdetermin ation
Ġve cs
ĠBe gin
ĠURI s
optim ized
linear ity
CM C
Pri ority
Ġsyn set
average s
circ ular
syn onyms
ĠSome thing
mq tt
styles heet
ĠCond itional
Dim ensions
Ġ'| '.
Ġvers us
ìĦ ľ
åĵ ģ
SetInput Data
ĠEMP TY
) (*
. <
I SE
N u
N ested
d theta
f rm
l h
p mid
s il
Ġ 9999
Ġt runcation
Ġa o
Ġa sp
Ġre used
Ġd rain
li go
Ġw k
ot s
Ġis dir
get Name
Ġl z
Ġ+ -------+
ĠS afe
Ġpro tection
ĠD ummy
text wrap
Ġen forced
rib uted
ĠL X
ĠO pts
ĠG R
ĠG auss
fa i
Ġspeci e
Ġcomp reh
node list
Ġte e
lin ter
Ġfield Name
nd o
ls b
ĠIn ference
RE P
si ded
Pro c
Ġsum m
ĠDe tails
mon o
mod ynamic
Ġlat ency
En velope
gre SQL
ater ange
IO Loop
(- (
Ġpick s
Command s
CP P
SV C
ĠPri mary
Authentic ate
é¢ ĺ
Br ush
Ġconcent ration
) {
> &
> }
G RR
R d
V ectors
Z oom
] ()
k x
m ber
n iter
r one
å Ļ¨
Ġi python
Ġre voke
Ġp lat
Ġn ib
ed ited
key chain
Ġg auge
Ġde crement
`` -
Ġr fc
ĠS AML
ack nowledged
Ġcol names
ĠR ank
Con cept
not null
ĠH ave
ĠH MM
lot ter
Ġso cial
bs d
sk ipping
Ġsp lice
clo uds
)] ]
File Object
Un handled
Di ms
conf d
Ġsave fig
Ġge odetic
Ġsite map
33 39
Ġpix map
pool ing
17 2
200 7
(? :\
(', '.
shell s
USER S
ĠClient s
super cell
mis matches
OB J
URI TY
SY S
USE D
Ġide mpot
Ġspi kes
elect ron
ĠRece ive
åı¯ éĢī
suc ceeded
Ġflex ible
Ġviol ations
contra st
FOLD ER
! /
/ [
/ ``
C ASE
F ULL
H MAC
H GNC
I Q
T B
b right
b kg
g mtime
i mplement
re cursively
Ġin ode
Ġd ra
Ġb son
Ġm pi
is play
Ġ" *.
ĠS pan
ĠP B
Ġv r
red it
ms dn
Ġconfig urable
Ġcomp ri
node Name
ac cn
map reduce
ST EP
cs u
sk learn
pri se
SI VE
ĠUn less
thing s
Ġsi mpler
chain ed
Ġloop ing
ĠAttribute Value
EX PI
Ġhigh ly
Ġtx id
Ġbl ur
Ġinv ite
Ġve h
Open s
Page s
Can vas
Ġev olution
'`` :
Ġsol ving
Ġdesign ation
("" .
ĠCPU s
AX IS
Fore ignKey
DAT TR
Exists Error
Ġspawn ed
Ġspread sheet
pagin ator
Mac ro
Ġcollision s
Ġrough ness
satis fied
wor st
å¿ ħ
spir al
fortran array
Plain Text
, ...,
? :
C at
C ap
D f
F allback
P adding
s keleton
x tick
æ ²
Ġn ts
Ġs ched
def n
up loads
as fortranarray
Ġg i
to dict
ment ions
qu ants
path spec
ĠS MS
ĠP P
ĠRe member
ĠE dit
spon ding
op name
ĠG EN
tt Font
json rpc
Ġ4 3
Ġdate fmt
var type
do e
root dir
TI C
top k
ĠKey words
mod ulename
peri ence
Ġbin aries
11 9
Ġreplace ParamFile
ĠRes pon
Ġdon or
Ġpol ler
TR ACE
insert ions
dat atypes
200 6
Int ensity
BO UND
+' _
walk ers
Be havior
ĠMethod s
Dec re
("{} :
Rel ative
Transform er
Ġupd ater
mix ing
Ġemit ter
polar ity
ARG UMENT
Ret ention
Ro les
Prf Tc
. /(
C r
I AL
N othing
P J
P od
d owntime
e u
h ier
i object
n pts
p cs
s bin
s bjct
| %
é ľĢè¦ģ
re order
Ġf amilies
Ġre wards
Ġs ongs
ame d
Ġb v
Ġw orth
la hn
get Object
ĠT EST
Ġg g
Ġde letions
te ardown
vi er
ĠP ix
Ġv n
pa uli
Ġen sembl
attr getter
num obj
Ġuse less
Ġser vo
RE DIS
Ġtrans mission
Ġass istant
ome ter
vid end
To Graph
######## #
UL D
fra ctions
04 0
Ġevalu ator
ĠDE SC
Ġsur vi
Query Session
Ġconver ge
ä» ĵ
END C
feed s
complex ity
digit al
appro ved
ĠCa pture
("_ ",
ĠAct ual
Ġln k
Ġpys am
Ġdestroy ed
Ġ---------------------------------------- --------------------------------
ĠStat istics
Ġoctet s
PyCdlibInvalid Input
setCurrent Index
ACCE PT
) `,
C s
G re
P retty
Q TextCursor
R ound
f inger
h um
n th
u uids
ì ĽĲ
re main
Ġt ied
me the
Ġre dd
Ġn ii
an alog
lo p
pe st
Ġm ang
is ot
get boolean
ma f
ĠS pyder
ĠC ALL
ub ridge
ĠF allback
und red
__ ('
ĠM R
ĠM c
Ġcol lation
num erator
ag ination
Ġcomp artment
Ġle v
Ġ.. /
IN K
Ġpoint ed
cy c
open ing
task router
rs r
DI M
Ġmark ing
ĠLo ss
Ġchain ed
PAR SER
cr umbs
driver s
VI RON
ä» İ
flux db
Ġpack ing
ante cedent
amb iente
Ġfact s
under line
Ðµ Ð½
clock wise
ĠCount ry
VBox Error
" <
- )
M ay
P d
R amp
g tk
Ġ Â
in herited
re veal
Ġt as
en gines
de coding
Ġ* [
set uptools
ĠS NS
ĠC li
ĠC hem
Ġar m
pro tect
code cs
'' ')
Ġun mapped
ns amples
ml s
md b
ĠPar allel
ax vline
Ġdis charge
Ġover writes
Ġoff spring
Set Value
To Python
print ed
cor ners
Ġab undance
Ġvi olation
16 7
Th an
ĠLo gs
Ġloop back
Ġmod al
ĠSer vices
ĠSer vers
SP LIT
Ġcomment ed
Group Id
gp m
bot s
Ġorigin ate
Ġbuf size
neg ot
Ġren aming
Ġdiag nostic
calls ign
Ġchecksum s
Ġpan els
equ ipment
Jo hn
METH ODS
Bot tom
ĠSpark Context
éĻ ¤
Manage d
Ġachie ve
Ġrequ iring
WBEM Connection
ĠDAT ABASE
isEnabled For
ļĮ ìĽĲ
ĠBPM N
9496 72
/ __
D rag
G d
J K
N U
O pts
X IS
] >
½ æķ°
Ġ atexit
re trieved
de cls
Ġn pix
Ġin bound
Ġs os
Ġd ts
Ġm argins
ul se
Ġst ability
ver ter
ult im
Ġ+ -
ime s
te legram
ĠN tp
ĠL IG
Ġcont rolling
load ers
ich io
err it
Ġmult ivariate
12 1
gen itor
go ids
En coded
Ġfl ds
ĠTo o
Ġskip na
Item Data
img ur
Ġap is
ĠForm ats
)+ ')
Part ial
clar ative
rank ing
Work Item
Ġ19 70
Ġindependent ly
Ġcapt cha
Scan ner
Cl one
remo val
Ġ+-----+ -----+
creth ash
/ ")
: {}
K ER
M pls
` "
b qm
d owns
l x
l ds
re defined
Ġt iled
en cing
Ġn z
Ġe lec
pe ech
Ġ""" )
co digo
il tered
ĠE thernet
ust rial
ĠV S
ren ch
Ġbo keh
sub reddit
01 01
msg pack
pl ant
De vices
Ġph on
bro ken
ym er
ced ures
Ġyour self
lig olw
14 4
SP IN
Le arning
PS D
ĠQt macs
rr up
pick s
Min or
car to
DATE TIME
Ġalle l
executable s
READ Y
Ġfall ing
Vis ibility
ĠNum eric
hazard lib
hyper parameters
Ġaccum ulated
ji ra
ĠEngine ering
ĠFAST Q
Rep lication
suggest ions
ĠBU ILD
ĠPhone Number
Ġgues sed
( ']
A FF
A DED
D ense
M RI
P ad
b ika
h alt
i ou
n sp
at ime
Ġi LO
de compose
Ġf light
Ġc w
Ġn lines
Ġm ist
un mapped
Ġst a
is upper
di visions
ma sses
Ġex pl
Ġfi f
file handle
ĠS at
ĠD uration
ff tw
Ġpo ps
Ġpre processor
Ġint ention
Ġk g
rans form
mit ogen
ST ANDARD
ay stack
Ġ5 7
iss a
De tection
Ġorig ins
script ive
20 5
Ġmeta bol
02 00
Ġflag ged
Ġmon itors
User Error
Ġ"/ %
NS OR
Ġspe aker
Ġcla zz
ĠCont roller
bad ge
Api Exception
ĠBack end
Ġspi ce
Ġmix ture
Ġaccum ulate
(.* )
Ġtopo logical
Ġti po
Ġlogarith m
oq param
Ġconsoli dated
* "
/ '):
B ED
S izes
c ertificates
e ager
s fr
® Ĺ
Ñ ĩ
on nx
at on
he ss
Ġd min
Ġof ficial
() ')
Ġh umidity
type def
type vars
ime Type
set Name
te mpl
po po
pre computed
sc oring
lock file
ĠW ind
Ġadd rs
Ġper pendicular
lat lon
PI L
exist ence
ob servable
mult icast
Ġmeta class
String s
55 55
csv file
}{ /
Ġ"{ :
display ed
Ġcor al
13 6
ĠValid ator
imp ro
ĠOpen PN
VI RT
85 7
IF Y
nl tk
76 8
qq qq
Speci al
=', ',
Ġhyper visor
è® ¢
Ġsuggest ion
3333 3333
Ġnvml DeviceGet
craw l
è½ ¬
organ izations
DOT ALL
01234 56789
éķ ¿
- {}'.
3 86
B alance
B ulk
E QUAL
H K
N umpy
U X
W hat
Y ES
o bo
t iled
u ator
en na
Ġi py
de es
de ath
Ġn it
ct ree
an ame
un subscribe
ch ant
ch imera
ke gg
get parent
() "
Ġ" ):
ult ar
od on
Ġlo an
Ġdi vergence
ĠS PAR
ĠS ageMaker
Ġpar m
ĠP DU
out bound
ĠRe moving
Ġch a
Ġout s
=' +
ĠM aps
ĠV PN
Ġ** {'
ĠĠĠĠĠĠ Ċ
ĠG ather
index ers
ne ver
base url
ec g
AT K
Ġz eta
ST RI
ĠX X
host group
Par allel
cent roids
Un der
gen otypes
oper ating
Ġob spy
posit ives
UP LOAD
Dis crete
Ġtermin ator
Ġpick ed
layout s
Ġpipe tte
)+ "
sto chastic
ĠMA G
("/ "):
Ġsyn tact
AF TER
Ġbus y
ĠOR M
Initial izer
å¤ ©
è¡ Ĺ
quant iles
ye sterday
ĠUN KNOWN
Ġadapt ive
EE E
Analy zer
ĠAlign ment
ĠInvoke s
ĠNamed TemporaryFile
IDENTI FIER
Ġmit ogen
Ġrefres hed
geome tries
ĠOpenPN M
A vg
V D
b urst
i oc
j upyter
en umber
le ad
Ġf size
Ġn row
ce ph
Ġd name
get children
Ġ+ --------------------------------
Ġu c
Ġdata path
Ġdata block
Ġdata stream
ĠS mooth
ĠC M
ĠP OS
ĠN ED
pre cedence
ĠV IS
class ical
tra ding
Ġsub titles
sub sets
St rip
Ġcal lee
gn o
sum m
Ġtrans itive
']) [
DE PRECATED
Ġsp ins
db i
dis connected
sign up
Ġ5 4
Ġarg name
ĠPy Qt
Ġdb g
cf tools
speci fier
Ġmask ing
PO WER
termin als
rest ApiId
align ak
Inter faces
win reg
Ġ"_ ")
multi color
expand vars
Ġ"{} /
Ġap du
platform s
Ġmid night
Ġlinear ly
PER MIS
Ġdocker file
ĠWeb Socket
ĠSort ed
ĠINT ER
Global s
Ġclock wise
Ġpow ers
CONNE CTION
FAIL URE
Ġgray scale
Ġtre ats
Ġcraw l
spher ical
COLUM N
WINDO W
swa paxes
lipt ic
Ġeight Bit
= ')
@ {
E ach
G tk
H Y
M icro
V lan
V ersions
^ *
c ado
c spf
g pio
n odata
ĠĠĠĠĠĠĠ Ċ
re voke
st retch
Ġf list
Ġf ashion
Ġre aches
Ġe b
ul ong
ri ched
get frame
di graph
th ink
Ġde ath
Ġy um
], '
ĠN N
Ġ` -
mo ms
Ġhe misphere
Ġun resolved
ĠR adius
ĠG RR
[" __
'. """
ne q
Ġsub st
ĠIn strument
Ġinput ted
debug ger
inter sections
si ms
doc name
Pro gramming
ud y
ĠQ Application
Ġ(' \
now ns
dev s
Log Entry
Ġvis cosity
EX TRA
ĠIO Loop
ĠPo isson
Ġcore ml
ĠNe eded
switch port
ĠUnicode Error
ĠRed uce
('[ %
Ver bose
yy y
ĠRecord s
Ġhorizontal alignment
Ġbroadcast ing
Ġknot s
Ġweak ref
("/") [-
pagin ate
ĠKer as
Osid Session
ä¸Ńæĸĩ æĸĩæ¡£
methe us
( ([
+ -
. ]],
A sia
D uplic
P reference
T AB
Z Z
f ord
s ymb
v k
é Ł
ê °
or r
Ġs dist
Ġe id
Ġif ile
Ġw arp
ch ase
get Local
es xi
ĠT ensors
ex tern
up link
th r
as hed
ĠI p
Ġr max
ĠS peed
(" :",
ci b
pro jections
art z
Ġout dated
__ ":
Ġnum bered
:` (
Ġsub str
Ġle s
Ġle ar
=" {}
ml t
ang ulation
RE LEASE
Ġup grades
AN NOT
Ġiter values
Ġuni prot
stamp s
open ssl
record er
exec uted
the mes
Ġview port
Ġind ptr
Ġrule set
20 2
Result Found
Pre sent
17 7
gg led
Ġincre ases
Mo unt
Sign ing
ATOR S
Rece iver
Track ing
Ġmail box
REG ISTER
ambig uate
åĮ ĸ
GEN ER
ĠConst ants
1111 1111
chem ical
å¸ Ĥ
hyd ro
ĠBlue print
ĠAppro xim
Ġephemer al
COOK IE
D ig
M ib
T rap
Z ones
e asy
k points
n ically
z appa
ç ½®
ë ¦
ì ķ
re w
Ġt cod
Ġc one
Ġn at
Ġn ro
Ġin de
Ġin version
Ġthe ory
Ġs omatic
Ġm illi
Ġg rr
int ra
sp rite
Ġr ubric
Ġ% =
Ġv args
ic c
ff f
Ġx o
). '
ph rases
Ġun handled
ĠG FF
Ġbo unded
Ġj unction
Con firm
Ġcall sign
Ġz max
Ġtra ditional
DE M
iss ubclass
ass ist
sa f
CT RL
Ġge ot
SC AL
ĠSh ut
Ġinstall er
Ġ200 9
22 22
27 0
separ ators
Ġanaly se
ĠImage s
bi ased
unic ast
Ġspect rogram
Ġden y
ĠAss uming
tar ball
workflow s
Ġrecur rence
ĠCloud Formation
sky dir
ALI ZED
Ġtun e
SOURCE S
Ġdeli ver
mf cc
ĠâĢ ĵ
ĠDraw s
MEN TED
Some thing
Ġmanip ulate
, ]
B ug
E r
H DF
J UMP
N V
X R
X PATH
_ ")
d ts
g ns
s lider
u func
w arc
Ġc ands
Ġn avigation
Ġo vs
ro b
Ġd il
Ġd ens
pt y
is a
is method
Ġcon strain
ta per
qu a
Ġdi ss
ĠS ampling
Ġ== =====
ist or
per p
Ġx t
ĠR ay
ĠO p
ĠG RO
ne igh
if old
". '
Ġ-------- ------------
Ġtra it
10 3
Ġiter ators
Ġfe asible
Ġdest inations
send Command
ear son
Ch nk
entry point
Not ify
CH ED
extend s
src dir
mal ink
sq r
Ġxml sec
Ġevalu ations
ĠCh rome
Ġway point
.... ..
Ġdat adir
ĠImport s
sur rogate
Ac curacy
bi ases
BO OT
gl u
Ġlst m
ev pn
sequ ential
Pe ak
ĠPmag SiteRec
Ġconj ugate
Ġpagin ate
BL ACK
Validation Exception
Ġcance led
Ġinform ations
Predi cate
Contin ue
Sta mp
servo ir
yak u
Ġ############# ###
Ġæķ° æį®
G F
G W
G RA
M AR
N EXT
S cheme
d il
e type
g lo
r usted
v rrp
| :
in ame
Ġin secure
Ġin ternational
Ġm ongodb
Ġ""" :
par dir
Ġth readed
Ġg tf
Ġde w
ĠC K
res is
Ġpro gramming
ĠP od
Ġv k
ĠD N
Ġout bound
iv a
pa id
sc ans
ĠM ath
ĠO ur
vert ised
Ġnumber Of
{} {}
ref er
ap id
:// "
trans lator
Get Point
Ġsc p
Ġsome how
Ġnormal ised
ĠK DE
ĠK MS
Ch ars
pub sub
ob servers
PO LL
NAME SPACES
QU ENCE
13 8
Query Set
HTTP S
track ed
ä» »
ĠSub mission
ĠURI Ref
Port s
Ġpoly line
SN MP
ĠCIM Error
Ġcompound s
Ġcs rf
Indi cation
ORI Z
molecule s
Ġprovision ed
don or
ĠSK IP
PyCdlibInvalid ISO
aters hed
ĠPARAM S
ĠTher mal
ĠFIL TER
çĤ ¹
/ >`_
C nt
E q
W here
W alk
_ ('
c bar
f min
n ro
n cbi
Â ²
å ķĨ
at ile
Ġf etches
Ġc ubic
Ġin accessible
Ġs rid
Ġ' ]'
Ġb ench
ate st
Ġw izard
Ġm w
() ].
ĠT ile
)) ;
Ġl vm
Ġh mm
Ġr q
Ġpro ducing
Ġv g
time it
iv o
pre cate
py r
py twis
om im
Ġun wanted
Ġ>> =
ĠW IN
Ġret inotopy
max val
Ġmax imize
cur rence
state id
Ġca ution
01 1
)] ['
su cc
Ġref und
graph viz
ĠDe al
Ġcoordin ator
Ġip addr
'} ]
encoding s
Ġ100 000
cos ine
}} ",
Ġstri ps
lip ses
Ġnb r
ĠCO UNT
åĲ Į
Com bin
Ġke lvin
Ġgenome s
ĠRO I
checksum s
exact ly
Mag nitude
Ðµ ÑĤ
gd al
BACK END
ĠDep loyment
éĩ į
Ġattack s
osa ic
ĠVert ical
ĠEvery thing
ĠTr unc
electro de
è°ĥ çĶ¨
å½ĵ åīį
A vailability
D TYPE
d op
f riend
h sv
n dimage
q ty
en kins
Ġa ges
Ġf abric
Ġc itations
Ġp ants
Ġn samples
Ġ' =',
Ġd rops
ss m
ke box
get pass
ex perts
Ġg auss
Re quires
ĠS B
ĠE p
Ġun modified
ĠR outing
num bered
ty pically
Ġnumber ing
Ġopen id
Ġmo f
64 4
rs b
Ġcli m
Ġtmp file
ĠRes Rec
book marks
SH ORT
payload s
[...]
