{"<s>":0,"<pad>":1,"</s>":2,"<unk>":3,"<mask>":4,"!":5,"\"":6,"#":7,"$":8,"%":9,"&":10,"'":11,"(":12,")":13,"*":14,"+":15,",":16,"-":17,".":18,"/":19,"0":20,"1":21,"2":22,"3":23,"4":24,"5":25,"6":26,"7":27,"8":28,"9":29,":":30,";":31,"<":32,"=":33,">":34,"?":35,"@":36,"A":37,"B":38,"C":39,"D":40,"E":41,"F":42,"G":43,"H":44,"I":45,"J":46,"K":47,"L":48,"M":49,"N":50,"O":51,"P":52,"Q":53,"R":54,"S":55,"T":56,"U":57,"V":58,"W":59,"X":60,"Y":61,"Z":62,"[":63,"\\":64,"]":65,"^":66,"_":67,"`":68,"a":69,"b":70,"c":71,"d":72,"e":73,"f":74,"g":75,"h":76,"i":77,"j":78,"k":79,"l":80,"m":81,"n":82,"o":83,"p":84,"q":85,"r":86,"s":87,"t":88,"u":89,"v":90,"w":91,"x":92,"y":93,"z":94,"{":95,"|":96,"}":97,"~":98,"¡":99,"¢":100,"£":101,"¤":102,"¥":103,"¦":104,"§":105,"¨":106,"©":107,"ª":108,"«":109,"¬":110,"®":111,"¯":112,"°":113,"±":114,"²":115,"³":116,"´":117,"µ":118,"¶":119,"·":120,"¸":121,"¹":122,"º":123,"»":124,"¼":125,"½":126,"¾":127,"¿":128,"À":129,"Á":130,"Â":131,"Ã":132,"Ä":133,"Å":134,"Æ":135,"Ç":136,"È":137,"É":138,"Ê":139,"Ë":140,"Ì":141,"Í":142,"Î":143,"Ï":144,"Ð":145,"Ñ":146,"Ò":147,"Ó":148,"Ô":149,"Õ":150,"Ö":151,"×":152,"Ø":153,"Ù":154,"Ú":155,"Û":156,"Ü":157,"Ý":158,"Þ":159,"ß":160,"à":161,"á":162,"â":163,"ã":164,"ä":165,"å":166,"æ":167,"ç":168,"è":169,"é":170,"ê":171,"ë":172,"ì":173,"í":174,"î":175,"ï":176,"ð":177,"ñ":178,"ò":179,"ó":180,"ô":181,"õ":182,"ö":183,"÷":184,"ø":185,"ù":186,"ú":187,"û":188,"ü":189,"ý":190,"þ":191,"ÿ":192,"Ā":193,"ā":194,"Ă":195,"ă":196,"Ą":197,"ą":198,"Ć":199,"ć":200,"Ĉ":201,"ĉ":202,"Ċ":203,"ċ":204,"Č":205,"č":206,"Ď":207,"ď":208,"Đ":209,"đ":210,"Ē":211,"ē":212,"Ĕ":213,"ĕ":214,"Ė":215,"ė":216,"Ę":217,"ę":218,"Ě":219,"ě":220,"Ĝ":221,"ĝ":222,"Ğ":223,"ğ":224,"Ġ":225,"ġ":226,"Ģ":227,"ģ":228,"Ĥ":229,"ĥ":230,"Ħ":231,"ħ":232,"Ĩ":233,"ĩ":234,"Ī":235,"ī":236,"Ĭ":237,"ĭ":238,"Į":239,"į":240,"İ":241,"ı":242,"Ĳ":243,"ĳ":244,"Ĵ":245,"ĵ":246,"Ķ":247,"ķ":248,"ĸ":249,"Ĺ":250,"ĺ":251,"Ļ":252,"ļ":253,"Ľ":254,"ľ":255,"Ŀ":256,"ŀ":257,"Ł":258,"ł":259,"Ń":260,"ĠĠ":261,"ĠĠĠĠ":262,"ĠĠĠ":263,"ĠĠĠĠĠĠĠĠ":264,"ĠĠĠĠĠĠĠ":265,"in":266,"se":267,"re":268,"on":269,"at":270,"Ġt":271,"er":272,"or":273,"st":274,"en":275,"Ġa":276,"Ġ=":277,"ĠĠĠĠĠĠĠĠĠĠĠ":278,"Ġi":279,"de":280,"he":281,"ar":282,"al":283,"le":284,"me":285,"Ġf":286,"Ġc":287,"\"\"":288,"ion":289,"Ġre":290,"lf":291,"self":292,"Ġp":293,"ur":294,"Ġn":295,"it":296,"Ġin":297,"ct":298,"an":299,"Ġthe":300,"ce":301,"Ġo":302,"Ġs":303,"ro":304,"ge":305,"ĠĠĠĠĠĠĠĠĠĠĠĠĠĠĠĠ":306,"Ġe":307,"ame":308,"Ġif":309,"ut":310,"ing":311,"lo":312,"Ġ'":313,"ue":314,"Ġd":315,"Ġb":316,"Ġself":317,"):":318,"ent":319,"pe":320,"--":321,"urn":322,"li":323,"\"\"\"":324,"turn":325,"ĠĠĠĠĠĠĠĠĠĠĠĠĠĠĠ":326,"ate":327,"Ġw":328,"fi":329,"ot":330,"Ġm":331,"ss":332,"un":333,"Ġ\"\"\"":334,"ra":335,"Ġto":336,"id":337,"Ġ#":338,"def":339,"Ġfor":340,"co":341,"mp":342,"Ġis":343,"ed":344,"Ġreturn":345,"ad":346,"one":347,"ul":348,"la":349,"val":350,"Ġ(":351,"Ġan":352,"Ġof":353,"Ġ:":354,"pt":355,"ata":356,"ch":357,"Ġst":358,"ri":359,"ype":360,"ke":361,"is":362,"um":363,"get":364,"name":365,"()":366,"None":367,"il":368,"ter":369,"es":370,"ĠT":371,"ck":372,"am":373,"di":374,"Ġ\"":375,"ex":376,"ation":377,"ol":378,"el":379,"Ġnot":380,"._":381,"',":382,"up":383,"Ġse":384,"par":385,"th":386,"ma":387,"gs":388,"ver":389,"ath":390,"value":391,"Ġand":392,"Ġcon":393,"))":394,"ult":395,"as":396,"Ġth":397,"ction":398,"['":399,"']":400,"ode":401,"('":402,"Ġex":403,"----":404,"con":405,"ĠĠĠĠĠĠĠĠĠĠĠĠĠĠĠĠĠĠĠ":406,"ve":407,"Ġl":408,"Ġh":409,"key":410,"ror":411,"type":412,"ble":413,"Ġbe":414,"list":415,"end":416,"ser":417,"ĠNone":418,"ta":419,"Ġfi":420,"Ġg":421,"orm":422,"Ġ+":423,"ime":424,"int":425,"Ġor":426,"pp":427,"ect":428,"Ġu":429,"ith":430,"Ġco":431,"bj":432,"':":433,"Ġ1":434,"ĠA":435,"')":436,"ig":437,"od":438,"param":439,"sp":440,"ption":441,"ext":442,"Ġ[":443,"to":444,"and":445,"ment":446,"iz":447,"Re":448,"Ġ*":449,"Ġ_":450,"ĠI":451,"qu":452,"Ġde":453,"ort":454,"Ġ-":455,"Ġlo":456,"set":457,"path":458,"te":459,"age":460,"Ġel":461,"Ġ{":462,"Ġdi":463,"``":464,"form":465,"Ġelse":466,"args":467,"str":468,"file":469,"Ġstr":470,"vi":471,"rom":472,"Ġr":473,"Ġdata":474,"ly":475,"Ġme":476,"po":477,"ĠS":478,"ise":479,"(\"":480,"ance":481,"Ġ0":482,"data":483,"et":484,"Ġas":485,"nt":486,"ĠC":487,"Ġ%":488,"Ġvalue":489,"rue":490,"put":491,"Ġ==":492,"rror":493,"Error":494,"ĠĠĠĠĠ":495,"Ġname":496,"res":497,"Ġpro":498,"Ġpar":499,"ry":500,"ine":501,"ord":502,"Ġwith":503,"Ġar":504,"able":505,"ub":506,"Ġal":507,"que":508,"ase":509,"cal":510,"ĠF":511,"Ġra":512,"ite":513,"ĠP":514,"Ġres":515,"ist":516,"ew":517,"per":518,"stance":519,"Ġfile":520,"bject":521,"che":522,"Ġma":523,"Ġv":524,"\",":525,"ci":526,"alse":527,"us":528,">>":529,"),":530,"ize":531,"out":532,"fig":533,"ow":534,"ack":535,"Ġlist":536,"fo":537,"Ġfrom":538,"ĠĠĠĠĠĠĠĠĠĠĠĠĠĠĠĠĠĠĠĠĠĠĠĠĠĠĠĠĠĠĠĠ":539,"pro":540,"att":541,"red":542,"app":543,"ers":544,"mple":545,"art":546,"ault":547,"kw":548,"ĠThe":549,"eld":550,"our":551,"Ġraise":552,"time":553,"Ġdef":554,"format":555,"ĠRe":556,"ms":557,"Ġon":558,"..":559,"Ġy":560,"Ġkey":561,"ure":562,"quest":563,"ĠD":564,"ht":565,"ĠE":566,"kwargs":567,"ĠĠĠĠĠĠĠĠĠĠĠĠĠĠĠĠĠĠĠĠĠĠĠ":568,"date":569,"dex":570,"\")":571,"ran":572,"ic":573,"lass":574,"rent":575,"])":576,"all":577,"sion":578,"ray":579,"ff":580,"Ġch":581,"sh":582,"Ġthat":583,"00":584,"Ġwh":585,"ind":586,"],":587,"ource":588,"Ġx":589,"Ġget":590,"unt":591,"Ġthis":592,"Ġlen":593,"Ġ2":594,"Ġout":595,"code":596,"sed":597,"text":598,"Ġlog":599,"und":600,"ill":601,"Ġset":602,"len":603,"='":604,"iv":605,"add":606,"mm":607,"ĠN":608,"pre":609,"atch":610,"Ġ`":611,"cess":612,"append":613,"ust":614,"url":615,"error":616,"Ġit":617,"Ġpo":618,"ity":619,"Ġ``":620,"Ġpa":621,"ameter":622,"cept":623,"thod":624,"Ġsh":625,"Ġby":626,"im":627,"odel":628,"ctor":629,"''":630,"ip":631,"col":632,"jo":633,"dd":634,"pa":635,"reate":636,"ile":637,"py":638,"ger":639,"ition":640,"Ġare":641,"oc":642,"low":643,"ug":644,"Ġen":645,"Ġresult":646,"cl":647,"mo":648,"ange":649,"__":650,"turns":651,"lif":652,"ive":653,"ument":654,"sc":655,"ber":656,"ary":657,"bo":658,"unction":659,"pi":660,"ces":661,"Ġobject":662,"ĠTrue":663,").":664,"==":665,"ĠM":666,"instance":667,"Ġnp":668,"ute":669,"read":670,"Ġtime":671,"Ġtype":672,"Ġcol":673,"Ġhe":674,"roup":675,"Ġro":676,"Ġelif":677,"der":678,"ample":679,"spon":680,"ĠV":681,"dict":682,"Ġnew":683,"ph":684,"ĠIf":685,"Ġtry":686,"Ġla":687,"Ġwe":688,"ule":689,"--------":690,"om":691,"rint":692,"Ġpre":693,"rib":694,"Ġ**":695,"valid":696,"Ġpath":697,"Ġ<":698,"ded":699,"ssage":700,"Ġwill":701,"ign":702,"Ġexcept":703,"info":704,"ĠĠĠĠĠĠĠĠĠĠĠĠĠĠĠĠĠĠĠĠĠĠĠĠ":705,"log":706,"op":707,"Ġstring":708,"peci":709,"Ġnum":710,"port":711,"ssion":712,"Ġun":713,"dir":714,"version":715,"True":716,"Ġ{}":717,"Ġall":718,"ator":719,"ork":720,"ari":721,"vent":722,"ĠR":723,"Ġ>>":724,"ĠL":725,"Ġ)":726,"ĠO":727,"attr":728,"ĠFalse":729,"##":730,"class":731,"bel":732,"Ġ'''":733,"\":":734,"Ġint":735,"ĠĠĠĠĠĠ":736,"sponse":737,"ape":738,"ĠG":739,"Ġ>>>":740,"tain":741,"ĠU":742,"ery":743,"ave":744,"ild":745,"size":746,"Ġcont":747,"fa":748,"Ġdefault":749,"ys":750,"config":751,"fe":752,"ore":753,"mb":754,"[\"":755,"ps":756,"ĉĉ":757,"False":758,"ception":759,"update":760,"lement":761,"'.":762,"ated":763,"lock":764,"min":765,"ca":766,"cation":767,"load":768,"ken":769,"ts":770,"ĠReturns":771,"In":772,"Ġisinstance":773,"Ġrequest":774,"ameters":775,"pla":776,"Ġk":777,"ren":778,"mage":779,"alue":780,"loat":781,"ns":782,"gument":783,"os":784,"Ġoption":785,"string":786,"Ġ>":787,"Ġos":788,"Ġfunction":789,"urrent":790,"lit":791,"vice":792,"line":793,"ĠW":794,":`":795,"index":796,"ost":797,"Ġid":798,"Ġmethod":799,"heck":800,"ne":801,"rans":802,"Ġdo":803,"ener":804,"ial":805,"son":806,"query":807,"Ġbo":808,"Ġhas":809,"Ġadd":810,"start":811,"join":812,"Ġuser":813,"Ġspeci":814,"array":815,"\"]":816,"Ġprint":817,"ies":818,"Ġj":819,"return":820,"arget":821,"Ġ[]":822,"ĠB":823,"Ġret":824,"ste":825,"uld":826,"Ġ+=":827,"tra":828,"():":829,"ĠTh":830,"rite":831,"mmand":832,"Ġcan":833,"count":834,"Ġfil":835,"mat":836,"ther":837,"ok":838,"ER":839,"back":840,"Ġconfig":841,"num":842,"if":843,"Ġdict":844,"Ġline":845,"ĠĠĠĠĠĠĠĠĠ":846,"Ġuse":847,"ag":848,".__":849,"uth":850,"Ġat":851,"Ġoutput":852,"lient":853,"iven":854,"ir":855,"Ġcomp":856,"Ġ/":857,"Ġsub":858,"Ġle":859,"word":860,"mport":861,"Ġnode":862,"atus":863,"ard":864,"node":865,"ant":866,"unc":867,"Ġte":868,"ifi":869,"ight":870,"gth":871,"ON":872,"Ġ\\":873,"ress":874,"ty":875,"lin":876,"base":877,"ĠThis":878,"ll":879,"Ġne":880,"odule":881,"Con":882,"].":883,"ask":884,"ould":885,"max":886,"Ġfield":887,"ĠEx":888,"Ġvalues":889,"ĠĠĠĠĠĠĠĠĠĠĠĠĠĠĠĠĠĠĠĠĠĠĠĠĠĠĠ":890,"fix":891,"not":892,"**":893,"Ġ..":894,"=\"":895,"mpl":896,"ates":897,"qui":898,"nd":899,"ab":900,"Ġ3":901,"ĠH":902,"Ġgiven":903,"Ġapp":904,"mit":905,"ĠValue":906,"own":907,"ec":908,"Ġerror":909,"by":910,"\".":911,"user":912,"rame":913,"ting":914,"lot":915,"yn":916,"ader":917,"cord":918,".\"\"\"":919,"ml":920,"bug":921,"Ġno":922,"da":923,"ich":924,"Ġstart":925,"Ġite":926,"field":927,"obj":928,"ree":929,"ump":930,"gra":931,"lic":932,"group":933,"IN":934,"Ġmax":935,"Ġcall":936,"pos":937,"point":938,"Ġresponse":939,"vel":940,"Ġ!":941,"arch":942,"work":943,"scri":944,"Ġ|":945,"ĠValueError":946,"ac":947,"uple":948,"Ġli":949,"Ġso":950,"ude":951,"ach":952,"Ġspecifi":953,"map":954,"split":955,"Ġargs":956,"Ġkwargs":957,"ang":958,"Ġ!=":959,"rst":960,"([":961,"ning":962,"ls":963,"ĠIn":964,"AT":965,"attrib":966,"act":967,"Ġinput":968,"ence":969,"Ġac":970,"Ġmodel":971,"ariable":972,"vert":973,"Ġnumber":974,"Ġinstance":975,"Ġcontain":976,"tt":977,"md":978,"default":979,"Ġwhich":980,"sub":981,"uct":982,"cur":983,"Ġz":984,"Ġindex":985,"result":986,"Ġcheck":987,"Ġarray":988,"we":989,"St":990,"Ex":991,"sert":992,"ory":993,"model":994,"Ġused":995,"comp":996,"{}":997,"ST":998,"ull":999,"Ġcurrent":1000,"values":1001,"ations":1002,"ound":1003,"params":1004,"Ġser":1005,"from":1006,"Ġcreate":1007,"Ġend":1008,"'s":1009,"RE":1010,"Ġimport":1011,"Ġmessage":1012,"ses":1013,"Ġone":1014,"state":1015,"ep":1016,"ĠAr":1017,"tern":1018,"ron":1019,"iter":1020,"tri":1021,"ils":1022,"Ġpass":1023,"bu":1024,"Ġparam":1025,"option":1026,"spa":1027,"its":1028,"place":1029,"Ġax":1030,"Ġfa":1031,"request":1032,"Ġrange":1033,"Ġfloat":1034,"ds":1035,"Ġ--------":1036,"for":1037,"cs":1038,"label":1039,"())":1040,"sing":1041,"ctory":1042,"ding":1043,"ject":1044,"ĠPar":1045,"move":1046,"[:":1047,"nel":1048,"cont":1049,"row":1050,"Ġ}":1051,"Ġper":1052,"pect":1053,"object":1054,"Ġbase":1055,"debug":1056,"com":1057,"ket":1058,"Ġmust":1059,"write":1060,"ax":1061,"shape":1062,"ual":1063,"'):":1064,"wa":1065,"Ġonly":1066,"====":1067,"pen":1068,"with":1069,"Ġdire":1070,"ature":1071,"Ġcal":1072,"items":1073,"Ġargument":1074,"ou":1075,"umn":1076,"Ġshould":1077,"Ġca":1078,"Ġcode":1079,"sent":1080,"inter":1081,"Ġsu":1082,"Ġversion":1083,"bs":1084,"Ġurl":1085,"Ġent":1086,"Ġrun":1087,"og":1088,"01":1089,"Ġhave":1090,"ef":1091,"alt":1092,"'t":1093,"ension":1094,"Ġbu":1095,"Ġtext":1096,"Ġreg":1097,"Ġdis":1098,"ak":1099,"ical":1100,"led":1101,"Ġvalid":1102,"ote":1103,"run":1104,"ream":1105,"Ġmin":1106,"np":1107,"Type":1108,"space":1109,"reg":1110,"keys":1111,"Ġinter":1112,"####":1113,"Ġeach":1114,"Ġexist":1115,"inal":1116,"Ġstate":1117,"Ġquery":1118,"df":1119,"ctions":1120,"tes":1121,"Ġsup":1122,"gn":1123,"'],":1124,"json":1125,"Ġitem":1126,"Ġevent":1127,"Ġread":1128,"Ġrow":1129,"adata":1130,"Ġmat":1131,"lat":1132,"arg":1133,"Ġany":1134,"mplate":1135,"call":1136,"Ġmatch":1137,"feren":1138,"Ġtarget":1139,"lay":1140,"][":1141,"Ġ@":1142,"Ġpy":1143,"ref":1144,"Ġformat":1145,"Ġsource":1146,"ield":1147,"Ġlogger":1148,"Ke":1149,"thon":1150,"ename":1151,"ments":1152,"func":1153,"Ġimage":1154,"names":1155,"idth":1156,"//":1157,"LE":1158,"lename":1159,"::":1160,"output":1161,"ix":1162,"Ġlin":1163,"ID":1164,"fil":1165,"Ġup":1166,"Ġother":1167,"ens":1168,"Name":1169,"sum":1170,"((":1171,"Ġspecified":1172,"clude":1173,"ution":1174,"ents":1175,"OR":1176,"ft":1177,"Ġclass":1178,"itle":1179,"table":1180,"andl":1181,"Ġgroup":1182,"ĠĠĠĠĠĠĠĠĠĠ":1183,"aders":1184,"so":1185,"filename":1186,"be":1187,"ME":1188,"lect":1189,"Ġoptional":1190,"block":1191,"here":1192,"main":1193,"Ġ4":1194,"Ġelement":1195,"lable":1196,"Ġfirst":1197,"Ġdate":1198,"new":1199,"token":1200,"parse":1201,"ĠParameters":1202,"ĠArgs":1203,"Ġtrans":1204,"ap":1205,"pts":1206,"andle":1207,"rid":1208,"Ġparams":1209,"stri":1210,"lob":1211,"etwork":1212,"status":1213,"message":1214,"Ġbool":1215,"Ġcommand":1216,"ched":1217,"Ġover":1218,"view":1219,"uration":1220,"Ġwhen":1221,"annel":1222,"yste":1223,"tadata":1224,"item":1225,"si":1226,"Ġ----------":1227,"'])":1228,"Key":1229,"input":1230,"://":1231,"Ġ{'":1232,"sk":1233,"utes":1234,"method":1235,"Ġinto":1236,"Data":1237,"orre":1238,"Ġupdate":1239,"av":1240,"Ġtuple":1241,"Ġtable":1242,"ctionary":1243,"Ġfiles":1244,"Ġtra":1245,"Ġsize":1246,"Ġlabel":1247,"check":1248,"nection":1249,"lib":1250,"Ġpos":1251,"Ġattrib":1252,"Ġcontin":1253,"amples":1254,"rig":1255,"source":1256,"ĠCon":1257,"rix":1258,"api":1259,"DE":1260,"Ġfilename":1261,"ĠĊ":1262,"rc":1263,"use":1264,"arning":1265,"ries":1266,"ong":1267,"ash":1268,"().":1269,"sg":1270,"lete":1271,"ain":1272,"scription":1273,"ĠX":1274,"old":1275,"Ġpoint":1276,"types":1277,"filter":1278,"Ġfound":1279,"var":1280,"pec":1281,"face":1282,"Ġgener":1283,"mi":1284,"Ġsp":1285,"Ġvariable":1286,"Ġtoken":1287,"no":1288,"ody":1289,"umpy":1290,"create":1291,"ors":1292,"ume":1293,"lean":1294,"ous":1295,"amp":1296,"host":1297,"oth":1298,"off":1299,"umns":1300,"itial":1301,"Co":1302,"Ġdoc":1303,"do":1304,"nect":1305,"tings":1306,"Ġcontinue":1307,"clo":1308,"doc":1309,"ackage":1310,"ures":1311,"ark":1312,"Ġ----":1313,"ference":1314,"resh":1315,"Ġext":1316,"ystem":1317,"Ġ__":1318,"action":1319,"(),":1320,"process":1321,"AR":1322,"cre":1323,"Ġpl":1324,"cy":1325,"ai":1326,"module":1327,"AL":1328,"Ġopen":1329,"ids":1330,"files":1331,"Id":1332,"ay":1333,"Ġobj":1334,"Par":1335,"ging":1336,"ĠĠĠĠĠĠĠĠĠĠĠĠĠ":1337,"response":1338,"---":1339,"event":1340,"Pro":1341,"PI":1342,"mt":1343,"Ġusing":1344,"unk":1345,"Ġdoes":1346,"raw":1347,"ins":1348,"AN":1349,"SE":1350,"Ġbut":1351,"ormal":1352,"Ġthen":1353,"quence":1354,")))":1355,"Ġass":1356,"10":1357,"db":1358,"job":1359,"Ġ...":1360,"client":1361,"andler":1362,"dis":1363,"Ġ->":1364,"length":1365,"image":1366,"pop":1367,"msg":1368,"quired":1369,"Ġfilter":1370,"Ġwork":1371,"ĠĠĠĠĠĠĠĠĠĠĠĠĠĠĠĠĠĠĠĠĠĠĠĠĠĠĠĠĠĠĠ":1372,"Ġmo":1373,"float":1374,"ast":1375,"Ġmodule":1376,"Ġiter":1377,"Ġcontext":1378,"Ġpart":1379,"core":1380,"ized":1381,"lp":1382,"htt":1383,"pping":1384,"ho":1385,"Ġdefin":1386,"idx":1387,"Ġgra":1388,"otal":1389,"cent":1390,"Ġsign":1391,"Ġresults":1392,"target":1393,"]:":1394,"Ġdictionary":1395,"err":1396,"Ġparent":1397,"Ġta":1398,"Ġfe":1399,"ped":1400,"lection":1401,"ats":1402,"auth":1403,"match":1404,"ĠJ":1405,"ches":1406,"cls":1407,"Ġmsg":1408,"utils":1409,"cul":1410,"dire":1411,"rtype":1412,"trans":1413,"Ġ['":1414,"Ġ--":1415,"pl":1416,"chema":1417,"Ġver":1418,"plot":1419,"iled":1420,"Ġassert":1421,"Ġlength":1422,"`.":1423,"link":1424,"context":1425,"pr":1426,"ible":1427,"Ġsort":1428,"indow":1429,"Ġresource":1430,"mpty":1431,"andom":1432,"rial":1433,"Ġblock":1434,"Ġoptions":1435,"are":1436,"cale":1437,"Ġmake":1438,"level":1439,"Ġyou":1440,"tag":1441,"Ġcount":1442,"ld":1443,"pri":1444,"Get":1445,"Res":1446,"ud":1447,"reak":1448,"fore":1449,"tx":1450,"Ġclient":1451,"Ġ.":1452,"Se":1453,"Ġwhile":1454,"command":1455,"Ġjson":1456,"ĠSe":1457,"Ġcls":1458,"Ġcontent":1459,"ved":1460,"find":1461,"Ġauth":1462,"Ġcur":1463,"content":1464,"TE":1465,"Ġreturns":1466,"Ġhost":1467,"Ġparameters":1468,"options":1469,"ted":1470,"Ġorder":1471,"of":1472,"io":1473,"range":1474,"Ġarguments":1475,"entifi":1476,"Ġrecord":1477,"Ġoff":1478,"Ġpri":1479,"Ġparameter":1480,"Ġwas":1481,"ating":1482,"mbda":1483,"Ġval":1484,"Ġcorre":1485,"cond":1486,"Ġuni":1487,"Ġsc":1488,"Ġprovi":1489,")]":1490,"present":1491,"Ġlast":1492,"Ġav":1493,"sign":1494,"ccess":1495,"Ġ5":1496,"ĠQ":1497,"ĠY":1498,"Ġform":1499,"Ġqu":1500,"pend":1501,"File":1502,"Ġ('":1503,"Ġprocess":1504,"igh":1505,"xy":1506,"Ġextra":1507,"root":1508,"ify":1509,"TI":1510,"[-":1511,"fter":1512,"ĠException":1513,"ick":1514,"Ġindi":1515,"Ġchange":1516,"Ġyield":1517,"Ġad":1518,"Ġreturned":1519,"Ġact":1520,"right":1521,"formation":1522,"session":1523,"rt":1524,"Set":1525,"Ġsame":1526,"ready":1527,"Ġproper":1528,"swith":1529,"Ġcolumn":1530,"coding":1531,"queue":1532,"Ġoper":1533,"play":1534,"Ġneed":1535,"Ġback":1536,"lines":1537,"replace":1538,"Ġserver":1539,"64":1540,"imum":1541,"Ġ-------":1542,"Ġfol":1543,"ĠĠĠĠĠĠĠĠĠĠĠĠ":1544,"Ġdirectory":1545,"part":1546,"viron":1547,"Ġparser":1548,"Ġnames":1549,"ĠCo":1550,"iss":1551,"strip":1552,"temp":1553,"'))":1554,"man":1555,"Ġchar":1556,"cate":1557,"Ġq":1558,"Ġarg":1559,"Ġed":1560,"rit":1561,"Ġmult":1562,"Ġmode":1563,"efault":1564,"Ġhtt":1565,"number":1566,"Ġsys":1567,"ner":1568,"Ġcase":1569,"PE":1570,"Ġstatus":1571,"List":1572,"stamp":1573,"width":1574,"Ġdiff":1575,"su":1576,"dim":1577,"ome":1578,"mode":1579,"Ġwhere":1580,"color":1581,"prefix":1582,"copy":1583,"change":1584,"frame":1585,"Ġaction":1586,"Ar":1587,"cket":1588,"store":1589,"ert":1590,"ĠID":1591,"comm":1592,"32":1593,"itions":1594,"De":1595,"order":1596,")):":1597,"Ġload":1598,"Ġkeys":1599,"lower":1600,"ose":1601,"parent":1602,"ĠĠĠĠĠĠĠĠĠĠĠĠĠĠĠĠĠ":1603,"cmd":1604,"ĠSt":1605,"current":1606,"12":1607,"'),":1608,"RL":1609,"ĠAn":1610,"ative":1611,"Ġfind":1612,"Ġshape":1613,"wise":1614,"vid":1615,"lobal":1616,"Ġnumpy":1617,"})":1618,"cache":1619,"Ġtag":1620,"'].":1621,"ization":1622,"Ġport":1623,"req":1624,"last":1625,"ĠGet":1626,"Ġtask":1627,"AC":1628,"Ġnext":1629,"Ġbreak":1630,"ĠReturn":1631,"Element":1632,"Ġheader":1633,"Ġaxis":1634,"resource":1635,"attern":1636,"uri":1637,"ailable":1638,"les":1639,"Un":1640,"loc":1641,"ingle":1642,"function":1643,"ties":1644,"Ġallow":1645,"(*":1646,"header":1647,"vis":1648,"']:":1649,"limit":1650,"Ġparse":1651,"ĠĠĠĠĠĠĠĠĠĠĠĠĠĠ":1652,"Ġsession":1653,"address":1654,"Ġpage":1655,"Ġchild":1656,"TP":1657,"ĠType":1658,"fields":1659,"gen":1660,"lease":1661,"},":1662,"Ġcolor":1663,"Ġmore":1664,"env":1665,"Ġlocal":1666,"Ġtimeout":1667,"ell":1668,"To":1669,"ises":1670,"Ġdel":1671,"Ġsalt":1672,"Ġrepresent":1673,"du":1674,"DO":1675,"EN":1676,"Ġalready":1677,"print":1678,"axis":1679,"vector":1680,"Ġorig":1681,"ĠĠĠĠĠĠĠĠĠĠĠĠĠĠĠĠĠĠĠĠĠ":1682,"ĠFor":1683,"Ġthan":1684,"Ġfla":1685,"...":1686,"Ġobjects":1687,"Ġroot":1688,"ĠĠĠĠĠĠĠĠĠĠĠĠĠĠĠĠĠĠ":1689,"lication":1690,"ols":1691,"Ġ'.":1692,"element":1693,"uto":1694,"Ġservice":1695,"ster":1696,"Ġplot":1697,"mary":1698,"search":1699,"argument":1700,"exist":1701,"Ġdf":1702,"Ġsupport":1703,"net":1704,"Ġpas":1705,"Ġinte":1706,"child":1707,"Ġmay":1708,"title":1709,"ib":1710,"Ġthere":1711,"http":1712,"conds":1713,"server":1714,"struct":1715,"Ġag":1716,"top":1717,"offset":1718,"FI":1719,"ring":1720,"like":1721,"zer":1722,"mplement":1723,"Ġexception":1724,"Ġref":1725,"ffer":1726,"pass":1727,"uid":1728,"Ġsingle":1729,"Ġtw":1730,"ister":1731,"Ġentry":1732,"cor":1733,"Ġdtype":1734,"ternal":1735,"ustom":1736,"graph":1737,"Ġlimit":1738,"Exception":1739,"Ġfields":1740,"Me":1741,"stra":1742,"ret":1743,"Ġlay":1744,"entifier":1745,"Ġcmd":1746,"SI":1747,"Ġcallback":1748,"Ġinfo":1749,"ync":1750,"Value":1751,"Ġman":1752,"Ġhelp":1753,"ymb":1754,"atures":1755,"]]":1756,"open":1757,"LO":1758,"Ġtest":1759,"Di":1760,"Ġprovided":1761,"Ġattribute":1762,"mail":1763,"Ġ'%":1764,"Ġheaders":1765,"ide":1766,"========":1767,"fy":1768,"ans":1769,"Ġtemplate":1770,"pth":1771,"mission":1772,"Ġbet":1773,"Ġenum":1774,"yle":1775,"RO":1776,"Ġoffset":1777,"ĠĠĠĠĠĠĠĠĠĠĠĠĠĠĠĠĠĠĠĠ":1778,"ĠSet":1779,"pected":1780,"ĠKey":1781,"contain":1782,"mote":1783,"page":1784,"hether":1785,"Ġexec":1786,"Ġsearch":1787,"onent":1788,"Ġlogging":1789,"Ġinformation":1790,"Ġlevel":1791,"LI":1792,"(_":1793,"script":1794,"Ġdest":1795,"Ġ>=":1796,"']['":1797,"yload":1798,"ĠDefault":1799,"Ġinclude":1800,"########":1801,"ager":1802,"Ġnon":1803,"Frame":1804,"Ġpassed":1805,"ql":1806,"Ġtf":1807,"stream":1808,"gener":1809,"record":1810,"Ġproject":1811,"Ġtemp":1812,"exception":1813,"ML":1814,"GE":1815,"exec":1816,"ency":1817,"Ġhasattr":1818,"({":1819,"erge":1820,"flow":1821,"cli":1822,"Ġattr":1823,"ween":1824,"Return":1825,"local":1826,"Ġsome":1827,"round":1828,"uni":1829,"Ġdim":1830,"ĠData":1831,"Ġfunc":1832,"ont":1833,"`,":1834,"Ġprefix":1835,"Ġlines":1836,"dered":1837,"las":1838,"mask":1839,"gor":1840,"task":1841,"Ġab":1842,"Ġcontaining":1843,"000":1844,"gment":1845,"Ġ<=":1846,"test":1847,"Ġcoord":1848,"hash":1849,"close":1850,"ĠAdd":1851,"Ser":1852,"html":1853,"mag":1854,"Ġinst":1855,"Ġmetadata":1856,"Ġbytes":1857,"ĠĠĠĠĠĠĠĠĠĠĠĠĠĠĠĠĠĠĠĠĠĠ":1858,"``.":1859,"exp":1860,"Ġ\"\"":1861,"Ġexp":1862,"Ġmatrix":1863,"callback":1864,"Ġvi":1865,"CO":1866,"ice":1867,"Ġits":1868,"term":1869,"Ġremove":1870,"uster":1871,"Ġstream":1872,"[:,":1873,"remove":1874,"ential":1875,"nown":1876,"returns":1877,"ities":1878,"erate":1879,"metadata":1880,"cope":1881,"SS":1882,"Ġmap":1883,"ility":1884,"Ġsum":1885,"ĠĠĠĠĠĠĠĠĠĠĠĠĠĠĠĠĠĠĠĠĠĠĠĠĠ":1886,"ass":1887,"Ġcache":1888,"----------------":1889,"Ġjob":1890,"init":1891,"Ġaddress":1892,"box":1893,"Ġdist":1894,"ĠCreate":1895,"Ġlocation":1896,"lation":1897,"Ġcopy":1898,"Ġconvert":1899,"bytes":1900,"Ġign":1901,"project":1902,"Ġ&":1903,"Ġafter":1904,"Ġwrite":1905,"sor":1906,"ugh":1907,"ĠDe":1908,"mon":1909,"datetime":1910,"bose":1911,"std":1912,"cat":1913,"gram":1914,"tree":1915,"ĠĠĠĠĠĠĠĠĠĠĠĠĠĠĠĠĠĠĠĠĠĠĠĠĠĠĠĠ":1916,"Ġinitial":1917,"go":1918,"Ġdatetime":1919,".')":1920,"]))":1921,"location":1922,"Ġitems":1923,"char":1924,"ensions":1925,"Ġweight":1926,"points":1927,"Ġcomm":1928,"ĠWe":1929,"pper":1930,"qual":1931,"sort":1932,"}'.":1933,"fn":1934,"Ġcl":1935,"del":1936,"Ġrequired":1937,"Ġdataset":1938,"encode":1939,"olume":1940,"send":1941,"Ġ6":1942,"bin":1943,"ear":1944,"Ġpackage":1945,"parser":1946,"Ġthread":1947,"UT":1948,"template":1949,"ĠĠĠĠĠĠĠĠĠĠĠĠĠĠĠĠĠĠĠĠĠĠĠĠĠĠĠĠĠĠĠĠĠĠĠ":1950,"Ġstruct":1951,"Ġph":1952,"connect":1953,"headers":1954,"Ġbefore":1955,"ensor":1956,"Ġcomple":1957,"service":1958,"Ġerrors":1959,"startswith":1960,"idget":1961,"Ġsample":1962,"channel":1963,"orage":1964,".\")":1965,"ither":1966,"the":1967,"itional":1968,"Ġbody":1969,"post":1970,"Ġbetween":1971,"ĠTypeError":1972,"Ġconfiguration":1973,"rap":1974,"bro":1975,"util":1976,"Ġgetattr":1977,"Time":1978,"25":1979,"Ġfollow":1980,"ocket":1981,"verse":1982,"TTP":1983,"Ġgraph":1984,"fla":1985,"licy":1986,"ĠPy":1987,"RI":1988,"Ġtop":1989,"variable":1990,"Ġavailable":1991,"Ġlink":1992,"ownload":1993,"ful":1994,"ges":1995,"Ġword":1996,"dist":1997,"UL":1998,"ake":1999,"99":2000,"Ġsequence":2001,"Ġcom":2002,"={":2003,"Ġter":2004,"wer":2005,"nodes":2006,"Ġnetwork":2007,"ĠList":2008,"spec":2009,"Ġnormal":2010,"opts":2011,".,":2012,"Ġmem":2013,"Ġdb":2014,"\"):":2015,"rs":2016,"Sub":2017,"build":2018,"only":2019,"logger":2020,"Ġcolumns":2021,"pol":2022,"ttrib":2023,"ĠPro":2024,"bar":2025,"exists":2026,"Ġdevice":2027,"Ġ10":2028,"Ġframe":2029,"Ġclo":2030,"bool":2031,"ank":2032,"ored":2033,"cry":2034,"ux":2035,"ym":2036,"ĠK":2037,"Ġenumerate":2038,"Ġold":2039,"ward":2040,"ĠAPI":2041,"abled":2042,"tric":2043,"Ġapi":2044,"stack":2045,"ĠĠĠĠĠĠĠĠĠĠĠĠĠĠĠĠĠĠĠĠĠĠĠĠĠĠ":2046,"NA":2047,"Ġtwo":2048,"Ġali":2049,"mod":2050,"Ġvar":2051,"Ġfull":2052,"itor":2053,"izer":2054,"dtype":2055,"bit":2056,"MA":2057,"Ġchannel":2058,"my":2059,"Ġdocument":2060,"lear":2061,"Ġconnection":2062,"Ġlook":2063,"est":2064,"Ġempty":2065,"pha":2066,"ification":2067,"ination":2068,"Ġgen":2069,"16":2070,"SON":2071,"Ġnamespace":2072,"ular":2073,":]":2074,"ĠĠĠĠĠĠĠĠĠĠĠĠĠĠĠĠĠĠĠĠĠĠĠĠĠĠĠĠĠ":2075,"settings":2076,"difi":2077,"Ġsorted":2078,"AD":2079,"column":2080,"timeout":2081,"ĠUn":2082,"lper":2083,"fl":2084,"proper":2085,"fer":2086,"weight":2087,"Ġsend":2088,"xml":2089,"Ġ8":2090,"mem":2091,"Ġ]":2092,"container":2093,"Ġtitle":2094,"Add":2095,"]['":2096,"ions":2097,"handle":2098,"Ġcalled":2099,"Ġnodes":2100,"Ġtotal":2101,"pression":2102,"delete":2103,"Ch":2104,"Ġbuild":2105,"very":2106,"Ġalso":2107,"TY":2108,"ĠTO":2109,"Ġbeen":2110,"The":2111,"gr":2112,"ING":2113,"pk":2114,"Ġpassword":2115,"peri":2116,"pub":2117,"ics":2118,"cf":2119,"Ġhandle":2120,"tuple":2121,"Ġ''":2122,"Ġsk":2123,"ĠCheck":2124,"warning":2125,"utf":2126,"now":2127,"itude":2128,"ptional":2129,"network":2130,"entry":2131,"Ġcreated":2132,"body":2133,"vals":2134,"Ġraw":2135,"comment":2136,"serial":2137,"iple":2138,"columns":2139,"over":2140,"Ġbin":2141,"uage":2142,"ĉĉĉ":2143,"coord":2144,"anguage":2145,"rop":2146,"vironment":2147,"olean":2148,"meta":2149,"Ġerr":2150,"Ġexists":2151,"11":2152,"seq":2153,"lasses":2154,"ugin":2155,"-+":2156,"other":2157,"Ġcalcul":2158,"org":2159,"section":2160,"lambda":2161,"results":2162,"etch":2163,"riter":2164,"ĠNot":2165,"sample":2166,"Ġpoints":2167,"istr":2168,"(**":2169,"Ġreference":2170,"Fa":2171,"ĠET":2172,"Ġchunk":2173,"issing":2174,"0000":2175,"vices":2176,"cho":2177,"sup":2178,"Ġdiffe":2179,"Ġlike":2180,"save":2181,"Ġbound":2182,"conf":2183,"decode":2184,"entity":2185,"ait":2186,"=[":2187,"pon":2188,"speci":2189,"Ġsee":2190,")[":2191,"Ġsettings":2192,"quire":2193,"lice":2194,"irs":2195,"ymbol":2196,"Ġmask":2197,"Ġsave":2198,"Ġdescription":2199,"pack":2200,"next":2201,"Lo":2202,"labels":2203,"grid":2204,"gest":2205,"parameters":2206,"tails":2207,"Ġfinal":2208,"older":2209,"derr":2210,"step":2211,"medi":2212,"mark":2213,"olution":2214,"ants":2215,"extra":2216,"batch":2217,"try":2218,"pace":2219,"ĠRa":2220,"ttribute":2221,"Not":2222,"full":2223,"CE":2224,"description":2225,"gex":2226,"Ġshow":2227,"Ġgo":2228,"ride":2229,"Ġkeyword":2230,"Col":2231,"ob":2232,"let":2233,"\\\\":2234,"layer":2235,"Ġop":2236,"ĠSee":2237,"roll":2238,"ĠURL":2239,"Ġattributes":2240,"Ġdatabase":2241,"paths":2242,"Ġexample":2243,"Ġlat":2244,"ng":2245,"Ġstep":2246,"Ġpi":2247,"ush":2248,"ript":2249,"hed":2250,"Ġhash":2251,"Ġenv":2252,"arn":2253,"alog":2254,"Ġcharact":2255,"rol":2256,"Ġwidth":2257,"Ġsuccess":2258,"'][":2259,"ined":2260,"indi":2261,"Ġbased":2262,"UN":2263,"cp":2264,"mean":2265,"Ġdefined":2266,"clu":2267,"Ġposition":2268,"vious":2269,"comple":2270,"Ġtypes":2271,"ĠExample":2272,"pdate":2273,"Ġlib":2274,"PO":2275,"').":2276,"__['":2277,"left":2278,"CH":2279,"den":2280,"has":2281,"Ġpython":2282,"matrix":2283,"Ġtree":2284,"tocol":2285,"alys":2286,"Ġsplit":2287,"Ġencoding":2288,"mg":2289,"``,":2290,"oper":2291,"cade":2292,"umber":2293,"Ġthem":2294,"extend":2295,"Ġselect":2296,"stat":2297,"Ġrandom":2298,"mult":2299,"Ġrequests":2300,"objects":2301,"Ġcli":2302,"Ġwhether":2303,"salt":2304,"Ġpub":2305,"ponse":2306,"diff":2307,"annot":2308,"Ġdepend":2309,"Ġstop":2310,"Ġidx":2311,"package":2312,"Ġ'/":2313,"Ġlabels":2314,"Ġhttp":2315,"Ġaccess":2316,"ves":2317,"aded":2318,"Config":2319,"Ġob":2320,"Ġfeature":2321,"ĠIt":2322,"Object":2323,"MP":2324,"Ġjust":2325,"ĠTODO":2326,"Ġ'-":2327,"keep":2328,"unter":2329,"Ġview":2330,"ffix":2331,"orig":2332,"Ġlayer":2333,"oci":2334,":`~":2335,"alid":2336,"Ġreplace":2337,"DI":2338,"FA":2339,"ĠNote":2340,"bound":2341,"inst":2342,"Ġvector":2343,"Ġeither":2344,"Create":2345,"rapper":2346,"ATE":2347,"password":2348,"Ġwant":2349,"Ġ\"%":2350,"Ġind":2351,"Ġstd":2352,"addr":2353,"Ġbatch":2354,"Ġelements":2355,"Ġexisting":2356,"No":2357,"Ġdelete":2358,"ĠĠĠĠĠĠĠĠĠĠĠĠĠĠĠĠĠĠĠĠĠĠĠĠĠĠĠĠĠĠ":2359,"Ġopt":2360,"vate":2361,"ĠKeyError":2362,"dump":2363,"stead":2364,"device":2365,"esc":2366,"Ġrule":2367,"connection":2368,"ĠRun":2369,"thing":2370,".\"":2371,"LA":2372,"na":2373,"ww":2374,"pc":2375,"Ġsa":2376,"rm":2377,"profile":2378,"cies":2379,"gress":2380,"20":2381,"zone":2382,"ssible":2383,"src":2384,"Dict":2385,"Ġforce":2386,"Ġinteger":2387,"Ġvari":2388,"valu":2389,"entic":2390,"gin":2391,"ince":2392,"','":2393,"Ġcorrespon":2394,"schema":2395,"Ġstrings":2396,"Path":2397,"Ġpost":2398,"Ġschema":2399,"Ġ'{":2400,"Ġaccount":2401,"ranch":2402,"Ġright":2403,"Ġprofile":2404,")),":2405,"first":2406,"Ġcontainer":2407,"ribution":2408,"Ġmark":2409,"Ġotherwise":2410,"olve":2411,"posit":2412,"wh":2413,"Ġtmp":2414,"groups":2415,"rary":2416,"Ġsuper":2417,"sa":2418,"med":2419,"brocade":2420,"stop":2421,"Ġoriginal":2422,"exc":2423,"Ġconnect":2424,"ily":2425,"CT":2426,"Ġsystem":2427,"rough":2428,"requ":2429,"tr":2430,"ĠJSON":2431,"FF":2432,"reshold":2433,"'''":2434,"Class":2435,"active":2436,"ĠName":2437,"]):":2438,"rule":2439,"duct":2440,"domain":2441,"cause":2442,"Ġzip":2443,"vari":2444,"dataset":2445,"delta":2446,"math":2447,"crypt":2448,"rate":2449,"stats":2450,"helper":2451,"fs":2452,"igma":2453,"random":2454,"ĠDi":2455,"show":2456,"Ġhere":2457,"alysis":2458,"zip":2459,"tags":2460,"sys":2461,"handler":2462,"Th":2463,"style":2464,"ias":2465,"raph":2466,"-+-+":2467,"opt":2468,"Invalid":2469,"Ġcoordin":2470,"En":2471,"Ġvariables":2472,"samples":2473,"ven":2474,"system":2475,"Ġexc":2476,"zeros":2477,"gory":2478,"Ġsection":2479,"ĠRes":2480,"Ġdesc":2481,"true":2482,"rows":2483,"ten":2484,"=(":2485,"Request":2486,"onents":2487,"side":2488,"Ġoperation":2489,"Ġsi":2490,"Ġglobal":2491,"access":2492,"Ġcontains":2493,"Ġfl":2494,"Ġpayload":2495,"Ġmeta":2496,"}\".":2497,"raise":2498,"lied":2499,"Ġthey":2500,"atter":2501,"tmp":2502,"Ġinstead":2503,"Ġcond":2504,"rel":2505,"shot":2506,"ĠHTTP":2507,"eded":2508,"ero":2509,"Ġrows":2510,"ings":2511,"TION":2512,"Ġcustom":2513,"rec":2514,"Ġlambda":2515,"mal":2516,"Ġpla":2517,"Ġstat":2518,"Ġregion":2519,"direct":2520,"ived":2521,"directory":2522,"dev":2523,"Ġge":2524,"Returns":2525,"ators":2526,"Ġqueue":2527,"verage":2528,"Ġhandler":2529,"unit":2530,"ndarray":2531,"ton":2532,"mplemented":2533,"Ġfig":2534,"Ġmapping":2535,"cell":2536,"OT":2537,"Ġfollowing":2538,"txt":2539,"Ġnow":2540,"TYPE":2541,"Ġ'_":2542,"Ġunicode":2543,"Po":2544,"Ġwindow":2545,"ĠRaises":2546,"ices":2547,"Ġmissing":2548,"Ġleft":2549,"total":2550,"Cont":2551,"ĠPython":2552,"Ġdon":2553,"Ġdistance":2554,"wd":2555,"ĠMe":2556,"Ġopts":2557,"Ġtags":2558,"nder":2559,"nap":2560,"rip":2561,"abs":2562,"Ġignore":2563,"Ġ'\\":2564,"ĠLo":2565,"Ġplt":2566,"ransp":2567,"CON":2568,"ie":2569,"Ġ[\"":2570,"ason":2571,"Ġdir":2572,"Ġip":2573,"tect":2574,"Ġfailed":2575,"optional":2576,"Ġmultiple":2577,"day":2578,"ink":2579,"Ġunique":2580,"az":2581,"Ġwait":2582,"Ġsix":2583,"Ġdirect":2584,"height":2585,"IT":2586,"Ġremo":2587,"SubElement":2588,"fra":2589,"Ġus":2590,"Ġhttps":2591,"chain":2592,"NAME":2593,"Ġpattern":2594,"ĠTo":2595,"04":2596,"sv":2597,"book":2598,"ware":2599,"gy":2600,"ker":2601,"\"],":2602,"Node":2603,"Ġ(\"":2604,"hell":2605,"select":2606,"Ġseconds":2607,"username":2608,"Ġpd":2609,"Ġmean":2610,"Ġsrc":2611,"Form":2612,"Ġdifferent":2613,"Ġsent":2614,"ffect":2615,"Ġsupported":2616,"buffer":2617,"Ġunit":2618,"ĠLO":2619,"andard":2620,"Log":2621,"normal":2622,"her":2623,"Ġ',":2624,"Ite":2625,"Ġproperties":2626,"ĠOptional":2627,"EL":2628,"Ġremote":2629,"gorith":2630,"02":2631,"itch":2632,"ek":2633,"Ġverbose":2634,"dest":2635,"ULT":2636,"String":2637,"ET":2638,"aml":2639,"lative":2640,"ĠWh":2641,"Ġadded":2642,"namespace":2643,"Ġabs":2644,"Ġfail":2645,"Ġparsed":2646,"Ġ7":2647,"alled":2648,"dot":2649,"Ġpk":2650,"vo":2651,"ites":2652,"interface":2653,"termin":2654,"Index":2655,"hist":2656,"ered":2657,"Ġusername":2658,"Ġserial":2659,"Ġspecify":2660,"ced":2661,"Ġskip":2662,"Ġund":2663,"timestamp":2664,"Ġpresent":2665,"Ġsignal":2666,"Ġpol":2667,"make":2668,"position":2669,"stim":2670,"indices":2671,"eve":2672,"Ġsecond":2673,"redential":2674,"Ġpe":2675,"tach":2676,"andas":2677,"NT":2678,"fici":2679,"down":2680,"python":2681,"asure":2682,"ĠĠĠĠĠĠĠĠĠĠĠĠĠĠĠĠĠĠĠĠĠĠĠĠĠĠĠĠĠĠĠĠĠ":2683,"Ġwarning":2684,"Ġassoci":2685,"cret":2686,"ply":2687,"bl":2688,"Ġmy":2689,"Ġ\".":2690,"Check":2691,"can":2692,"Ġ{\"":2693,"Ġgenerate":2694,"Ġ{}\".":2695,"Ġbecause":2696,"15":2697,"SC":2698,"Ġprevious":2699,"Ġrel":2700,"account":2701,"curs":2702,"scale":2703,"Ġlong":2704,"Ġproperty":2705,"Ġsim":2706,"24":2707,"Ġedge":2708,"const":2709,"ually":2710,"Ġreport":2711,"straint":2712,"models":2713,"ĠComp":2714,"chron":2715,"Ġdisplay":2716,"Ġinvalid":2717,"Ġstore":2718,"Ġflag":2719,"\"])":2720,"Ġmain":2721,"way":2722,"plo":2723,"exit":2724,"Ġwithin":2725,"Ġcons":2726,"Comp":2727,"Ġrece":2728,"ences":2729,"ĠUse":2730,"Ġtake":2731,"errors":2732,"Ġextract":2733,"Qu":2734,"pository":2735,"gre":2736,"Ġnote":2737,"known":2738,"ighb":2739,"'}":2740,"Ġheight":2741,"Ġexpected":2742,"serv":2743,"cc":2744,"ĠĠĠĠĠĠĠĠĠĠĠĠĠĠĠĠĠĠĠĠĠĠĠĠĠĠĠĠĠĠĠĠĠĠĠĠĠĠĠ":2745,"ways":2746,"Ġdomain":2747,"mount":2748,"stdout":2749,"istry":2750,"stru":2751,"uture":2752,"Ġthrough":2753,"pattern":2754,"ĠGener":2755,"Ġpossible":2756,"import":2757,"Ġtheir":2758,"Ġsamples":2759,"ian":2760,"Ġbyte":2761,"chunk":2762,"sq":2763,"Array":2764,"Ġloop":2765,"cut":2766,"Ġregister":2767,"rest":2768,"au":2769,"river":2770,"</":2771,"Ġsepar":2772,"fit":2773,"Ġappro":2774,"ared":2775,"Ġiss":2776,"Ġcent":2777,"ynchron":2778,"Ġtrain":2779,"Response":2780,"proxy":2781,"Ġmaximum":2782,"ift":2783,"ier":2784,"window":2785,"ured":2786,"ANG":2787,"Ġtimestamp":2788,"ithub":2789,"Ġtrue":2790,"numpy":2791,"Ġxml":2792,"Ġmerge":2793,"depth":2794,"Ġindices":2795,"Ġvis":2796,"ely":2797,"State":2798,"vider":2799,"Ġinterface":2800,"calar":2801,"Ġmon":2802,"gorithm":2803,"methods":2804,"attrs":2805,"angle":2806,"Ġconn":2807,"Ġcorrect":2808,"Ġmod":2809,"Ġidentifier":2810,"]),":2811,"sets":2812,"Text":2813,"Ġgrid":2814,"FAULT":2815,"sl":2816,"train":2817,"cker":2818,"Ġspec":2819,"tract":2820,"Ġdecor":2821,"Ġscale":2822,"Ġdisable":2823,"Ġspecific":2824,"Ġsuch":2825,"ĠSer":2826,"ater":2827,"ĠAttribute":2828,"cast":2829,"upper":2830,"Ġresp":2831,"Ġbeing":2832,"Ġstack":2833,"properties":2834,"andid":2835,"ically":2836,"ĠĠĠĠĠĠĠĠĠĠĠĠĠĠĠĠĠĠĠĠĠĠĠĠĠĠĠĠĠĠĠĠĠĠĠĠ":2837,"Ġmatches":2838,"uted":2839,"Ġpaths":2840,"sequence":2841,"ĠĠĠĠĠĠĠĠĠĠĠĠĠĠĠĠĠĠĠĠĠĠĠĠĠĠĠĠĠĠĠĠĠĠ":2842,"ĠIP":2843,"AB":2844,"cores":2845,"site":2846,"oto":2847,"Ġtransform":2848,"wait":2849,"execute":2850,"Ġ9":2851,"desc":2852,"Ġsite":2853,"factor":2854,"thread":2855,"napshot":2856,"Ġyour":2857,"ĠLOG":2858,"Ġassign":2859,"Ġwithout":2860,"mbed":2861,"encies":2862,"raises":2863,"Ġcell":2864,"Ġ):":2865,"Ġboth":2866,"Ġkeep":2867,"50":2868,"git":2869,"Item":2870,"Ġboolean":2871,"80":2872,"repo":2873,"ä¸":2874,"DB":2875,"Ġevery":2876,"men":2877,"Ġaccept":2878,"Ġfit":2879,"global":2880,"empty":2881,"non":2882,"Ġenvironment":2883,"features":2884,"ĠOn":2885,"case":2886,"bab":2887,"Ġhist":2888,"lector":2889,"Ġcollection":2890,"Ġdebug":2891,"Ġthese":2892,"actions":2893,"Event":2894,"dified":2895,"manager":2896,"Ġendpoint":2897,"latform":2898,"Ġcorresponding":2899,"Sh":2900,"Ġinit":2901,"poch":2902,"lap":2903,"vars":2904,"feature":2905,"US":2906,"/{":2907,"cle":2908,"late":2909,"coder":2910,"oid":2911,"any":2912,"head":2913,"ĉĉĉĉ":2914,"Ġctx":2915,"until":2916,"reference":2917,"33":2918,"conn":2919,"KE":2920,"Ġreal":2921,".'":2922,"uplic":2923,"tax":2924,"TR":2925,"IO":2926,"Found":2927,"Ġabout":2928,"ia":2929,"lab":2930,"coded":2931,"ross":2932,"required":2933,"Ġpop":2934,"region":2935,"tf":2936,"just":2937,"('\\":2938,"Ġexpression":2939,"arr":2940,"initial":2941,"Ġsure":2942,"Ġrunning":2943,"cer":2944,"Ġapply":2945,"ended":2946,"Ġclean":2947,"Ġ'--":2948,"seconds":2949,"Ġindic":2950,"mbers":2951,"Ġretri":2952,"An":2953,"Ġzero":2954,"classes":2955,"Info":2956,"Ġ'*":2957,"requency":2958,"edge":2959,"Ġvert":2960,"Ġfix":2961,"https":2962,"Model":2963,"Ġstructure":2964,"Ġrest":2965,"mapping":2966,"Ġweights":2967,"Ġconf":2968,"stderr":2969,"inis":2970,"Ġcomponent":2971,"cloud":2972,"meth":2973,"vision":2974,"ground":2975,"gine":2976,"Ġcho":2977,"ĠSh":2978,"Ġ201":2979,"tc":2980,"ogle":2981,"gments":2982,"transform":2983,"Failed":2984,"Ġdoesn":2985,"ire":2986,"Ġwrit":2987,"Ġcluster":2988,"TER":2989,"_{":2990,"_,":2991,"score":2992,"SO":2993,"alle":2994,"Ġcate":2995,"Ġcannot":2996,"55":2997,"greg":2998,"Ġmatching":2999,"Ġinclu":3000,"Ġaut":3001,"insert":3002,"Ġdefaults":3003,"folder":3004,"Ġspace":3005,"ilter":3006,"termine":3007,"Ġunder":3008,"lan":3009,"encoding":3010,"less":3011,"Ġreq":3012,"ws":3013,"lig":3014,"19":3015,"Ġscope":3016,"patch":3017,"201":3018,"board":3019,"okup":3020,"[:-":3021,"Ġbit":3022,"tail":3023,"alcul":3024,"bers":3025,":%":3026,"Ġfn":3027,"ynchronous":3028,"Ġseries":3029,"common":3030,"year":3031,"added":3032,"trics":3033,"DataFrame":3034,"ported":3035,"DF":3036,"cheme":3037,"__,":3038,"Ġnd":3039,"Read":3040,"ority":3041,"Ġvolume":3042,"Ġcould":3043,"attributes":3044,"Ġ{}'.":3045,"Ġdelta":3046,"14":3047,"lim":3048,"af":3049,"ik":3050,"ivity":3051,"idden":3052,"Ġtimes":3053,"validate":3054,"eps":3055,"Ġvalidate":3056,"EX":3057,"used":3058,"Ġ100":3059,"tom":3060,"redentials":3061,"Ġhow":3062,"itive":3063,"Ġang":3064,"children":3065,"User":3066,"30":3067,"ĠZ":3068,"Ġconst":3069,"aries":3070,"Ġstats":3071,"Ġtr":3072,"ertifi":3073,"atio":3074,"Bu":3075,"Ġsince":3076,"Ġmemory":3077,"VER":3078,"norm":3079,"words":3080,"By":3081,"tered":3082,"ulation":3083,"olver":3084,"Ġagain":3085,"parts":3086,"ient":3087,"scope":3088,"vec":3089,"izes":3090,"pid":3091,"=%":3092,"Ġparts":3093,"Ġ12":3094,"dius":3095,"100":3096,"Ġcallable":3097,"lish":3098,"warn":3099,"ives":3100,"nan":3101,"Client":3102,"Ġ'{}":3103,"Parser":3104,"################":3105,"Ġchanges":3106,"dt":3107,"licit":3108,"where":3109,"ness":3110,"Ġallowed":3111,"}.":3112,"sure":3113,"center":3114,"Message":3115,"Instance":3116,"Ġscript":3117,"depend":3118,"Ġalpha":3119,"SP":3120,"Ġcompute":3121,"ĠAttributeError":3122,"Ġchain":3123,"Field":3124,"adding":3125,"TO":3126,"email":3127,"SH":3128,"Ġseq":3129,"*(":3130,"Ġevents":3131,"cols":3132,"lon":3133,"Ġhigh":3134,"Result":3135,"Ġassociated":3136,"Ġlon":3137,"peline":3138,"vm":3139,"NO":3140,"Ġtokens":3141,"ferences":3142,"card":3143,"loop":3144,"('/":3145,"ĠExamples":3146,"series":3147,"bits":3148,"Ġmessages":3149,"\"))":3150,"Ġestim":3151,"units":3152,"Ġda":3153,"ision":3154,"Ġdepth":3155,"Ġlower":3156,"leg":3157,"Ġfunctions":3158,"ox":3159,"tools":3160,"Ġdone":3161,"Ġwould":3162,"ending":3163,"Ġroute":3164,"IP":3165,"ED":3166,"cfg":3167,"csv":3168,"ha":3169,"ctx":3170,"identifier":3171,"hex":3172,"olute":3173,"ometry":3174,"ynam":3175,"Ġfeatures":3176,"Ġnet":3177,"ensity":3178,"AP":3179,"docs":3180,"Ġsocket":3181,"lem":3182,"Ġutils":3183,"ĠRuntime":3184,"Ġow":3185,"leted":3186,"Ġflags":3187,"ĠCLI":3188,"payload":3189,"Ġfactor":3190,"dr":3191,"Ġcomment":3192,"Ġyang":3193,"Ġequal":3194,"eno":3195,"ĠWhen":3196,"uuid":3197,"policy":3198,"Ġour":3199,"interval":3200,"Ġrelative":3201,"()):":3202,"iod":3203,"atten":3204,"Or":3205,"MO":3206,"Ġimp":3207,"Ġstyle":3208,"Ġapplication":3209,"Ġneeded":3210,"auto":3211,"}\\":3212,"}{":3213,"Ġalign":3214,"Ġfra":3215,"omat":3216,"als":3217,"Ġbest":3218,"Ġemail":3219,"Ġcursor":3220,"Ġpix":3221,"aly":3222,"rf":3223,"Ġentity":3224,"(-":3225,"Ġcontents":3226,"Ġtri":3227,"Ġevalu":3228,"Ġdt":3229,"Ġiterable":3230,"Ġcoordinates":3231,"endswith":3232,"fast":3233,"Run":3234,"pac":3235,"report":3236,"Ġbinary":3237,"ĠFile":3238,"commit":3239,"press":3240,"\"),":3241,"Ġwhat":3242,"tick":3243,"els":3244,"Ġproxy":3245,"URL":3246,"GET":3247,"Ġdownload":3248,"align":3249,"Ġ((":3250,"exceptions":3251,"UR":3252,"unique":3253,"cessed":3254,"Ġtx":3255,"Ġvia":3256,"Ġoc":3257,"variables":3258,"Group":3259,">`":3260,"Ġassume":3261,"attribute":3262,"Ġannot":3263,"ze":3264,"}'":3265,"QU":3266,"Ġcre":3267,"changes":3268,"AM":3269,"ged":3270,"ration":3271,"Ġdetails":3272,"Ġinputs":3273,"leep":3274,"BU":3275,"curity":3276,"Argument":3277,"ĠĠĠĠĠĠĠĠĠĠĠĠĠĠĠĠĠĠĠĠĠĠĠĠĠĠĠĠĠĠĠĠĠĠĠĠĠ":3278,"Ġadditional":3279,"Ġinstances":3280,"metric":3281,"Ġentries":3282,"Ġremoved":3283,"Ġauthor":3284,"ilder":3285,"ving":3286,"witch":3287,"Ġmath":3288,"Ġ\"{":3289,"Ġmethods":3290,"trace":3291,"Ġdimension":3292,"Ġsegment":3293,"convert":3294,"prec":3295,"App":3296,"Ġgroups":3297,"****":3298,"Ġclose":3299,"Ġindent":3300,"Ġplugin":3301,"'](":3302,"Out":3303,"ĠNo":3304,"('%":3305,"================":3306,"long":3307,"pix":3308,"spe":3309,"tokens":3310,"ES":3311,"ends":3312,"Ġupdated":3313,"sid":3314,"register":3315,"aved":3316,"Ġrepo":3317,"ersion":3318,"distance":3319,"qa":3320,"mpt":3321,"PAT":3322,"hes":3323,"Session":3324,"Ġlanguage":3325,"34":3326,"Ġstorage":3327,"dec":3328,"Ġmetric":3329,"ĠĠĠĠĠĠĠĠĠĠĠĠĠĠĠĠĠĠĠĠĠĠĠĠĠĠĠĠĠĠĠĠĠĠĠĠĠĠ":3330,"60":3331,"unicode":3332,"dumps":3333,"Ġarch":3334,"Ġextension":3335,"clean":3336,"Ġalways":3337,"document":3338,"Py":3339,"Ġrepresenting":3340,"pare":3341,"serialize":3342,"dims":3343,"TH":3344,"('-":3345,"Ġperform":3346,"ATI":3347,"Ġfolder":3348,"environ":3349,"Ġsignature":3350,"ulate":3351,"gp":3352,"Ġ},":3353,"()))":3354,"asic":3355,"parameter":3356,"allow":3357,"strict":3358,"Ġcomb":3359,"Ġunits":3360,"logging":3361,"Ġdown":3362,"Ġscore":3363,"Auth":3364,"chine":3365,"vs":3366,"cos":3367,"Ġterm":3368,"Ġinsert":3369,"amily":3370,"Ġrequire":3371,"ru":3372,"Ġpredi":3373,"lint":3374,".*":3375,"flags":3376,"img":3377,"Inter":3378,"remote":3379,"sql":3380,"uting":3381,"ĠRuntimeError":3382,"cimal":3383,"Ġbuffer":3384,"inte":3385,"ERR":3386,"ĠUpdate":3387,"()[":3388,"DEFAULT":3389,"wrap":3390,"zero":3391,"({'":3392,"Ġaxes":3393,"GER":3394,"Ġstandard":3395,"real":3396,"Context":3397,"ĠDo":3398,"plotlib":3399,"hook":3400,"cursor":3401,"utable":3402,"ĠCh":3403,"Pre":3404,"Ġclick":3405,"missions":3406,"Ġtrace":3407,"Ġstdout":3408,"(['":3409,"ĠDefaults":3410,"quences":3411,"Ġcharacters":3412,"blem":3413,"chedule":3414,"Ġmulti":3415,"rence":3416,"ole":3417,"Ġstored":3418,"fill":3419,"Ġ\"/":3420,"Ġbox":3421,"loads":3422,"Ġrequested":3423,"ĠDE":3424,"ively":3425,"sqrt":3426,"Ġ\"\\":3427,"bind":3428,"Ġhparams":3429,"Ġprivate":3430,"defin":3431,"Ġdistribution":3432,"Ġretry":3433,"ĠOr":3434,"KEY":3435,"alpha":3436,"expected":3437,"ters":3438,"mac":3439,"Ġwrap":3440,"Ġ})":3441,"ĠOther":3442,"edges":3443,"author":3444,"cluster":3445,"Process":3446,"Ġ_,":3447,"fact":3448,"quires":3449,"spect":3450,"fg":3451,"sep":3452,"Ġnoqa":3453,"Ġplace":3454,"Ġcommon":3455,"Handler":3456,"period":3457,"force":3458,"IL":3459,"QL":3460,"null":3461,"Ġsur":3462,"Ġloc":3463,"figs":3464,"times":3465,"Ġrole":3466,"Ġht":3467,"ĠArgument":3468,"sm":3469,"ui":3470,"formed":3471,"dat":3472,"ilt":3473,"ango":3474,"Ġrepresentation":3475,"ĠNumber":3476,"corre":3477,"Ġfill":3478,"Size":3479,"merge":3480,"Ġker":3481,"display":3482,"jobs":3483,"route":3484,"Ġinterval":3485,"ĠIO":3486,"uring":3487,"collection":3488,"(\"%":3489,"Ġndarray":3490,"je":3491,"dirname":3492,"Gener":3493,"sec":3494,"eric":3495,"atted":3496,"fetch":3497,"Per":3498,"events":3499,"Parse":3500,"Ġ-=":3501,"Ent":3502,"Ġsm":3503,"sn":3504,"Ġcomplete":3505,"rtual":3506,"Ġcor":3507,"states":3508,"-%":3509,"Ġcat":3510,"ength":3511,"Ġuntil":3512,"weights":3513,"cb":3514,"ane":3515,"pool":3516,"Ġactive":3517,"Ġmeans":3518,"fname":3519,"Ġexit":3520,"coords":3521,"/%":3522,"HE":3523,"periment":3524,"ĠĠĠĠĠĠĠĠĠĠĠĠĠĠĠĠĠĠĠĠĠĠĠĠĠĠĠĠĠĠĠĠĠĠĠĠĠĠĠĠ":3525,"ertificate":3526,"des":3527,"Ġim":3528,"sted":3529,"bot":3530,"13":3531,"storage":3532,"ĠDataFrame":3533,"Ġdestination":3534,"__)":3535,"Ġnamed":3536,"API":3537,"github":3538,"xx":3539,"Ġshort":3540,"Ġmost":3541,"ĠApp":3542,"Ġneg":3543,"ĠValid":3544,"sens":3545,"Ġexclude":3546,"Ġinstall":3547,"vers":3548,"prop":3549,"ĠPath":3550,"include":3551,"come":3552,"Ġwere":3553,"Ġgenerator":3554,"dio":3555,"Ġ'*'":3556,"Ġpair":3557,"lack":3558,"Ġsubject":3559,"Ġgenerated":3560,"Ġrecords":3561,"AS":3562,"Rec":3563,"'\\":3564,"ler":3565,"UP":3566,"ĠAny":3567,"reshape":3568,"Table":3569,"Ġbash":3570,"ransport":3571,"Ġinternal":3572,"verbose":3573,"Ġcharacter":3574,"Te":3575,"Ġrec":3576,"18":3577,"Ġzone":3578,".)":3579,"_.":3580,"clear":3581,"Ġuri":3582,"member":3583,"defaults":3584,"Ġactual":3585,"Ġimg":3586,"Ġcompat":3587,"flag":3588,"ĠAl":3589,"ĠRE":3590,"Ġ\",":3591,"Ġperiod":3592,"Ġsetting":3593,"help":3594,"Input":3595,"amma":3596,"codes":3597,"ather":3598,"Ġfmt":3599,"Ġwrapper":3600,"istered":3601,"entication":3602,"PC":3603,"Ġselected":3604,"={}":3605,"ĠMake":3606,"master":3607,"modules":3608,"ams":3609,"Ġmedi":3610,"Ġdirectly":3611,"ĠĠĠĠĠĠĠĠĊ":3612,"ues":3613,"layers":3614,"sired":3615,"lections":3616,"loaded":3617,"ĠPer":3618,"inputs":3619,"Base":3620,"defined":3621,"volume":3622,"Ġmodels":3623,"Ġensure":3624,"Query":3625,"Ġbranch":3626,"otential":3627,"ignore":3628,"Ġjoin":3629,"Ġbucket":3630,"fmt":3631,"(\"\\":3632,"ĠUser":3633,"bove":3634,"roller":3635,"FO":3636,"Ġway":3637,"span":3638,"byte":3639,"Ġregex":3640,"Ġpairs":3641,"Ġids":3642,"Date":3643,"rb":3644,"Image":3645,"yg":3646,"Ġdefinition":3647,"17":3648,"cii":3649,"Ġauto":3650,"On":3651,"NS":3652,"Ġleast":3653,"Ġday":3654,"Ġsuffix":3655,"Ġattemp":3656,"PRO":3657,"role":3658,"summary":3659,"ĠIndex":3660,"gb":3661,"ND":3662,"Ġprobab":3663,"phi":3664,"sen":3665,"Ġart":3666,"fic":3667,"rl":3668,"LOG":3669,"application":3670,"served":3671,"CK":3672,"tion":3673,"ĠĠĠĠĠĠĠĠĠĠĠĠĠĠĠĠĠĠĠĠĠĠĠĠĠĠĠĠĠĠĠĠĠĠĠĠĠĠĠĠĠĠĠ":3674,"Trans":3675,"Count":3676,"Ġpylint":3677,"regex":3678,"Ġpool":3679,"Le":3680,"Update":3681,"kind":3682,"Ġdisk":3683,"fd":3684,"Content":3685,"utation":3686,"miss":3687,"Ġoptim":3688,"Ġlists":3689,"alias":3690,"Ġsuccessful":3691,"light":3692,"Ġimplement":3693,"Ġut":3694,"Ġsql":3695,"tact":3696,"WS":3697,"socket":3698,"ene":3699,"Ġlar":3700,"Reg":3701,"ports":3702,"alk":3703,"He":3704,"Ġ'',":3705,"cip":3706,"56":3707,"ï¼":3708,"cording":3709,"install":3710,"argv":3711,"]+":3712,"Ġfilters":3713,"Ġrender":3714,"ower":3715,"Ġctypes":3716,"counts":3717,"Ġappend":3718,"Ġhtml":3719,"Ġsym":3720,"Ġoverride":3721,"lookup":3722,"yntax":3723,"Ġkw":3724,"cessary":3725,"Ġdirection":3726,"ĠEn":3727,"Ġpolicy":3728,"Ġfalse":3729,"ploy":3730,"ĠOS":3731,"custom":3732,"Valid":3733,"ĠTime":3734,"signal":3735,"Ġcommit":3736,"allback":3737,"VAL":3738,"slice":3739,"symbol":3740,"Ġrot":3741,"effici":3742,"Ġimages":3743,"Ġmany":3744,"secret":3745,"Ġbl":3746,"expr":3747,"Ġgre":3748,"Ġreverse":3749,"Ġcalling":3750,"Ġder":3751,"Ġ%(":3752,"Ġneeds":3753,"Ġyear":3754,"Ġedges":3755,"Ġupper":3756,",)":3757,"osition":3758,"Ġhead":3759,"ĠWhether":3760,"Ġwarnings":3761,"Ġ200":3762,"Ġextensions":3763,"ĠString":3764,"Ġ$":3765,"jango":3766,"release":3767,"Ġfont":3768,"kets":3769,"ĠAs":3770,"mpling":3771,"FILE":3772,"Ġprop":3773,"Dis":3774,"ĠCol":3775,"Ġanalysis":3776,"endpoint":3777,"success":3778,"ATION":3779,"ilar":3780,"rain":3781,"Ġfp":3782,"Ġflow":3783,"counter":3784,"widget":3785,"obs":3786,"steps":3787,"Ġdraw":3788,"Ġmu":3789,"Ġcy":3790,"language":3791,"mu":3792,"}\"":3793,"ressed":3794,"foo":3795,"after":3796,"property":3797,"Ġarrays":3798,"Ġwidget":3799,"heet":3800,"Ġalgorithm":3801,"Ġtransaction":3802,"Ġcondition":3803,"Ġsymbol":3804,"ga":3805,"Ġattrs":3806,"Ġlock":3807,"ention":3808,")])":3809,"win":3810,"Ġprotocol":3811,"Ġuses":3812,"Ġvm":3813,"tk":3814,"Ġcalculate":3815,"ocation":3816,"Ġchanged":3817,"Graph":3818,"ases":3819,"logy":3820,"Ġdecorator":3821,"Ġthose":3822,"ribe":3823,"ĠXML":3824,"dic":3825,"Ġdetect":3826,"duce":3827,"apply":3828,"Ġtrig":3829,"ĠInvalid":3830,"filepath":3831,"Ġprogress":3832,"tab":3833,"suffix":3834,"sorted":3835,"buf":3836,"Ġho":3837,"ĠQu":3838,"Ġbot":3839,"()]":3840,"sym":3841,"ĠOnly":3842,"changed":3843,"Ġ16":3844,"bucket":3845,"Man":3846,"Ġlookup":3847,"Ġdec":3848,"elements":3849,"Ġfname":3850,"complete":3851,"Status":3852,"('--":3853,"Ġ,":3854,"IG":3855,"This":3856,"Ġpandas":3857,"22":3858,"links":3859,"Al":3860,"uter":3861,"ense":3862,"Ġtrack":3863,"Start":3864,"Ġ{},":3865,"Ġpkg":3866,"Iter":3867,"compile":3868,"Ġamount":3869,"__.":3870,"tore":3871,"maining":3872,"writ":3873,"PATH":3874,"erature":3875,"Ġ'')":3876,")*":3877,"ified":3878,"IM":3879,"istics":3880,"download":3881,"okie":3882,"Ġminimum":3883,"lev":3884,"pter":3885,"200":3886,"www":3887,"velo":3888,"Ġchildren":3889,"ĠBy":3890,"database":3891,"gate":3892,"ERROR":3893,"Ġmember":3894,"Ġcomponents":3895,"sole":3896,"faces":3897,"Number":3898,"ĠOtherwise":3899,"Ġslice":3900,"contents":3901,"acy":3902,"utton":3903,"POST":3904,"nn":3905,"Exec":3906,"Ġconver":3907,"Ġautomat":3908,"Version":3909,"ugins":3910,"Ġ\"_":3911,"gt":3912,"assign":3913,"axes":3914,"SION":3915,"imer":3916,"ĠRead":3917,"Ġmag":3918,"Ġ//":3919,"Ġscan":3920,"Ġlibrary":3921,"ons":3922,"Ġsupp":3923,"Series":3924,"multi":3925,"ocab":3926,"ĠConfig":3927,"-+-+-+-+":3928,"oms":3929,"DS":3930,"Ġprev":3931,"freq":3932,"none":3933,"CS":3934,"sig":3935,"sim":3936,"Ġanother":3937,"fail":3938,"eval":3939,"font":3940,"iew":3941,"month":3942,"vide":3943,"Ġfinally":3944,"Ġ[(":3945,"Ġnumbers":3946,"lex":3947,"urse":3948,"tty":3949,"Ġhy":3950,"Ġrate":3951,"Ġcommands":3952,"Ġabove":3953,"}}":3954,"details":3955,"Ġangle":3956,"Ġsummary":3957,"Ġcandid":3958,"Ġfetch":3959,"basename":3960,"expand":3961,"resses":3962,"ĠConvert":3963,"Ġrelation":3964,"Ġaccording":3965,"Map":3966,"resources":3967,"]*":3968,"OP":3969,"Ġetc":3970,"sha":3971,"channels":3972,"UM":3973,"public":3974,"=_":3975,"ĠRemove":3976,"arm":3977,"ypes":3978,"generate":3979,"Ġtensor":3980,"Ġcenter":3981,"Ġstates":3982,"For":3983,"IS":3984,"....":3985,"501":3986,"Ġasync":3987,"çļ":3988,":-":3989,"Ġkind":3990,"Ġsubprocess":3991,"Ġdat":3992,"'re":3993,"Ġalias":3994,"pkg":3995,")/":3996,"rag":3997,"Ġbar":3998,"ifier":3999,"Ġpublic":4000,"ĠBu":4001,"area":4002,"ship":4003,"admin":4004,"çļĦ":4005,"Ġthreshold":4006,"ĠĠĠĠĠĠĠĠĠĠĠĠĠĠĠĠĠĠĠĠĠĠĠĠĠĠĠĠĠĠĠĠĠĠĠĠĠĠĠĠĠ":4007,"tool":4008,"Ġverify":4009,"sigma":4010,"Line":4011,"agent":4012,"Ġfuture":4013,"Ġproduct":4014,"RA":4015,"eff":4016,"astype":4017,"From":4018,"Desc":4019,"Ġ\"-":4020,"Ġexpi":4021,"Ġclasses":4022,"jection":4023,"Code":4024,"andlers":4025,"Ġdimensions":4026,"('.":4027,"Ġident":4028,"66":4029,"ropy":4030,"ells":4031,"}/":4032,"icle":4033,"Ġoperator":4034,"SET":4035,"Point":4036,"Ġdesired":4037,"Ġsetup":4038,"Ġnecessary":4039,"Ġkernel":4040,"memory":4041,"abel":4042,"scan":4043,"scriptor":4044,"uint":4045,"safe":4046,"Ġrepository":4047,"Ġspe":4048,"gene":4049,"ĠNO":4050,"missing":4051,"Ġcurrently":4052,"05":4053,"spath":4054,"tz":4055,"fun":4056,"history":4057,"gg":4058,"threshold":4059,"ĠYANG":4060,"subject":4061,"plugin":4062,"Ġmaster":4063,"lies":4064,"ĠAll":4065,"Ġexecute":4066,"mass":4067,"Ġstarting":4068,"Ġ(%":4069,"colors":4070,"Ġcontrol":4071,"reset":4072,"Ġinstalled":4073,"icro":4074,"cipy":4075,"Ġ[],":4076,"Ġbro":4077,"Ġbind":4078,"Ġstderr":4079,"Ġty":4080,"Ġresources":4081,"Ġexceptions":4082,"cd":4083,"åı":4084,"ife":4085,"ĠYou":4086,"As":4087,"olved":4088,"AGE":4089,"cesses":4090,"ĠFind":4091,"03":4092,"partition":4093,"Ġoccur":4094,"Ġincluded":4095,"Ġcfg":4096,"ibility":4097,"ones":4098,"ops":4099,"short":4100,"MS":4101,"straints":4102,"Do":4103,"atches":4104,"Ġ\"{}":4105,"rand":4106,"login":4107,"segment":4108,"filters":4109,"HTTP":4110,"Ġgene":4111,"Ġreset":4112,"peration":4113,"Ġencoded":4114,"Ġpacket":4115,"\"].":4116,"Service":4117,"Ġasynchronous":4118,"ĠArguments":4119,"operation":4120,"cons":4121,"Ġignored":4122,"ines":4123,"sess":4124,"ĠSpeci":4125,"Ġshell":4126,"atterns":4127,"pars":4128,"oot":4129,"']))":4130,"Ġput":4131,"Ġwords":4132,"vidual":4133,"Ġweb":4134,"Ġbits":4135,"Ġusers":4136,"Ġside":4137,"fp":4138,"ogram":4139,"ĠĠĠĠĠĠĠĠĠĠĠĠĠĠĠĠĠĠĠĠĠĠĠĠĠĠĠĠĠĠĠĠĠĠĠĠĠĠĠĠĠĠ":4140,"ĠTrans":4141,"Ġreason":4142,"extract":4143,"Ġrelease":4144,"Ġcalls":4145,"Ġpartition":4146,"branch":4147,"Ġtermin":4148,"bins":4149,"component":4150,"category":4151,"Ġvalidation":4152,"note":4153,"gories":4154,"ĠParse":4155,"protocol":4156,"Ġorigin":4157,"inf":4158,"Connection":4159,"mediate":4160,"ĠIOError":4161,"ABLE":4162,"Ġpick":4163,"Ġupload":4164,"percent":4165,"Ġdetermine":4166,":\\":4167,"before":4168,"ĠUni":4169,"PAR":4170,"Ġsimple":4171,"Tree":4172,"mid":4173,"ric":4174,"alculate":4175,"23":4176,"hs":4177,"compute":4178,"Ġcategory":4179,")\"":4180,"sleep":4181,"Ġinv":4182,"undle":4183,"invalid":4184,"retry":4185,"ymbols":4186,"arguments":4187,"draw":4188,"pair":4189,"beta":4190,"this":4191,"cursive":4192,"enabled":4193,"factory":4194,"Ġduring":4195,"Ġmeasure":4196,"cr":4197,"Ġclear":4198,"Ġduration":4199,"lots":4200,"Ġtuples":4201,"iteritems":4202,"Str":4203,"Ġscalar":4204,"Ġalong":4205,"Ġloaded":4206,"ridge":4207,"ATA":4208,"clus":4209,"final":4210,"Ġfast":4211,"]])":4212,"bed":4213,"sd":4214,"Ġwell":4215,"skip":4216,"dify":4217,"iki":4218,"Ġ[])":4219,"inished":4220,"--------------------------------":4221,"repr":4222,"structure":4223,"ctories":4224,"âĶ":4225,"Ġeffect":4226,"setdefault":4227,"Ġraised":4228,"__(":4229,"Ġbackend":4230,"TML":4231,"ality":4232,"Ġsigma":4233,"home":4234,"Filter":4235,"Lay":4236,"nections":4237,"Ġpad":4238,"Ġdst":4239,"quival":4240,"Ġcounter":4241,"Record":4242,"firm":4243,"\"]:":4244,"matches":4245,"Ġavoid":4246,"Ġ),":4247,"lso":4248,"FOR":4249,"XX":4250,"binary":4251,"drop":4252,"priate":4253,"ifact":4254,"Ġbegin":4255,"components":4256,"Ġtoo":4257,"Ġ\"--":4258,"|'":4259,"example":4260,"Ġdeleted":4261,"Ġap":4262,"ands":4263,"Ġmonth":4264,"pad":4265,"Ġast":4266,"setup":4267,"Resource":4268,"days":4269,"crypted":4270,"Ġfrequency":4271,"loss":4272,"indent":4273,"inv":4274,"ĠPre":4275,"ural":4276,"Ġcached":4277,"Ġmodified":4278,"high":4279,"entries":4280,"%(":4281,"Ġbelow":4282,"Ġsens":4283,"track":4284,"grade":4285,"isfile":4286,"{}'.":4287,"Ġsupplied":4288,"75":4289,"deredDict":4290,"Ġduplic":4291,"precated":4292,"ks":4293,"istent":4294,"Ġvariant":4295,":])":4296,"pd":4297,"ancel":4298,"blocks":4299,"gers":4300,"rep":4301,"Ġdrop":4302,"86":4303,"condition":4304,"Of":4305,"Ġexpect":4306,"Ġsets":4307,"TIME":4308,"ascii":4309,"cert":4310,"90":4311,"Ġneighb":4312,"Obj":4313,"found":4314,"NotFound":4315,"trieve":4316,"Could":4317,"ĠIN":4318,"ars":4319,")).":4320,"Default":4321,"Ġmove":4322,"cing":4323,"Ġ[[":4324,"Ġagainst":4325,"Ġappropriate":4326,"ĠCommand":4327,"dimension":4328,"gree":4329,"Ġenabled":4330,"rer":4331,"pacity":4332,"Ġretrieve":4333,"frac":4334,"umb":4335,"commands":4336,"sin":4337,"catalog":4338,"84":4339,"GS":4340,"allel":4341,"Fe":4342,"ĠAlso":4343,"Ġstri":4344,"ours":4345,"redu":4346,"mplates":4347,")'":4348,"Ġspecial":4349,"layout":4350,"Ġonce":4351,"Ġautomatically":4352,"images":4353,"ulti":4354,"concat":4355,"Option":4356,"scape":4357,"Ġradius":4358,"Ġnorm":4359,"Ġ))":4360,"Ġexport":4361,"ĠHe":4362,"tw":4363,"Ġcolors":4364,"imp":4365,"Ġhex":4366,"records":4367,"Ġns":4368,"ling":4369,"Ġsaved":4370,"spaces":4371,"Ġmight":4372,"oriz":4373,"ii":4374,"td":4375,"Ġabsolute":4376,"reat":4377,"grees":4378,"Ġcut":4379,"nb":4380,"dirs":4381,"Ġfeed":4382,"Ġconverted":4383,"pb":4384,"Ġenable":4385,"Ġincre":4386,"Ġsnapshot":4387,"Ġcsv":4388,"Ġmesh":4389,"Load":4390,"Ġdot":4391,"neighb":4392,"BUG":4393,"Ġatom":4394,"users":4395,"single":4396,"google":4397,"TS":4398,"arange":4399,"Attribute":4400,"ACK":4401,"mgmt":4402,"ĠInput":4403,"Ġtraining":4404,"vl":4405,"conv":4406,"antity":4407,"ilities":4408,"UB":4409,"(\\":4410,"27":4411,"rect":4412,"Ġarr":4413,"sidered":4414,"Clo":4415,"product":4416,"Ġpercent":4417,"Ġrequires":4418,"Ca":4419,"Tra":4420,"Ġversionadded":4421,"Token":4422,"aving":4423,"Ġimplemented":4424,"Ġtab":4425,"Ġlet":4426,"js":4427,"Ġactions":4428,"second":4429,"oo":4430,"atom":4431,"\").":4432,")}":4433,"Ġexact":4434,"definition":4435,"ression":4436,"signature":4437,"enum":4438,"Ġknown":4439,"Ġmodules":4440,"Ġfigure":4441,"Ġfailure":4442,"Ġreceived":4443,"Ġusage":4444,"MM":4445,"uous":4446,"Ġlow":4447,"We":4448,"ough":4449,"Ġchecks":4450,"ited":4451,"mesh":4452,"rot":4453,"OL":4454,"lip":4455,"hostname":4456,"ĠLog":4457,"dient":4458,"ĠImport":4459,"Ġconsidered":4460,"Ġformatted":4461,"dst":4462,"jor":4463,"Ġembed":4464,"members":4465,"']]":4466,"Ġsig":4467,"Ġrep":4468,"riteria":4469,"engine":4470,"Ġregistered":4471,"Action":4472,"running":4473,"ĠNotes":4474,"servation":4475,"Ġbuf":4476,"Ġ'__":4477,"hood":4478,"Ġpers":4479,"web":4480,"created":4481,"orary":4482,"Cannot":4483,"Widget":4484,"Warning":4485,"Ġcredentials":4486,"Ġscal":4487,"={'":4488,"Manager":4489,"Ġpadding":4490,"Command":4491,"Ġapplied":4492,"Ġexecution":4493,"iso":4494,"Ġyet":4495,"Ġasset":4496,"Ġrank":4497,"Ġarea":4498,"Ġ20":4499,"ĠBo":4500,"Ġprovide":4501,"indows":4502,"digest":4503,"Ġseed":4504,"Ġoutputs":4505,"yaml":4506,"Source":4507,"ĠCan":4508,"Ġsetattr":4509,"rece":4510,"Ġans":4511,"uff":4512,"render":4513,"ked":4514,"Ġyaml":4515,"expression":4516,"Ġoverwrite":4517,"View":4518,"Ġgit":4519,"ral":4520,"Ġinside":4521,"(?":4522,"sources":4523,"Ġleg":4524,"Optional":4525,"duration":4526,"ĠPo":4527,"Ġdetermin":4528,"ĠDis":4529,"ĠLoad":4530,"ription":4531,"ĠEach":4532,"\"][\"":4533,"'|'":4534,"dx":4535,"unch":4536,"95":4537,"havi":4538,"exclude":4539,"(',":4540,"ASE":4541,"mer":4542,"Ġredirect":4543,"shift":4544,"control":4545,"SER":4546,"otes":4547,"Ġbounds":4548,"separ":4549,"Ġve":4550,"Ġsteps":4551,"Ġsequences":4552,"mooth":4553,"Ġnormalize":4554,"Ġwritten":4555,"Format":4556,"Ġdump":4557,"osid":4558,"Ġeven":4559,"ĠTe":4560,"ada":4561,"=-":4562,"structor":4563,"theta":4564,".\",":4565,"limiter":4566,"Def":4567,"alg":4568,"ront":4569,"PS":4570,"Ġstrip":4571,"EM":4572,"tensor":4573,"Mo":4574,"verify":4575,"Ġpartial":4576,"Ġdecode":4577,"ĠId":4578,"ube":4579,"emon":4580,"(__":4581,"TA":4582,"Ġprec":4583,"Ġgot":4584,"Ġ-----":4585,"sur":4586,"')[":4587,"40":4588,"seed":4589,"Ġdefining":4590,"sumer":4591,"proc":4592,"processing":4593,"ĠQt":4594,"Ġsources":4595,"aut":4596,"At":4597,"OS":4598,"ili":4599,"Ġlogin":4600,"configuration":4601,"IC":4602,"Ġarchive":4603,"Ġproblem":4604,"Ġexplicit":4605,"Ġsn":4606,"Ġ{})":4607,"VE":4608,"cum":4609,"Ġpositive":4610,"orld":4611,"ava":4612,"tile":4613,"inc":4614,"ident":4615,"provider":4616,"ĠDict":4617,"ZE":4618,"variant":4619,"Ġcounts":4620,"bounds":4621,"=\"\"":4622,"Ġwin":4623,"Convert":4624,"sem":4625,"asset":4626,"quivalent":4627,"shell":4628,"xim":4629,"Ac":4630,"ĠĠĠĠĠĠĠĠĠĠĠĠĠĠĠĠĠĠĠĠĠĠĠĠĠĠĠĠĠĠĠĠĠĠĠĠĠĠĠĠĠĠĠĠĠĠĠĠĠĠĠĠĠĠĠĠĠĠĠĠĠĠĠĠ":4631,"dle":4632,"Box":4633,"Ġsmall":4634,"anis":4635,"Ġepoch":4636,"Ġnegative":4637,"__.__":4638,"Link":4639,"Ġknow":4640,"driver":4641,"measure":4642,"\\'":4643,"ĠOpen":4644,"Ġnested":4645,"Ġrules":4646,"Spec":4647,"VI":4648,"variance":4649,"LIN":4650,"Ġnb":4651,"echo":4652,"metrics":4653,"Ġattach":4654,"Function":4655,"256":4656,"generator":4657,"private":4658,"ifest":4659,"Ġsl":4660,"vas":4661,"96":4662,"sync":4663,"Ġtool":4664,"ï¼Į":4665,"messages":4666,"ierarch":4667,"Ġpid":4668,"rowser":4669,"async":4670,"ĠObject":4671,"Ġds":4672,"Ġmac":4673,"abspath":4674,"lis":4675,"ynamic":4676,"Ġutil":4677,"Ġinspect":4678,"Ġprocessed":4679,"Ġorg":4680,"Ġprogram":4681,"ndim":4682,"}:":4683,"Ġtakes":4684,"UE":4685,"sy":4686,"platform":4687,"origin":4688,"available":4689,"Ġ##":4690,"Ġstill":4691,"backend":4692,"Ġcir":4693,",'":4694,"CP":4695,"85":4696,"Ġcla":4697,"Ġmetrics":4698,"Ġprocessing":4699,"activ":4700,"Unable":4701,"pdf":4702,"writer":4703,"Ġ''.":4704,"Ġmid":4705,"targets":4706,"Ġtargets":4707,"Ġdescrib":4708,"ygon":4709,"hidden":4710,"unpack":4711,"ĠRequest":4712,"35":4713,"____":4714,"integer":4715,"Ġrepe":4716,"`:":4717,"Ġfilepath":4718,"Ġsafe":4719,"strings":4720,"boot":4721,"OK":4722,"epoch":4723,"Stream":4724,"Ġcoeffici":4725,"expi":4726,"Ġissue":4727,"36":4728,"Ġaverage":4729,".',":4730,"Ġdid":4731,"Ġmapped":4732,"mitted":4733,"=['":4734,"ratio":4735,"Ġrelated":4736,"_)":4737,"onal":4738,"Ġreply":4739,"Ġpackages":4740,"asis":4741,"Ġworks":4742,"rr":4743,"Ġchannels":4744,"Ġnotification":4745,"Ġmarker":4746,"Met":4747,"diag":4748,"best":4749,"Ġstatement":4750,"PRE":4751,"auss":4752,"Ġconstruct":4753,"Ġå":4754,"div":4755,"begin":4756,"'\"":4757,"Ġless":4758,"Level":4759,"ĠBuild":4760,"Ġplatform":4761,"Ġmachine":4762,"ever":4763,"ula":4764,"ferred":4765,"Ġmd":4766,"Address":4767,"rules":4768,"neg":4769,"Ġsimp":4770,"Ġpower":4771,"Ġround":4772,"Ġspecification":4773,"ouble":4774,"ender":4775,"='',":4776,"registry":4777,"Method":4778,"Ġsy":4779,"Ġ'<":4780,"Ġ1000":4781,"ĠĠĠĠĠĠĠĠĠĠĠĠĠĠĠĠĠĠĠĠĠĠĠĠĠĠĠĠĠĠĠĠĠĠĠĠĠĠĠĠĠĠĠĠ":4782,"Ġversions":4783,"Ġaggreg":4784,"Ġdev":4785,"Ġengine":4786,"rong":4787,"hy":4788,"hing":4789,"Block":4790,"reader":4791,"Ġhapp":4792,"iterable":4793,"Ġblocks":4794,"Ġmanager":4795,"pan":4796,"Entry":4797,"Ġ(:":4798,"ĠCont":4799,"ĠError":4800,"Ġalt":4801,"Call":4802,"scheme":4803,"fid":4804,"ied":4805,"Ġimplementation":4806,"ORD":4807,"TypeError":4808,"Ġnone":4809,"quare":4810,"progress":4811,"Ġprimary":4812,"Ġtile":4813,"Ġ')":4814,"illar":4815,"Server":4816,"HO":4817,"stit":4818,"require":4819,"irst":4820,"strument":4821,"ocument":4822,"upload":4823,"lag":4824,"Ġ~":4825,"Ġidentifi":4826,"Ġlater":4827,"System":4828,"zy":4829,"Ġmakes":4830,"correct":4831,"Implemented":4832,"quote":4833,"predi":4834,"Ġmatplotlib":4835,"pm":4836,"ENT":4837,"Ġconnected":4838,"ĠOSError":4839,"lyph":4840,"lineno":4841,"Ġregistry":4842,"see":4843,"resp":4844,"Ġvirtual":4845,"rupt":4846,"Ġpr":4847,"Ġ[-":4848,"Output":4849,"SA":4850,"Ġworking":4851,"Ġpipe":4852,"ä»":4853,"['_":4854,"uler":4855,"Ġinterpol":4856,"Ġpipeline":4857,"Ġrespect":4858,"Ġsat":4859,"direction":4860,"Ġexpr":4861,"Ġtopic":4862,"Ġbeta":4863,"Ġcover":4864,"Ġdataframe":4865,"Unknown":4866,"ckets":4867,"cogn":4868,"ĠInitial":4869,"End":4870,"ĠĠĠĠĠĠĠĠĠĠĠĠĠĠĠĠĠĠĠĠĠĠĠĠĠĠĠĠĠĠĠĠĠĠĠĠĠĠĠĠĠĠĠĠĠĠĠ":4871,"ĠBe":4872,"original":4873,"Ġagent":4874,"isdir":4875,"tack":4876,"cm":4877,"usters":4878,"pred":4879,"Ġinner":4880,"utor":4881,"Ġbins":4882,"Proper":4883,"ĠReg":4884,"Store":4885,"Ġ\\'":4886,"dl":4887,"cu":4888,"ĠOut":4889,"Ġiteration":4890,"Ġfixed":4891,"Tag":4892,"ĠIter":4893,"Ġiterator":4894,"Ġbackground":4895,"done":4896,"Ġselection":4897,"ĠCompute":4898,"aa":4899,"eries":4900,"Ġfiltered":4901,"Ġremaining":4902,"estim":4903,"static":4904,"Ġcert":4905,"Ġown":4906,"topic":4907,"Ġpotential":4908,"oom":4909,"keyword":4910,"Ġcols":4911,"serve":4912,"epcopy":4913,"enu":4914,"coordin":4915,"tables":4916,"Sign":4917,"mar":4918,"ĠForm":4919,"ĠStart":4920,"power":4921,"Ġphase":4922,"Ġfreq":4923,"geo":4924,"Ġbasestring":4925,"Ġdig":4926,"ssh":4927,"lier":4928,"ĠFI":4929,"Ġtasks":4930,"escape":4931,"tasks":4932,"free":4933,"`)":4934,"tainer":4935,"Ġpartic":4936,"]],":4937,"ĠĠĠĠĠĠĠĠĠĠĠĠĠĠĠĠĠĠĠĠĠĠĠĠĠĠĠĠĠĠĠĠĠĠĠĠĠĠĠĠĠĠĠĠĠ":4938,"Ġmatched":4939,"Ġworker":4940,"ĠThere":4941,"sessment":4942,"ĠGiven":4943,"mk":4944,"comb":4945,"70":4946,"Ġscheme":4947,"Ġprovider":4948,"Ġcp":4949,"Pa":4950,"ĠSub":4951,"Ġpredict":4952,"Ġstage":4953,"most":4954,"Hel":4955,"Mode":4956,"Ġreci":4957,"ĠCode":4958,"outputs":4959,"ally":4960,"Ad":4961,"ĠBase":4962,"ector":4963,"Ġcollections":4964,"ips":4965,"Params":4966,"Ġindividual":4967,"ĠCreates":4968,"Ġ[{":4969,"Ġlate":4970,"ALL":4971,"Ġscipy":4972,"Ġ':":4973,"transaction":4974,"Ġcoordinate":4975,".'.":4976,"packages":4977,"br":4978,"Ġcompar":4979,"fied":4980,"dn":4981,"Ġspan":4982,"cryption":4983,"family":4984,"logical":4985,"usage":4986,"Ġactiv":4987,"FIG":4988,"Range":4989,"sock":4990,"Num":4991,"owner":4992,"INT":4993,"magic":4994,"prob":4995,"Ġsolution":4996,"ipv":4997,"Color":4998,"Ġsep":4999,"Ġhostname":5000,"Ġcb":5001,"zen":5002,"Ġsecurity":5003,"services":5004,"Ġspa":5005,"chor":5006,"Ġener":5007,"ĠNotImplemented":5008,"gz":5009,"Ġcases":5010,"embed":5011,"Ġcore":5012,"Ed":5013,"Row":5014,"Ġprior":5015,"Ġ*=":5016,"extension":5017,"Ġlayout":5018,"PTION":5019,"END":5020,"Ġsimilar":5021,"sage":5022,"holder":5023,"fc":5024,"Ġmodifi":5025,"Ġmass":5026,"pg":5027,"reen":5028,"ĠNode":5029,")+":5030,"uess":5031,"Ġdocumentation":5032,"cla":5033,"oring":5034,"duced":5035,"ROM":5036,"Ġsurface":5037,"Ġmembers":5038,"26":5039,"Part":5040,"operator":5041,"flush":5042,"lihood":5043,"sto":5044,"Ġhistory":5045,"otype":5046,"tic":5047,"Ġcoords":5048,"GB":5049,"em":5050,"cpu":5051,"wrapper":5052,")\\":5053,"STR":5054,"ĠGenerate":5055,"olds":5056,"Ġintegr":5057,"parsed":5058,"('_":5059,"tein":5060,"AND":5061,"Ġuseful":5062,"ailf":5063,"78":5064,"Ġlinks":5065,"Ġitself":5066,"Ġsec":5067,"Job":5068,"rency":5069,"creen":5070,"Parameter":5071,"ĠLOGGER":5072,"ĠHTML":5073,"Ġæ":5074,"Ġelem":5075,"ĠFunction":5076,"Ġtables":5077,"ĠIndexError":5078,"Ġchunks":5079,"Ġ?":5080,"Ġreturning":5081,"bos":5082,"security":5083,"actor":5084,"Ġhelper":5085,"flatten":5086,"Ġaddr":5087,"Ġpositions":5088,")-":5089,"internal":5090,"Write":5091,"scal":5092,"verts":5093,"ĠIDs":5094,"Ġren":5095,"(\"-":5096,"Ġ\\\\":5097,"struction":5098,"false":5099,"Ġfore":5100,"inner":5101,"relation":5102,"ceed":5103,"raps":5104,")',":5105,"Ġconv":5106,"feed":5107,"âĶĢ":5108,"Dir":5109,"refresh":5110,"kernel":5111,"Ġcatalog":5112,"media":5113,"Ġps":5114,"Ġforward":5115,")**":5116,"upported":5117,"Ġregular":5118,"ARN":5119,"delay":5120,"Ġparsing":5121,"Ġnormalized":5122,"worker":5123,"requests":5124,"sence":5125,"~~":5126,"loader":5127,"Ġcurr":5128,"Ġnull":5129,"partial":5130,"seg":5131,"Ġtick":5132,"Ġconfigured":5133,"Ġconversion":5134,"ttp":5135,"ĠOrderedDict":5136,"edit":5137,"Ġcreating":5138,"ssl":5139,"ij":5140,"LL":5141,"Ġobs":5142,"Parameters":5143,"attach":5144,"ĠAc":5145,"Ġallows":5146,",))":5147,"refs":5148,"Ġrect":5149,"ptr":5150,"Ġcompatible":5151,"Ġoperations":5152,"png":5153,"Ġexperiment":5154,"shut":5155,"Su":5156,"(':":5157,"accept":5158,"ond":5159,"wiki":5160,"MENT":5161,"rpc":5162,"analysis":5163,"ract":5164,"anti":5165,"Ġwrapped":5166,"Ġaltern":5167,"Ġâ":5168,"tp":5169,"alf":5170,"argin":5171,"Ġeps":5172,"pairs":5173,"ranspose":5174,"ĠDB":5175,"prev":5176,"Ġpretty":5177,"Ġbehavi":5178,"Ġauthentication":5179,"Ġcalculated":5180,"reverse":5181,"Ġhook":5182,"Int":5183,"ĠĠĠĠĠĠĠĠĠĠĠĠĠĠĠĠĠĠĠĠĠĠĠĠĠĠĠĠĠĠĠĠĠĠĠĠĠĠĠĠĠĠĠĠĠĠ":5184,"dc":5185,"choice":5186,"functions":5187,"Qt":5188,"DIR":5189,"ĠURI":5190,"Ref":5191,"crete":5192,"identity":5193,"calc":5194,"Ġadmin":5195,"big":5196,"PA":5197,"alance":5198,"Ġdue":5199,"Ġaround":5200,"Ġresolve":5201,"Ġdependencies":5202,"Ġanaly":5203,"slug":5204,"')]":5205,"Ġnothing":5206,"tries":5207,"ĠCall":5208,"ĠImage":5209,"Ġattempt":5210,".\\":5211,"Ġdriver":5212,"assert":5213,"Ġescape":5214,"lict":5215,"disk":5216,"fasta":5217,"equal":5218,"uses":5219,"ĠAt":5220,"Ġloss":5221,"proto":5222,"ragma":5223,"{}\".":5224,"Ġ<<":5225,"Ġequ":5226,"Ġsomething":5227,"radi":5228,"Ġservices":5229,"Ġfd":5230,"Ġmx":5231,"Ġdiag":5232,"tl":5233,"forms":5234,"\"\\":5235,"MAT":5236,"cwd":5237,"flux":5238,"bam":5239,"snapshot":5240,"94":5241,"Sp":5242,"Ġau":5243,"pose":5244,"Ġparticular":5245,"atype":5246,"Ġwhose":5247,"Ġlinear":5248,"SIZE":5249,"Ġcollect":5250,"Ġresid":5251,"hosts":5252,"Ġexternal":5253,"question":5254,"optim":5255,"Ġ60":5256,"Ġpixel":5257,"tage":5258,"Ġprecision":5259,"Ġvals":5260,"failed":5261,"*.":5262,"ipping":5263,"1000":5264,"Find":5265,"cript":5266,"export":5267,"Ġdeploy":5268,"][\"":5269,"rev":5270,"asarray":5271,"Ġdelay":5272,"break":5273,"apping":5274,"Column":5275,"Ġio":5276,"radius":5277,"ĠMax":5278,"Ġtemperature":5279,"Ġbad":5280,"UID":5281,"Ġ15":5282,"tour":5283,"Ġdefine":5284,"Ġkeywords":5285,"fin":5286,"pture":5287,"ĠSalt":5288,"ĠOption":5289,"ĠHow":5290,"else":5291,"stract":5292,"ping":5293,"COL":5294,"ount":5295,"aves":5296,"Ġstrict":5297,"Ġts":5298,"Ġratio":5299,"YY":5300,"ierarchy":5301,"mut":5302,"olders":5303,"Device":5304,"orth":5305,"ider":5306,"ongo":5307,"ACE":5308,"74":5309,"ftime":5310,"linear":5311,"_(":5312,"archive":5313,"ationError":5314,"pick":5315,"ĠWrite":5316,"voke":5317,"Ġpur":5318,"\"\"\",":5319,"posure":5320,"Ġindexes":5321,"calcul":5322,"wb":5323,"vol":5324,"forward":5325,"atory":5326,"scores":5327,"iling":5328,"Ġplease":5329,"Ġsecret":5330,"PUT":5331,"attention":5332,"Ġblob":5333,"selected":5334,"uman":5335,"Ġresulting":5336,"ĠHandle":5337,"CM":5338,"Build":5339,"Ġgreater":5340,"Ġreader":5341,"istic":5342,"Ġterms":5343,"Ġtrigger":5344,"lastic":5345,"seek":5346,"lst":5347,"MAX":5348,"aggreg":5349,"Ġ:]":5350,"('{":5351,"ĠOne":5352,"clusive":5353,"terms":5354,"Ġboot":5355,"rum":5356,"Ġtran":5357,"orizont":5358,"Ġtor":5359,"If":5360,"Ġisn":5361,"ctionaries":5362,"configs":5363,"ĠCalculate":5364,"DEBUG":5365,"Ġbutton":5366,"plan":5367,"28":5368,"[:]":5369,"vlan":5370,"Ġcertificate":5371,"ĠArray":5372,"TED":5373,"\">":5374,"ValueError":5375,"clar":5376,"Ġreading":5377,"Ġactually":5378,"/'":5379,"Ġdirectories":5380,"Ġdays":5381,"ĠNotImplementedError":5382,"cover":5383,"rank":5384,"Ġscores":5385,"Ġseparate":5386,"cov":5387,"px":5388,"predict":5389,"Ġfilenames":5390,"Ġedit":5391,"Work":5392,"resolve":5393,"LECT":5394,"Open":5395,"[(":5396,"Ġsto":5397,"rstrip":5398,"Ġ\"<":5399,"override":5400,"DATA":5401,"Ġturn":5402,"prompt":5403,"compat":5404,"Ġbuilt":5405,"viation":5406,"notification":5407,"suppress":5408,"NE":5409,"Ġ],":5410,"cached":5411,"Ġada":5412,"HER":5413,"Ġrepr":5414,"Ġmade":5415,"Ġcandidate":5416,"Ġpatch":5417,"Ġworkflow":5418,"Task":5419,"ulk":5420,"Ġvertex":5421,"Label":5422,"utc":5423,"button":5424,"Ġequivalent":5425,"]).":5426,"bi":5427,"ools":5428,"ĠMessage":5429,"unic":5430,"lar":5431,"orter":5432,"signed":5433,"specimen":5434,"Ġencode":5435,"Dyn":5436,"Ġspect":5437,"ĠNe":5438,"ĠModel":5439,"Ġinterpre":5440,"marker":5441,"Ġpack":5442,"Ġshutil":5443,"menu":5444,"Auto":5445,"ĠClo":5446,"Ġden":5447,"Ġtheta":5448,"Ġlayers":5449,"ysical":5450,"Ġsubset":5451,"quiet":5452,"Search":5453,"resid":5454,"ĠResponse":5455,"Ġ32":5456,"aw":5457,"ĠPO":5458,"detail":5459,"Ġuid":5460,"ĠFilter":5461,"Ġpermissions":5462,"RED":5463,"Ġrefresh":5464,"Ġappe":5465,"Ġunknown":5466,"INFO":5467,"nu":5468,"candid":5469,"wards":5470,"Ġfs":5471,"Ġgu":5472,"band":5473,"Ġ'#":5474,"connected":5475,"Ġgeometry":5476,"BO":5477,"editor":5478,"enable":5479,"environment":5480,"minion":5481,"soft":5482,"Ġmerged":5483,"All":5484,"CL":5485,"åĪ":5486,"ĠMA":5487,"Max":5488,"Ġseen":5489,"Ġsegments":5490,"normalize":5491,"sr":5492,"ĠSo":5493,"instances":5494,"Ġincluding":5495,"reduce":5496,"utype":5497,"Change":5498,"frames":5499,"pus":5500,"Ġwriter":5501,"iler":5502,"Ġswitch":5503,"ĠDictionary":5504,"77":5505,"PY":5506,"ritical":5507,"ĠWindows":5508,"Ġpermission":5509,"ORT":5510,"selection":5511,"uble":5512,"modified":5513,"dp":5514,"Ġoutfile":5515,"********":5516,"+'":5517,"PER":5518,"igen":5519,"Ġuuid":5520,"Ġ``'":5521,"Ġupdates":5522,"clip":5523,"priority":5524,"inish":5525,"lices":5526,"lists":5527,"Ġnumeric":5528,"Ġidentity":5529,"destination":5530,"bank":5531,"tol":5532,"onical":5533,"sections":5534,"Ġindicating":5535,"Ġclosed":5536,"elem":5537,"rase":5538,"ĠNOTE":5539,"Ġreads":5540,"Ġowner":5541,"hi":5542,"ticks":5543,"ueue":5544,"bosity":5545,"glob":5546,"Ġthree":5547,"Ġcurve":5548,"IF":5549,"eq":5550,"Tensor":5551,"amount":5552,"Ġshared":5553,"reply":5554,"Ġmultip":5555,"Ġordered":5556,"extmethods":5557,"Ġextmethods":5558,"unknown":5559,"semble":5560,"DynClass":5561,"ulated":5562,"indexes":5563,"Ġproto":5564,"ĠQuery":5565,"ĠImportError":5566,"Ġdeprecated":5567,"istration":5568,"ĠTra":5569,"Ġnoise":5570,"library":5571,"cluded":5572,"bus":5573,"Cur":5574,"Ġrecursive":5575,"ĠAss":5576,"Ġflux":5577,"Layer":5578,"Ġproc":5579,"repository":5580,"nl":5581,"è¯":5582,"orizontal":5583,"Ġsw":5584,"DD":5585,"rant":5586,"blob":5587,"Network":5588,"Ġchecked":5589,"Variable":5590,"Ġjobs":5591,"ĠUT":5592,"Ġcomplex":5593,"Ġbel":5594,"gnitude":5595,"AME":5596,"sw":5597,"urls":5598,"Ġdefinitions":5599,"Ġcells":5600,"ilon":5601,"Ġ::":5602,"enate":5603,"Ġeval":5604,"Ġhand":5605,"(\"--":5606,"Ġpriority":5607,"azard":5608,"Ġmedia":5609,"^{":5610,"reason":5611,"('.')":5612,"Ġobtain":5613,"Ġtz":5614,":`.":5615,"keywords":5616,"ouse":5617,"Ġassigned":5618,"Ġ30":5619,"Ġlooking":5620,"props":5621,"push":5622,"anded":5623,"based":5624,"grad":5625,"Ġretrie":5626,"ading":5627,"ummy":5628,"ado":5629,"figure":5630,"Ġentire":5631,"emit":5632,"Ġpragma":5633,"Page":5634,"cn":5635,"Ġ).":5636,"tached":5637,"Ġcost":5638,"39":5639,"Ġcomments":5640,"IST":5641,"Ġsync":5642,"Length":5643,"Ġvectors":5644,"selector":5645,"rectory":5646,"Ġcross":5647,"lt":5648,"pot":5649,"Ġtransition":5650,"iver":5651,"PU":5652,"strftime":5653,"ĠMust":5654,".\".":5655,"SD":5656,"constants":5657,"peak":5658,"bad":5659,"Ġannotation":5660,"Ġenergy":5661,")(":5662,"Handle":5663,"Ġcalc":5664,".%":5665,"Act":5666,"Ġadjust":5667,"which":5668,"Ġexpand":5669,"ims":5670,"geometry":5671,"Exist":5672,"Ġmanage":5673,"Ġstatic":5674,"era":5675,"Ġ\"'":5676,"visible":5677,"tar":5678,"calls":5679,"Ġfails":5680,">\"":5681,"ĠSets":5682,"ffici":5683,"transport":5684,"CA":5685,"Ġpmag":5686,"Ġcourse":5687,"ĠFirst":5688,"Ġsparse":5689,"Ġcompare":5690,"versed":5691,"supported":5692,"handlers":5693,"getattr":5694,"Ġbottom":5695,"aussian":5696,"JSON":5697,"VERSION":5698,"Ġgeo":5699,"Execution":5700,"Ġschedule":5701,"Ġbig":5702,"pages":5703,"SIG":5704,"CONFIG":5705,"lished":5706,"rypt":5707,"ordered":5708,"ison":5709,"ĠMo":5710,"Ġfun":5711,"reads":5712,"ĠInter":5713,"Ġord":5714,"/(":5715,"Ġes":5716,"Min":5717,"Ġdevices":5718,"\"'":5719,");":5720,"()),":5721,"NG":5722,"Ġrotation":5723,"atrix":5724,"Ġ'{}'":5725,"Ġmot":5726,"ĠText":5727,"']),":5728,"Logger":5729,"pandas":5730,"trig":5731,"allowed":5732,"levels":5733,"Ġkeyid":5734,"pipeline":5735,"([[":5736,"Ġcast":5737,"uation":5738,"Ġdictionaries":5739,"adcast":5740,"park":5741,"Ġfree":5742,"arest":5743,"Ġgood":5744,"Ġflat":5745,"packet":5746,"docker":5747,"many":5748,"erred":5749,"Ġunpack":5750,"Ġpeak":5751,"cheduler":5752,"aN":5753,"pers":5754,"Ġconstant":5755,"rd":5756,"findall":5757,"FIEL":5758,"boolean":5759,"_%":5760,"icip":5761,"Ġpixels":5762,"kedirs":5763,"ĠOutput":5764,"ĠTry":5765,"car":5766,"ĠAuth":5767,"USER":5768,"Ġmis":5769,"Ġep":5770,"Ġvol":5771,"Ġphi":5772,"kit":5773,"nsure":5774,"itespace":5775,"plugins":5776,"lang":5777,"gent":5778,"Ġscreen":5779,"Ġdensity":5780,"Ġsampling":5781,"Ġsock":5782,"Ġpeer":5783,"redirect":5784,"Ġtimezone":5785,"################################":5786,"PIPE":5787,"Ġchoice":5788,"Can":5789,"isinstance":5790,"FIX":5791,"II":5792,"Ġ'':":5793,"Ġindicates":5794,"stage":5795,"week":5796,"Ġcomputed":5797,"derer":5798,"subprocess":5799,"ĠShould":5800,"Ġprompt":5801,"Ġmount":5802,"ĠNOT":5803,"Ġrv":5804,"Ġdouble":5805,"roy":5806,"strap":5807,"uest":5808,"endar":5809,"plots":5810,"Ġreferences":5811,"screen":5812,"nr":5813,"Ġnx":5814,"ĠNew":5815,"external":5816,"Ġlatest":5817,"Red":5818,"()``":5819,"versions":5820,"76":5821,"HEAD":5822,"jac":5823,"06":5824,"Ġshift":5825,"flat":5826,"\"][":5827,"ixed":5828,"Ġlarge":5829,"Over":5830,"Ġmut":5831,"ĠThese":5832,"price":5833,"Pri":5834,"blems":5835,"ONE":5836,"ram":5837,"runtime":5838,"255":5839,"Ġglob":5840,"walk":5841,"itation":5842,"machine":5843,"FS":5844,"ilent":5845,"inds":5846,"ired":5847,"ĠCO":5848,"Ġspeed":5849,"ULL":5850,"Ġdocstring":5851,"21":5852,"Ġtraceback":5853,"ĠĠĠĠĠĠĠĠĠĠĠĠĠĠĠĠĠĠĠĠĠĠĠĠĠĠĠĠĠĠĠĠĠĠĠĠĠĠĠĠĠĠĠĠĠĠĠĠĠĠĠ":5854,"Ġdescriptor":5855,"Values":5856,"Ġderiv":5857,"inger":5858,"linalg":5859,"=='":5860,"moves":5861,"Ġinplace":5862,"ĠĠĠĠĠĠĠĠĠĠĠĠĠĠĠĠĠĠĠĠĠĠĠĠĠĠĠĠĠĠĠĠĠĠĠĠĠĠĠĠĠĠĠĠĠĠĠĠ":5863,"star":5864,"_:":5865,"workflow":5866,"Ġframes":5867,"CTION":5868,"aws":5869,"Ġquote":5870,"(\"/":5871,"simple":5872,"devices":5873,"named":5874,"Remove":5875,"perm":5876,"wn":5877,"æĸ":5878,"updated":5879,"Ġtar":5880,"ja":5881,"tod":5882,"ĠST":5883,"builder":5884,"Ġruntime":5885,"atial":5886,"Ġfh":5887,"cap":5888,"44":5889,"Is":5890,"bg":5891,"compress":5892,"switch":5893,"':'":5894,"ĠProcess":5895,"Ġdegrees":5896,"publish":5897,"Ġradi":5898,"prepare":5899,"XT":5900,"prot":5901,"Ġsentence":5902,"scalar":5903,">'":5904,"alth":5905,"Ġdocker":5906,"ish":5907,"Api":5908,"Ġ])":5909,"segments":5910,"Ġdry":5911,"Ġms":5912,"andling":5913,"except":5914,".'''":5915,"rho":5916,"wt":5917,"Ġconditions":5918,"Ġrh":5919,"Ġssh":5920,"rad":5921,"Ġselector":5922,"WN":5923,"unset":5924,"`):":5925,"åĲ":5926,"Ġwa":5927,"Ġmodify":5928,"Ġdelimiter":5929,"Ġflatten":5930,"ĠBack":5931,"relative":5932,"cursively":5933,"dependent":5934,"atic":5935,"Ġdx":5936,"Ġsyn":5937,"deg":5938,"---+":5939,"chars":5940,"ĠTuple":5941,"Ġlimits":5942,"DU":5943,"Ġassumed":5944,"lying":5945,"Access":5946,"Ġface":5947,"andatory":5948,"ĠOver":5949,"Ġauthentic":5950,"logs":5951,"Ġpopulate":5952,"existing":5953,"solution":5954,"Ġurllib":5955,"Ġlevels":5956,"encoded":5957,"Ġchoices":5958,"tor":5959,"sect":5960,"lv":5961,"æľ":5962,"Ġunless":5963,"SV":5964,"Ġminutes":5965,"osen":5966,"threads":5967,"Ġqual":5968,"omial":5969,"è¿":5970,"Ġones":5971,"splitlines":5972,"Ġcer":5973,"covery":5974,"Reference":5975,"monitor":5976,"FC":5977,"With":5978,"Ġthreads":5979,"bottom":5980,"aff":5981,"Ġband":5982,"Header":5983,"Ġnu":5984,"ĠClient":5985,"ranches":5986,"Ġrepresents":5987,"alet":5988,"ĠAWS":5989,"ĠElement":5990,"gamma":5991,"Ġmime":5992,"Ġseg":5993,"Ġvertices":5994,"grams":5995,"lapsed":5996,"Ġmeas":5997,"PL":5998,"ĠStop":5999,"mpler":6000,"curacy":6001,"maps":6002,"Ġrc":6003,"Ġresolution":6004,"ĠOperation":6005,"CODE":6006,"roid":6007,"Names":6008,"sites":6009,"mes":6010,"Ġsubclass":6011,"closed":6012,"css":6013,"cod":6014,"cally":6015,"ĠTensor":6016,"Ġhidden":6017,"ĠDesc":6018,"Ġsha":6019,"Ġsubnet":6020,"Ġpublish":6021,"ĠResource":6022,"LETE":6023,"fidence":6024,"Ġ24":6025,"disable":6026,"Delete":6027,"Ġalignment":6028,"Ġevaluate":6029,"splitext":6030,"Ġvide":6031,"padding":6032,"Ġgate":6033,"Ġrecent":6034,"ini":6035,"semb":6036,"schedule":6037,"------------":6038,"Ġtemporary":6039,"frequency":6040,"Ġrecur":6041,"ird":6042,"sel":6043,"roles":6044,"double":6045,"Ġcloud":6046,"ientation":6047,"Ġimmediate":6048,"liance":6049,"ptime":6050,"29":6051,"Ġparallel":6052,"88":6053,"Ġadding":6054,"ORY":6055,"Ġvery":6056,"SL":6057,"Ġsender":6058,"credentials":6059,"pology":6060,"super":6061,"related":6062,"qq":6063,"virtual":6064,"ĠUnicode":6065,"(%":6066,"evalu":6067,"rgb":6068,"repe":6069,"ffset":6070,"Ġxy":6071,"Ġcopi":6072,"Ġauthorization":6073,"Ġfamily":6074,"Sequence":6075,"servations":6076,"Container":6077,"latest":6078,"Be":6079,"Results":6080,"fft":6081,"Ġrdf":6082,"Bo":6083,"nc":6084,"Ġbasic":6085,"decor":6086,"MAP":6087,"Ġcos":6088,"contin":6089,"Only":6090,"ystems":6091,"dependencies":6092,"izing":6093,"black":6094,"tection":6095,"ĠGraph":6096,"energy":6097,"stmt":6098,"Ġev":6099,"cost":6100,"Ġsubscription":6101,"ategy":6102,"complex":6103,"Ġstarted":6104,"Ġdicts":6105,"Gets":6106,"poly":6107,"levant":6108,"ale":6109,"Ġcomma":6110,"NOT":6111,"bias":6112,"Ġ19":6113,"ĠTake":6114,"ĠĠĠĠĠĠĠĠĠĠĠĠĠĠĠĠĠĠĠĠĠĠĠĠĠĠĠĠĠĠĠĠĠĠĠĠĠĠĠĠĠĠĠĠĠĠĠĠĠ":6115,"RR":6116,"nx":6117,"Ġwatch":6118,"ĠPlease":6119,"primary":6120,"Property":6121,"Port":6122,"Ġsuccessfully":6123,"ka":6124,"ĠWork":6125,"Ġcaller":6126,"DATE":6127,"basic":6128,"hour":6129,"Ġinitialize":6130,"distribution":6131,"Ġalle":6132,"Ext":6133,"45":6134,"MI":6135,"Ġ255":6136,"categories":6137,"Ġconstructor":6138,"trie":6139,"Ne":6140,"Ġlocations":6141,"Ġsensor":6142,"Ġpull":6143,"']):":6144,"Ġdifference":6145,"31":6146,"Speci":6147,"mot":6148,"Ġpatterns":6149,"Ġaddresses":6150,"acter":6151,"average":6152,"inder":6153,"Ġdocs":6154,"Collection":6155,"Ġfraction":6156,"Ġcreates":6157,"Ġdecimal":6158,"deploy":6159,"urations":6160,"chr":6161,"using":6162,"generated":6163,"You":6164,"Ġ(-":6165,"Ġpress":6166,"bre":6167,"Ġaz":6168,"makedirs":6169,"Ġhosts":6170,"Ġwx":6171,"digit":6172,"router":6173,"Ġlineno":6174,"sizes":6175,"08":6176,"gl":6177,"Ġprobability":6178,"duplic":6179,"([\"":6180,"CRE":6181,"click":6182,"ĠSeries":6183,"vocab":6184,"}]":6185,"Ġear":6186,"Ġ\")":6187,"phase":6188,"umed":6189,"ropo":6190,"Ġcontroller":6191,"Ġiterations":6192,"Ġchecking":6193,"AF":6194,"Up":6195,"Ġcontact":6196,"dm":6197,"extensions":6198,"Ġoverlap":6199,"Ġhappen":6200,"ARNING":6201,"('{}":6202,"Ġpred":6203,"lour":6204,"joint":6205,"pending":6206,"%%":6207,"ior":6208,"Ġprocesses":6209,"Ġvs":6210,"prog":6211,"ĠVM":6212,"!\")":6213,"ĠCON":6214,"weet":6215,"ĠState":6216,"Ġlongitude":6217,"circ":6218,"ĠAd":6219,"chrom":6220,"ĠMethod":6221,"Ġlogs":6222,"timedelta":6223,"coming":6224,"alette":6225,"uch":6226,"major":6227,"Ġartifact":6228,"deepcopy":6229,"Ġqueryset":6230,"Ġexecuted":6231,"Ġextracted":6232,"FLA":6233,"yment":6234,"erical":6235,"Ġeditor":6236,"tle":6237,"arc":6238,"future":6239,"Thread":6240,"'},":6241,"Ġcountry":6242,"Const":6243,"comments":6244,"Ġbuilder":6245,"Ġanything":6246,"Ġspecifying":6247,"Ali":6248,"program":6249,"Ġraises":6250,"Ġ50":6251,"uer":6252,"inary":6253,"specific":6254,"gether":6255,"diffe":6256,"cid":6257,"leaf":6258,"--+":6259,"Ġ(``":6260,"HERE":6261,"Ġgamma":6262,"ATOR":6263,"rp":6264,"decimal":6265,"chan":6266,"anization":6267,"Ġgive":6268,"Ġeverything":6269,"-+-+-+-+-+-+-+-+":6270,"Ġtransport":6271,"ĠTable":6272,"ĠExec":6273,"New":6274,"Ġchrom":6275,"CESS":6276,"Ġvocab":6277,"Ġwhole":6278,"plus":6279,"Ġcard":6280,"Ge":6281,"coordinates":6282,"pipe":6283,"REQU":6284,"Match":6285,"Ġintegers":6286,"AA":6287,"ike":6288,"king":6289,"Ġhard":6290,"Ġprojection":6291,"Ġteam":6292,"sparse":6293,"Ġdepending":6294,"Configuration":6295,"OF":6296,"locations":6297,"Ġlang":6298,"Ġrho":6299,"ĠExtract":6300,"Metadata":6301,"ĠĠĠĠĠĠĠĠĠĠĠĠĠĠĠĠĠĠĠĠĠĠĠĠĠĠĠĠĠĠĠĠĠĠĠĠĠĠĠĠĠĠĠĠĠĠĠĠĠĠ":6302,"Ġsigned":6303,"ully":6304,"syn":6305,"ĠSQL":6306,"âĶĢâĶĢ":6307,"9999":6308,"wraps":6309,"Ġconstraints":6310,"fixed":6311,"bb":6312,"Ġboundary":6313,"Ġperm":6314,"Ġcodes":6315,">,":6316,"ĠFROM":6317,"Ġ'.'":6318,"dep":6319,"peer":6320,"Ġrelationship":6321,"Dataset":6322,"Ġri":6323,"rences":6324,"Pol":6325,"Ġsv":6326,"Ġargparse":6327,"Ġreduce":6328,"Ġbus":6329,"Ġprevent":6330,"Ġquant":6331,"need":6332,"Ġconcat":6333,"Ġcreation":6334,"Generate":6335,"Ġhit":6336,"cycle":6337,"MIN":6338,"Ġstarts":6339,"gateway":6340,"va":6341,"ital":6342,"recv":6343,"Ġ11":6344,"Ġlatitude":6345,"multip":6346,"gap":6347,"Ġxrange":6348,"ĠGroup":6349,"æķ":6350,"imit":6351,"Back":6352,"Ġboto":6353,"cles":6354,"ned":6355,"Ġincludes":6356,"mis":6357,"Ġstatistics":6358,"yles":6359,"Exit":6360,"Timeout":6361,"](":6362,"corr":6363,"_'":6364,"Ġcookie":6365,"ĠOR":6366,"legend":6367,"Order":6368,"Ġok":6369,"oted":6370,"Mem":6371,"Ġsymbols":6372,",,":6373,"pab":6374,"Uni":6375,"ised":6376,"ĠAdditional":6377,"Func":6378,"icon":6379,"ĠUsed":6380,"Ax":6381,"CI":6382,"Ġcompleted":6383,",),":6384,"Ġrev":6385,"adjust":6386,"{})":6387,")``":6388,"aster":6389,"Ġduplicate":6390,"tep":6391,"Ġ'/'":6392,"ĠResult":6393,"transpose":6394,"moved":6395,"Ġpages":6396,"Ġbehavior":6397,"lec":6398,"ĠDelete":6399,"Ġseparator":6400,"Ġnever":6401,"ART":6402,"'ll":6403,"pointer":6404,"attice":6405,"Ġcalculation":6406,"Target":6407,"descriptor":6408,"validation":6409,"Ġshut":6410,"Ġdigest":6411,"ĠDef":6412,"('<":6413,"okies":6414,"'``":6415,"Formatter":6416,"Ġeas":6417,"ĠGe":6418,"Ġdependency":6419,"Options":6420,"enter":6421,"cred":6422,"atoms":6423,"Ġclip":6424,"algorithm":6425,"manage":6426,"Ġwrong":6427,"Ġprepare":6428,"Ġperformed":6429,"course":6430,"mc":6431,"allable":6432,"PT":6433,"cel":6434,")],":6435,"EST":6436,"Ġbackup":6437,"Ġsupports":6438,"Child":6439,"angles":6440,":,":6441,"Ġdd":6442,"Ġexplicitly":6443,"Ġdegree":6444,"ffic":6445,"79":6446,"Ġmenu":6447,"speed":6448,"Ġrequirements":6449,"cnt":6450,"EC":6451,"imple":6452,"atives":6453,"Ġminion":6454,"Ġaudio":6455,"vertices":6456,"alignment":6457,"callable":6458,"Ġ\"\")":6459,"osite":6460,"views":6461,"ail":6462,"game":6463,"rou":6464,"Ġsimply":6465,"reci":6466,"Tuple":6467,"alan":6468,"dictionary":6469,"effs":6470,"Ġ=>":6471,"Ġintervals":6472,"limits":6473,"Ġcycle":6474,"DA":6475,"LS":6476,"Ġbasis":6477,"Initial":6478,"Ġprice":6479,"previous":6480,"Ġconnections":6481,"Ġcontract":6482,"video":6483,"Module":6484,"Ġmandatory":6485,"FORMAT":6486,"Keys":6487,"Meta":6488,"kip":6489,"Ġfinished":6490,"Ġenough":6491,"ĉĉĉĉĉ":6492,"Ġchecksum":6493,"Ġenviron":6494,"Ġcause":6495,"Ġtaken":6496,"enari":6497,"Ġruns":6498,"Ġrespon":6499,"crement":6500,"ni":6501,"controller":6502,"chunks":6503,"(('":6504,"anit":6505,"vered":6506,"Ġbetter":6507,"white":6508,"prior":6509,"(\"{":6510,"Serial":6511,"Python":6512,")')":6513,"Dist":6514,"ĠCurrent":6515,"CHE":6516,"Ġspecifies":6517,"Ġplan":6518,"cognized":6519,">\\":6520,"Ġlogical":6521,"statement":6522,"Ġdatasets":6523,"FT":6524,"Ph":6525,"Ġconsider":6526,"ĠĠĠĠĊ":6527,"cross":6528,"Ġlonger":6529,"Vector":6530,"Ġshare":6531,"Ġvideo":6532,"Com":6533,"agraph":6534,"Ġparents":6535,"Ġ\"\",":6536,"CAL":6537,"vance":6538,"ranges":6539,"ĠDEFAULT":6540,"Ġrestart":6541,"teger":6542,"ĠRed":6543,"Ġconsole":6544,"umbna":6545,"ali":6546,"oked":6547,"Ġserialized":6548,"Description":6549,"65":6550,"ãĢ":6551,"Ġslot":6552,"ĠSend":6553,"Ġpresence":6554,"scripts":6555,"Schema":6556,"Ġgets":6557,"çĶ":6558,"annotation":6559,":.":6560,"SK":6561,"Ġapproxim":6562,"coe":6563,"Ġgoogle":6564,"Operation":6565,"vor":6566,"rive":6567,"setting":6568,"lations":6569,"mx":6570,"pet":6571,"ĠNetwork":6572,"ĠLe":6573,"Ġvec":6574,"ĠPrint":6575,"permission":6576,"tyle":6577,"Cache":6578,"Location":6579,"Ġsyntax":6580,"adapter":6581,"Ġsmooth":6582,"getter":6583,"Ġresolved":6584,"Ġblank":6585,"Ġgenes":6586,"zon":6587,"Ġplugins":6588,"Document":6589,"Pl":6590,"yes":6591,"vectors":6592,"Ġactor":6593,"Ġ(`":6594,"ĠNow":6595,"\"%":6596,"Ġlst":6597,"ĠGenerated":6598,"outfile":6599,"Ġtogether":6600,"ti":6601,"Ġpointer":6602,"LINE":6603,":],":6604,"DR":6605,"gu":6606,"etc":6607,"Ġlig":6608,"ĠEnsure":6609,"locity":6610,"Missing":6611,"Ġexamples":6612,"minimum":6613,"maximum":6614,"fficient":6615,"pat":6616,"urther":6617,"Ġdjango":6618,"Ġdates":6619,"09":6620,"CF":6621,"SU":6622,"Ġcc":6623,"cookie":6624,"avg":6625,"micro":6626,"tun":6627,"Ġcoefficients":6628,"ĠWill":6629,"Ġfactory":6630,"Ġpoly":6631,"Ġspaces":6632,"Ġcmap":6633,"patterns":6634,"Ġcertain":6635,"luster":6636,"ĠField":6637,"Ġam":6638,"ĠEvent":6639,"redis":6640,"wcs":6641,"ante":6642,"Ġ:,":6643,"Ġresponses":6644,"Ġrather":6645,"Compute":6646,"Feature":6647,"licies":6648,"ĠMulti":6649,"Ġexecutable":6650,"detect":6651,"amera":6652,"processor":6653,"trip":6654,"Ġtail":6655,"ĠUnion":6656,"Ġreplaced":6657,"ropout":6658,"><":6659,"Ġ------":6660,"Ġgradient":6661,"Print":6662,"YANG":6663,"country":6664,"Ġstmt":6665,"curve":6666,"posed":6667,"ildcard":6668,"positions":6669,"attemp":6670,"MODE":6671,"Cloud":6672,"standard":6673,"))]":6674,"Ġlegend":6675,"Ġestimate":6676,"riend":6677,"Ġanswer":6678,"Ġ({":6679,"AUT":6680,"Ġplay":6681,"tn":6682,"ables":6683,"sequences":6684,"Ġtax":6685,"Ids":6686,"Ġ14":6687,"ached":6688,"Ġmagic":6689,"utool":6690,"Host":6691,"pdb":6692,"ĠSome":6693,"And":6694,"Ut":6695,"Ġsol":6696,"ibration":6697,"qs":6698,"Ġvalidator":6699,"FFFF":6700,"SM":6701,"Ġstride":6702,"thresh":6703,"]}":6704,"Ġsid":6705,"Ġred":6706,"executable":6707,"ngine":6708,"Ġsections":6709,"dates":6710,"Ġpush":6711,"sertion":6712,"cutoff":6713,"rozen":6714,"Ġconsist":6715,"Ġprediction":6716,"Ġdep":6717,"absolute":6718,"ĠIPv":6719,"Ġannotations":6720,"Ass":6721,"ags":6722,"zz":6723,"Ġdesign":6724,"Struct":6725,"ĠDate":6726,"ĠAdds":6727,"Ġbeginning":6728,"develo":6729,"()}":6730,"ĠSp":6731,"\",\"":6732,"Ġfoo":6733,"Ġrevision":6734,"ĠHttp":6735,"Ġpie":6736,"blue":6737,"Ġtxt":6738,"Ġke":6739,"herit":6740,"neighbors":6741,"templates":6742,"Ġmaps":6743,"}/{":6744,"vertex":6745,"rouped":6746,"listdir":6747,"Ġslug":6748,"Pos":6749,"Ġoutside":6750,"Multi":6751,"uggest":6752,"oauth":6753,"entities":6754,"Ġmp":6755,"Ġformats":6756,"Ġinitialized":6757,"Ġvars":6758,"formats":6759,"Ġencrypted":6760,"nsupported":6761,"Ġabort":6762,"cells":6763,"38":6764,"wave":6765,"Ġtranslation":6766,"Ġetree":6767,"Ġwarn":6768,"anism":6769,"Send":6770,"how":6771,"Ġhour":6772,"mpls":6773,"ints":6774,"Ġ|=":6775,"rees":6776,"plain":6777,"azure":6778,"ĠPOST":6779,"ExecutionError":6780,"Ġobjective":6781,"ĠSE":6782,"Ġaccepted":6783,"contract":6784,"ĠSave":6785,"Ġdoct":6786,"Ġgeneral":6787,"servers":6788,"Ġvisual":6789,"================================":6790,"lid":6791,"watch":6792,"('[":6793,"ctools":6794,"atting":6795,"Ġtol":6796,"backup":6797,"AG":6798,"Ġur":6799,"fies":6800,"shared":6801,"phab":6802,"Ġformatter":6803,"bbox":6804,"Core":6805,"FIELD":6806,":\"":6807,"sheet":6808,"parsers":6809,"Ġsites":6810,"Ġacross":6811,"SELECT":6812,"XML":6813,"Ġhistogram":6814,"Ġpt":6815,"Ġonto":6816,"projects":6817,"ench":6818,"ensors":6819,"bra":6820,"Ġpending":6821,"dimensions":6822,"Ġunable":6823,"Ġss":6824,"large":6825,"Ġfg":6826,"Ġbbox":6827,"ĠGET":6828,"Make":6829,"lengths":6830,"Ġ'+":6831,"ulative":6832,"Ġtrunc":6833,"xs":6834,"Ġer":6835,"Ġsynchronous":6836,"AML":6837,"symbols":6838,"Ġbundle":6839,"Ġtimedelta":6840,"Template":6841,"Ġidentify":6842,"imal":6843,"Helper":6844,"collect":6845,"license":6846,"OUT":6847,"rices":6848,"Ġready":6849,"gorical":6850,"Ġexactly":6851,"Ġest":6852,"conver":6853,")\",":6854,"ssib":6855,"Dec":6856,"Ġcriteria":6857,"Ġconstraint":6858,"Channel":6859,"=\"\",":6860,"Ġmig":6861,"amb":6862,"Ġthrow":6863,"Ġdirs":6864,"ĠMan":6865,"Ġpickle":6866,"Ġcandidates":6867,"ee":6868,"requencies":6869,"concatenate":6870,"ilio":6871,"genes":6872,"Ġsever":6873,"Enabled":6874,"58":6875,"appro":6876,"ĠServer":6877,"ev":6878,"outer":6879,"ĠKeyword":6880,"chemy":6881,"COM":6882,"activity":6883,"effect":6884,"Ġ{}).":6885,"ability":6886,"tran":6887,"ĠDO":6888,"=',":6889,"mv":6890,"Ġsizes":6891,"ollow":6892,"callpoint":6893,"versal":6894,"phabet":6895,"mav":6896,"åĽ":6897,"37":6898,"tau":6899,"cio":6900,"Rule":6901,"hest":6902,"expect":6903,"Types":6904,"exe":6905,"ĠPlot":6906,"Ġwave":6907,"Ġdisabled":6908,"authentic":6909,"pixel":6910,"deleted":6911,"console":6912,"Ġhandlers":6913,"readline":6914,"Connect":6915,"./":6916,"Ġ64":6917,"Ġeigen":6918,"Ġbias":6919,"ĠAND":6920,"wap":6921,"intervals":6922,"objective":6923,"ĠService":6924,"Ġderived":6925,"mq":6926,"Ġinc":6927,"analy":6928,"contact":6929,"velength":6930,"Ġpassing":6931,"Ġranges":6932,"SCRI":6933,"vcf":6934,"Ġtrip":6935,"esian":6936,"ylabel":6937,"ceeded":6938,"Ġdecoded":6939,"Ġreceive":6940,"bet":6941,"formatter":6942,"Ġestimated":6943,"Ver":6944,"chat":6945,"Ġrout":6946,"rename":6947,"Ġloader":6948,"OB":6949,"xlabel":6950,"Ġcwd":6951,"Ġtests":6952,"yy":6953,"],[":6954,"background":6955,"pn":6956,"ĠSim":6957,"fw":6958,"Ġtransfer":6959,"Ġassignment":6960,"Pool":6961,"conj":6962,"Ġhandling":6963,"ĠĠĠĠĠĠĠĠĠĠĠĠĠĠĠĠĠĠĠĠĠĠĠĠĠĠĠĠĠĠĠĠĠĠĠĠĠĠĠĠĠĠĠĠĠĠĠĠĠĠĠĠ":6964,"Policy":6965,"()`":6966,"Ġweek":6967,"Creates":6968,"Bad":6969,"ĠGets":6970,"Ġplots":6971,"Ġregions":6972,"ARY":6973,"GR":6974,"Ġentities":6975,"some":6976,"tuples":6977,"green":6978,"Reader":6979,"duction":6980,"Ġmonitor":6981,"]-":6982,"hip":6983,"æĪ":6984,"Ġguess":6985,"ubclass":6986,"Ġvariance":6987,"issue":6988,"rv":6989,"Ġverb":6990,"adr":6991,"curr":6992,"Ġcategories":6993,"processed":6994,"itter":6995,"fication":6996,"ĠGo":6997,"subset":6998,"Ġsubstit":6999,"Var":7000,"Ġaux":7001,"parents":7002,"URI":7003,"Url":7004,"ffff":7005,"scribe":7006,"GI":7007,"stall":7008,"ensure":7009,"locals":7010,"æķ°":7011,"kg":7012,"isters":7013,"RC":7014,"Ġmiddle":7015,"ingerprint":7016,"Import":7017,"Ġfully":7018,"ĠInstance":7019,"ĠSearch":7020,"Ġpreviously":7021,"('/')":7022,"lash":7023,"ĠMark":7024,"ECT":7025,"Ġutool":7026,"Ġage":7027,"construct":7028,"[::-":7029,"ipher":7030,"dicts":7031,"Grid":7032,"jid":7033,"Ġrestrict":7034,"ĠRetrieve":7035,"lu":7036,"ov":7037,"Ġ/=":7038,"Please":7039,"Test":7040,"Sets":7041,"constant":7042,"nested":7043,"Ġadds":7044,"âĢ":7045,"timer":7046,"Ġinverse":7047,"Char":7048,"Ġseparated":7049,"Ġhyper":7050,"ĠISO":7051,"noise":7052,"multiple":7053,"ython":7054,"Ġdetected":7055,"EV":7056,"sender":7057,"enc":7058,"Ġclone":7059,"SQL":7060,"Ġ25":7061,"iles":7062,":'":7063,"Ġredis":7064,"HEADER":7065,"choices":7066,"Temp":7067,"Ab":7068,"lify":7069,"acc":7070,"Ġnan":7071,"dian":7072,"å¤":7073,"Ġfallback":7074,"phrase":7075,"Ġwriting":7076,"Ġlisten":7077,"general":7078,"LOGGER":7079,"SN":7080,"Ter":7081,"]=":7082,"Ġstud":7083,"Ġcontained":7084,"Control":7085,"Ġcombined":7086,"canvas":7087,"Sec":7088,"``)":7089,"Ġvisible":7090,"Button":7091,"constraints":7092,"integr":7093,"rypto":7094,"trigger":7095,"mega":7096,"Ġconstants":7097,"Ġrelevant":7098,"geom":7099,"Ġtemplates":7100,"likelihood":7101,"Ġ`~":7102,"fr":7103,"Ġqueries":7104,"unity":7105,"stdin":7106,"........":7107,"Cell":7108,"Pass":7109,"Ġet":7110,"Ġoptionally":7111,"Ġappear":7112,"Ġamp":7113,"Ġhome":7114,"LED":7115,"inx":7116,"Ġprobably":7117,"Ġimmediately":7118,"erial":7119,"ĠPass":7120,"Ġchosen":7121,"VALID":7122,"visit":7123,"!!":7124,"annotations":7125,"URE":7126,"ios":7127,"Ġbuff":7128,"Ġarbit":7129,"ĠVer":7130,"ĠChecks":7131,"href":7132,"ĠSign":7133,"quick":7134,"bundle":7135,"imuth":7136,"Ġbra":7137,"iving":7138,"arrays":7139,"READ":7140,"fastq":7141,"LOCK":7142,"Ġterminal":7143,"Role":7144,"fire":7145,"Ġrouting":7146,"Cons":7147,"Ġhref":7148,"ĠFIX":7149,"ĠMaximum":7150,"ventory":7151,"Ġindicate":7152,"Ġfragment":7153,"Ġembedding":7154,"')):":7155,"Ġlogic":7156,"ĠMin":7157,"iterator":7158,"vidence":7159,"warnings":7160,"pient":7161,"Extract":7162,"Fail":7163,"mazon":7164,"Bytes":7165,"tolist":7166,"ĠClass":7167,"subnet":7168,"Window":7169,"Ġpan":7170,"itable":7171,"GP":7172,"sentence":7173,"Ġaffect":7174,"experiment":7175,"dataframe":7176,"same":7177,"Ġprops":7178,"Ġwhite":7179,"Ġconfigure":7180,"Ġdigits":7181,"Ġretrieved":7182,"voice":7183,"Ġobserved":7184,"ĠInitialize":7185,"Ġcr":7186,"connections":7187,",\"":7188,"VM":7189,"mime":7190,"Ġunderlying":7191,"Queue":7192,"Ġcv":7193,"ĠEnt":7194,"Ġborder":7195,"more":7196,"Ġroles":7197,"Ġinstanti":7198,"Ġcomparison":7199,"Any":7200,"ĠBoolean":7201,"numbers":7202,"umbnail":7203,"ao":7204,"sequ":7205,"dispatch":7206,"ĠSequence":7207,"ĠCloud":7208,"orization":7209,"Ġstatements":7210,"audio":7211,"Ġasynchronously":7212,"Width":7213,"bf":7214,"proj":7215,"Ġattached":7216,"ĠTest":7217,"ational":7218,"Ġfloats":7219,"mediator":7220,"So":7221,"Ġhuman":7222,"Ġgrad":7223,"llo":7224,"Ġloading":7225,"mts":7226,"Ġbecome":7227,"quee":7228,"ĠNaN":7229,"!')":7230,"acl":7231,"åħ":7232,"Profile":7233,"completion":7234,"Ġneighbors":7235,"incip":7236,"riptor":7237,"Med":7238,"_[":7239,"dom":7240,"lated":7241,"ĠAR":7242,"Ġcompression":7243,"Ġextended":7244,"Ġplane":7245,"illi":7246,"ĠFe":7247,"Ġcompatibility":7248,"assessment":7249,").__":7250,"89":7251,"ysql":7252,"07":7253,"cancel":7254,"oa":7255,"ighest":7256,"(\"{}":7257,"Args":7258,"ĠCommandExecutionError":7259,"Ġssl":7260,"claration":7261,"CC":7262,"criteria":7263,"aign":7264,"INTER":7265,"ba":7266,"Ġbook":7267,"composition":7268,"sat":7269,"dig":7270,"Ġconsumer":7271,"irt":7272,"surface":7273,"clone":7274,"Ġmanifest":7275,"00000000":7276,"training":7277,"world":7278,"Ġlocale":7279,"Ġsuc":7280,"Directory":7281,"hard":7282,"Ġdownloaded":7283,"Oper":7284,"hit":7285,"det":7286,"roke":7287,"ĠNAME":7288,"Ġcompletion":7289,"}},":7290,"ĠFormat":7291,"HA":7292,"Ġfurther":7293,"Ġdetermined":7294,"AST":7295,"team":7296,"outine":7297,"LOW":7298,"ĠDetermine":7299,"failure":7300,"NotFoundError":7301,"Ġdaemon":7302,"fully":7303,"Ġquestion":7304,"ony":7305,"lags":7306,"Ġproblems":7307,"legal":7308,"Ġshard":7309,"ĠAllow":7310,"Ġencoder":7311,"alculates":7312,"$',":7313,",-":7314,"Ġ'\"":7315,"Ġarc":7316,"ĠWHERE":7317,"Ġmoment":7318,"Position":7319,"Ġnotebook":7320,"Ġmeasurement":7321,"revision":7322,"flo":7323,"eral":7324,"may":7325,"vention":7326,"ides":7327,"UTP":7328,"retcode":7329,"union":7330,"Ġimported":7331,"sertionError":7332,"Cre":7333,"rdf":7334,"Ġmar":7335,"('#":7336,"compliance":7337,"Ġpip":7338,"ĠMag":7339,"Ġsending":7340,"vrf":7341,"ĠDec":7342,"ĠSup":7343,"Local":7344,"windows":7345,"uffle":7346,"ynomial":7347,"ĠContent":7348,"pur":7349,"äº":7350,"Ġproperly":7351,"Ġcum":7352,"Ġrecomm":7353,"Ġurls":7354,"ific":7355,"Ġincrement":7356,"Ġserialize":7357,":',":7358,"Ġfact":7359,"``:":7360,"Ġlocals":7361,"Ġvertical":7362,"Iteration":7363,"eta":7364,"inations":7365,"yncio":7366,"Ġbytearray":7367,"ĠNull":7368,"sol":7369,"aging":7370,"contains":7371,"fh":7372,"asa":7373,"permissions":7374,"Ġroll":7375,"Ġfront":7376,"ĠReferences":7377,"VALUE":7378,"Ġdialog":7379,"addresses":7380,"iteral":7381,")`":7382,"Ġtb":7383,"installed":7384,"TYPES":7385,"Ġbg":7386,"Ġbug":7387,"Ġthings":7388,"Ġconflict":7389,"sses":7390,"Ġdecorated":7391,"HT":7392,"UST":7393,"Ġpdf":7394,"Ġcorrelation":7395,"...,":7396,"CLA":7397,"()).":7398,"errno":7399,"Ġblack":7400,"ĠBlock":7401,"UTPUT":7402,"'d":7403,"]'":7404,"509":7405,"ace":7406,"Ġ'[":7407,"))))":7408,"æĹ":7409,"cmap":7410,"lstrip":7411,"ttributes":7412,"neighbor":7413,"Plot":7414,"Inv":7415,"Ġactivity":7416,"Ġports":7417,"hand":7418,"issues":7419,"Ġreplacement":7420,"Ġmuch":7421,"enario":7422,"CR":7423,"Ġzer":7424,"TEXT":7425,"Ġscaling":7426,"Ġtrim":7427,"Ġecho":7428,"taint":7429,"intersection":7430,"Ġobservation":7431,":\",":7432,"CB":7433,"WORD":7434,"fits":7435,"lecule":7436,"precision":7437,"expanduser":7438,"Ġadapter":7439,"Ġreversed":7440,"(\"'":7441,"kwds":7442,"ĠEnd":7443,"Ġcorrectly":7444,"Use":7445,"pillar":7446,"Ġgeneric":7447,"Ġalternative":7448,"Ġoverrid":7449,"solver":7450,"usr":7451,"Ġoffsets":7452,"Ġpopulation":7453,"Ġsolver":7454,"Ġhours":7455,"nm":7456,"ĠOPTION":7457,"subscription":7458,"hdr":7459,"spy":7460,"datasets":7461,"heel":7462,"shutit":7463,"Ġsleep":7464,"ĠTask":7465,"([(":7466,"SY":7467,"lope":7468,"Ġwalk":7469,"IRED":7470,"JECT":7471,"hooks":7472,"sensitive":7473,"Ġhalf":7474,"Ġdispatch":7475,"Ġissubclass":7476,"Ġevaluation":7477,"Ġpressure":7478,"ĠFIXME":7479,"shard":7480,"alive":7481,"Ġinstrument":7482,"ĠIs":7483,"requirements":7484,"wall":7485,"inja":7486,"encoder":7487,"vided":7488,"modifi":7489,"checks":7490,"Ġlengths":7491,"MB":7492,"Ġgenome":7493,":\")":7494,"WARNING":7495,"Ġgoing":7496,"getLogger":7497,"001":7498,"Ġpredicate":7499,"Ġpat":7500,"Ġls":7501,"Rel":7502,"Ġcovariance":7503,"submit":7504,"cv":7505,"certificate":7506,"Storage":7507,"species":7508,"written":7509,"browser":7510,"Ġfw":7511,"Ġnative":7512,"Ġdims":7513,"Ġtwilio":7514,"Sum":7515,"wx":7516,"degree":7517,"__))":7518,"Ġrouter":7519,"Ġklass":7520,"STAT":7521,"Ġwaiting":7522,"finite":7523,"Ġable":7524,"deps":7525,"raft":7526,"Ġends":7527,"Ġcatch":7528,"Style":7529,"Ġcred":7530,"ãĢĤ":7531,"irtual":7532,"erce":7533,"ĠToken":7534,"Flow":7535,"sible":7536,"Ġmagnitude":7537,"ĠDon":7538,"regions":7539,"ravel":7540,"ĠNormal":7541,"Ġpredictions":7542,"eration":7543,"Ġlarger":7544,"Ġir":7545,"ĠDescription":7546,"Ġspecies":7547,"Ġfall":7548,"asing":7549,"extent":7550,"poll":7551,"ĠLine":7552,"critical":7553,"\":\"":7554,"Ġneighbor":7555,"Ġsmaller":7556,"hat":7557,"coef":7558,"clusters":7559,"Ġextend":7560,"Proxy":7561,"Ġdocuments":7562,"Ġinterpolation":7563,"Wrapper":7564,"Ġtesting":7565,"Mapping":7566,"lica":7567,"ĠCa":7568,"metry":7569,"Ġ``(":7570,"Ġcomputation":7571,"built":7572,"Ġhigher":7573,"[_":7574,"striction":7575,"cular":7576,">`_":7577,"candidate":7578,"ĠCIM":7579,"Ġchars":7580,"Ġmetavar":7581,"UI":7582,"boto":7583,"slot":7584,"Ġthing":7585,"manifest":7586,"Download":7587,"udo":7588,"Ġdy":7589,"ĠSN":7590,"Pub":7591,"learn":7592,"tb":7593,"stone":7594,"supports":7595,"å®":7596,"ĠMap":7597,"Ġconsistent":7598,"Ġdescribed":7599,"queeze":7600,"ĠSystem":7601,"codeError":7602,"Ġcompress":7603,"notify":7604,"ĠĠĠĠĠĠĠĠĠĠĠĠĠĠĠĠĠĠĠĠĠĠĠĠĠĠĠĠĠĠĠĠĠĠĠĠĠĠĠĠĠĠĠĠĠĠĠĠĠĠĠĠĠĠĠ":7605,"Ġ</":7606,"ledge":7607,"Ġqs":7608,"hparams":7609,"ience":7610,"probab":7611,"urb":7612,"Ġinterest":7613,"Ġsimulation":7614,"negative":7615,"Ġcar":7616,"osome":7617,"Ġformula":7618,"trieves":7619,"Ġsignals":7620,"ssibly":7621,"Ġsin":7622,"'}},":7623,"Bar":7624,"urity":7625,"ĠSource":7626,"Ġmodification":7627,"filenames":7628,"Ġtransformation":7629,"Param":7630,"hours":7631,"={},":7632,"Transform":7633,"Ġcopied":7634,"({\"":7635,"Ġ90":7636,"Ġrgb":7637,"Ġatoms":7638,"median":7639,"çĶ¨":7640,"ĠÐ":7641,"Ġhaving":7642,"48":7643,"Ġglyph":7644,"Ġbinding":7645,"/.":7646,"RF":7647,"density":7648,"ĠIgn":7649,"ĠEither":7650,"Ġct":7651,"Ġsq":7652,"Ġdefaultdict":7653,"RES":7654,"ĠHowever":7655,"war":7656,"Ġ^":7657,"character":7658,"lave":7659,"izers":7660,"__[":7661,"Ġec":7662,"sky":7663,"Identifier":7664,"letes":7665,"(\".":7666,"ĠHel":7667,"interpol":7668,"Copy":7669,"NUM":7670,"Ġstypes":7671,"numeric":7672,"Ġspin":7673,"Ġ13":7674,"generic":7675,"SCII":7676,"Cursor":7677,"Ġicon":7678,"Ġtoler":7679,"ĠPh":7680,"calculate":7681,"STATE":7682,"globals":7683,"sensus":7684,"icipant":7685,"inct":7686,"orn":7687,"conditions":7688,"since":7689,"Ġgame":7690,"agg":7691,"notes":7692,"Ġverbosity":7693,"difference":7694,"Agent":7695,"è¡":7696,"locale":7697,"serializer":7698,"dimensional":7699,"åŃ":7700,"dap":7701,"Ġcap":7702,"Ġinterfaces":7703,"retries":7704,"iguous":7705,"currency":7706,"riendly":7707,"Mark":7708,"finished":7709,"Ġtrying":7710,"west":7711,"Save":7712,"balance":7713,"latitude":7714,"measurement":7715,"saved":7716,"Ġops":7717,"live":7718,"PORT":7719,"aps":7720,"support":7721,"sampling":7722,"arante":7723,"Ġpillar":7724,"ĠParameter":7725,"Ġpolygon":7726,"statistics":7727,"Vis":7728,"WA":7729,"Ġgs":7730,"coun":7731,"isode":7732,"Ġgithub":7733,"ĠSetter":7734,"Matrix":7735,"Ġtimer":7736,"Admin":7737,"Ġmicro":7738,"Ġattempts":7739,"xc":7740,"rem":7741,"xyz":7742,"stud":7743,"))[":7744,"=[],":7745,"stand":7746,"Ġprob":7747,"genome":7748,"elta":7749,"Ġprinted":7750,"dns":7751,"('')":7752,"compressed":7753,"Ġcutoff":7754,"Ġbrowser":7755,"Ġwon":7756,"ĠConverts":7757,"locate":7758,"Ġcompile":7759,"Ġclusters":7760,"gered":7761,"ultiple":7762,"Ġwhitespace":7763,"Ġacc":7764,"shapes":7765,"Ġstdin":7766,"Ġdynamic":7767,"ĠConstruct":7768,"Ġargv":7769,"Ġtempfile":7770,"quant":7771,"]',":7772,"ĠStore":7773,"validator":7774,"Ġreached":7775,"ACT":7776,"offsets":7777,"è®":7778,"Ġocc":7779,"native":7780,"LT":7781,"pull":7782,"seudo":7783,"station":7784,"Ġgp":7785,"sembly":7786,"Root":7787,"ye":7788,"alect":7789,"pag":7790,"LY":7791,"pert":7792,"Comm":7793,"42":7794,"Val":7795,"Ġquiet":7796,"Ġupd":7797,"Ġchoose":7798,"formatted":7799,"timezone":7800,"UND":7801,"rh":7802,"Ġiso":7803,"ĠCom":7804,"interfaces":7805,"aking":7806,"Ġconfirm":7807,"ĠAssertionError":7808,"Ġdoctest":7809,"USE":7810,"orator":7811,"IR":7812,"orph":7813,"indic":7814,"ĠChange":7815,"Factory":7816,"ĠĠĠĠĠĠĠĠĠĠĠĠĠĠĠĠĠĠĠĠĠĠĠĠĠĠĠĠĠĠĠĠĠĠĠĠĠĠĠĠĠĠĠĠĠĠĠĠĠĠĠĠĠ":7817,"nor":7818,"ilename":7819,"ances":7820,"Ġdistances":7821,"repos":7822,"ĠAmazon":7823,"traceback":7824,"ĠUsage":7825,"callbacks":7826,"structions":7827,"Ġdecla":7828,":**":7829,"Limit":7830,"gies":7831,"must":7832,"98":7833,"zoom":7834,"Ġwindows":7835,"Defin":7836,"Ġmaybe":7837,"Ġcoefficient":7838,"Ġtorch":7839,"/{}":7840,"Does":7841,"\"}":7842,"MT":7843,"ĠDataset":7844,"specs":7845,"Ġblue":7846,"unded":7847,"Ġexposure":7848,"])]":7849,"Ġleading":7850,"Ġfasta":7851,"RPC":7852,"VAR":7853,"ĠNum":7854,"ĠStr":7855,"000000":7856,"ĠSpecify":7857,"met":7858,"ailab":7859,"mig":7860,"tm":7861,"ç»":7862,"Ġpg":7863,"Ġ(_":7864,"ĠGit":7865,"configure":7866,"Ġpositional":7867,")\")":7868,"Hash":7869,"bp":7870,"hem":7871,"Ġsubmission":7872,"bolic":7873,"________":7874,"means":7875,"72":7876,"Ġanchor":7877,"Ġvox":7878,"trim":7879,"Ġdepends":7880,"embedding":7881,"repeat":7882,"Ġsquare":7883,"appa":7884,"Ġitertools":7885,">',":7886,"ĠDist":7887,"ĠEX":7888,"byref":7889,"ĠOperationFailed":7890,"Ġsamp":7891,"transition":7892,"ields":7893,"Ġweighted":7894,"Ġbounding":7895,"namespaced":7896,"Ġexpanded":7897,"æĸĩ":7898,"Ġnl":7899,"Ġinline":7900,"Ġraster":7901,"mmar":7902,"daemon":7903,"visor":7904,"Ġspectrum":7905,"square":7906,"normalized":7907,"->":7908,"SUB":7909,"^\\":7910,"ĠDjango":7911,"Ġclassification":7912,"venience":7913,"aming":7914,"cay":7915,"LD":7916,"LATE":7917,"Ġprovides":7918,"Ġ'-'":7919,"404":7920,"Ġordering":7921,"Ġequation":7922,"learning":7923,"NN":7924,"margin":7925,"pw":7926,"ĠPol":7927,"ĠRO":7928,"ĠConnection":7929,"Ġdescribing":7930,"resolution":7931,"imize":7932,"Ġtrailing":7933,"relationship":7934,"Ġepsilon":7935,"bum":7936,"fpath":7937,"represent":7938,"rich":7939,"Ġhandled":7940,"Rece":7941,"ĠRequired":7942,"=''):":7943,"ĠUN":7944,"six":7945,"deriv":7946,"Post":7947,"django":7948,"mtime":7949,"Ġten":7950,"Calculate":7951,"ln":7952,"actual":7953,"Ġtyp":7954,"Account":7955,"working":7956,"Ġopened":7957,"odb":7958,"Ġserializer":7959,"transfer":7960,"rols":7961,"ĠPri":7962,"two":7963,"Ġiterate":7964,"Ġarbitrary":7965,"gence":7966,"Ġxmlns":7967,"Callback":7968,"Ġtransformed":7969,"Ġrename":7970,"urnal":7971,"(\",":7972,"Ġroom":7973,"TRI":7974,"lets":7975,"agger":7976,"translate":7977,"Application":7978,"/\"":7979,"front":7980,"linspace":7981,"Ġsoft":7982,"Ġplotting":7983,"Now":7984,"Ġsilent":7985,"])[":7986,"Ġgetting":7987,"confirm":7988,"Ġcompound":7989,"crypto":7990,"Ġreally":7991,"URCE":7992,"Current":7993,"gc":7994,"wo":7995,"filtered":7996,"TEMP":7997,"uniform":7998,"incipal":7999,"ĠMet":8000,"matplotlib":8001,"DELETE":8002,"ceil":8003,"Ġthresh":8004,"mapped":8005,"jectory":8006,"java":8007,"Ġnotes":8008,"ĠPart":8009,"Ġpreserve":8010,"Select":8011,"Ġ\"\".":8012,"Ġcancel":8013,"checksum":8014,"temperature":8015,"Ġol":8016,"Ġ*,":8017,"Ġvlan":8018,"sequent":8019,"'})":8020,"Unsupported":8021,"pv":8022,"workers":8023,"ctl":8024,"WOR":8025,"Ġcanonical":8026,"mitive":8027,"UNK":8028,"BY":8029,"\\\"":8030,"processes":8031,"ĠXXX":8032,"operations":8033,"ĠPerform":8034,"AUTH":8035,"border":8036,"Ġ%.":8037,"Ġchart":8038,"Ġcompressed":8039,"wind":8040,"groupby":8041,"ttl":8042,"when":8043,"Ġchat":8044,"Project":8045,"'ve":8046,"insum":8047,"Files":8048,"ylim":8049,"Settings":8050,"tected":8051,"CLI":8052,"ĠApply":8053,"ĠStopIteration":8054,"XY":8055,"digits":8056,"VICE":8057,"treat":8058,"runner":8059,"ALI":8060,"ĠAddress":8061,"xpath":8062,"Ġ()":8063,"ĠSince":8064,"Ġdefines":8065,"describe":8066,"tip":8067,"Ġ1024":8068,"Ġcorresponds":8069,"Ġlisted":8070,"capacity":8071,"Ġlex":8072,"Ġclients":8073,"aliases":8074,"meas":8075,"Ġbp":8076,"([])":8077,"Ġvisit":8078,"Register":8079,"dfs":8080,"Ġformatting":8081,"Batch":8082,"Ġhandles":8083,"Ġoccurred":8084,"bridge":8085,"Expected":8086,"Ġquality":8087,"Ġdisplayed":8088,"Popen":8089,"oute":8090,"Ġnewline":8091,"allet":8092,"Ġpredicted":8093,"Font":8094,"Lib":8095,"Ġrecursively":8096,"Ġmaking":8097,"Ġ40":8098,"Track":8099,"ĠUTC":8100,"compare":8101,"(\"\"":8102,"500":8103,"Bind":8104,"Ġfew":8105,"resolver":8106,"iodic":8107,"nonzero":8108,"Ġ{!":8109,"artesian":8110,"EXT":8111,"mkdir":8112,"hot":8113,"terminal":8114,"Ġallele":8115,"countered":8116,"mol":8117,"osed":8118,"Ġguarante":8119,"examples":8120,"stor":8121,"Ġtolerance":8122,"Ġgap":8123,":].":8124,"listen":8125,"objs":8126,"ĠWeb":8127,"Ġattachment":8128,"aux":8129,"Ġstation":8130,"Ġbasename":8131,"kv":8132,"Ġ'$":8133,"limited":8134,"54":8135,"Ġnargs":8136,"Ġnearest":8137,"Ġrepresented":8138,"Given":8139,"Ġexponent":8140,"ailability":8141,"dia":8142,"keyid":8143,"ĠRecord":8144,"share":8145,"Ġfilesystem":8146,"Ġdummy":8147,"Ġmeth":8148,"separator":8149,"Flag":8150,"iming":8151,"\"{":8152,"DP":8153,"Offset":8154,"Ġissues":8155,"fcoe":8156,"Ġmajor":8157,"PREFIX":8158,"pickle":8159,"Align":8160,"removed":8161,"ĠMay":8162,"matching":8163,"definitions":8164,"128":8165,"Ġtun":8166,"precation":8167,"overflow":8168,"binding":8169,"room":8170,"Ġapplies":8171,"LIST":8172,"Builder":8173,"BASE":8174,"fq":8175,"lips":8176,"__:":8177,"ĠWrit":8178,"widths":8179,"pip":8180,"sterior":8181,"Ġrendered":8182,"Ġpdb":8183,"ĠThen":8184,"without":8185,"Ġnormalization":8186,"Ġactivation":8187,"Adds":8188,"ĠValidate":8189,"assignment":8190,"Ġidentical":8191,"Ġzeros":8192,"xlim":8193,"Ġpp":8194,"problem":8195,"kill":8196,"Ġretval":8197,"Ġpersist":8198,"hazard":8199,"Ġlive":8200,"buff":8201,"ixin":8202,"longitude":8203,"rx":8204,"Ġminor":8205,"ĠPermission":8206,"')))":8207,"quared":8208,"Ġoverla":8209,"Ġworld":8210,"Ġlogged":8211,"Ġreach":8212,"Ġdns":8213,"EP":8214,"unct":8215,"beat":8216,"Ġclosest":8217,"perms":8218,"Ġchan":8219,"viders":8220,"Ġmarkers":8221,"Component":8222,".+":8223,"Ġseveral":8224,"degrees":8225,"cks":8226,"litude":8227,"=\"%":8228,"Ġbank":8229,"ĠVersion":8230,"Ġfiltering":8231,"Ġcallbacks":8232,"Ġvarious":8233,"Interface":8234,"evaluate":8235,"Next":8236,"æĺ":8237,"Ġtreat":8238,"Ġaff":8239,"defs":8240,"cluding":8241,"Ġaccepts":8242,"(',')":8243,"}`":8244,"~~~~":8245,"Sc":8246,"Ġouter":8247,".:":8248,"usion":8249,"Ġretries":8250,"ners":8251,"Ġmet":8252,"Ġ\"\":":8253,"ĠColumn":8254,"Descriptor":8255,"ĠTemplate":8256,"Ġbed":8257,"getcwd":8258,"Ġintersection":8259,"Ġrestore":8260,"ĠSpecifies":8261,"BR":8262,"Ġcombination":8263,"Sample":8264,"Ġ{{":8265,"elif":8266,"ctrl":8267,"adow":8268,"queryset":8269,"Ġfollows":8270,"equ":8271,"isnan":8272,"constraint":8273,"ught":8274,"Normal":8275,"ongs":8276,"thers":8277,"cuit":8278,"FLAGS":8279,"Ġ\"__":8280,"ĠSort":8281,"Internal":8282,"mpaign":8283,"Ġconfigs":8284,"Ġrs":8285,"Ġsuitable":8286,"...\")":8287,"adj":8288,"pher":8289,"`).":8290,"Ġdoing":8291,"NotExist":8292,"Ġhashlib":8293,"svg":8294,"initialized":8295,"remaining":8296,"Ġadata":8297,"Ġmacro":8298,"Ġdetail":8299,"matched":8300,"ĠContext":8301,"venance":8302,"Ġcov":8303,"Ġoccurs":8304,"spac":8305,"(\"_":8306,")\"\"\",":8307,"endor":8308,"Ġtranslate":8309,"small":8310,"CAC":8311,"Json":8312,"Ġderivative":8313,"vy":8314,"moving":8315,"scatter":8316,"Ġnewly":8317,"funcs":8318,"Show":8319,"Ġestimator":8320,"land":8321,"ĠBackends":8322,"einsum":8323,"Ġasc":8324,"Ġatt":8325,"Ġyields":8326,"Ġmanually":8327,"mn":8328,"Ġhorizontal":8329,"artifact":8330,"SEPAR":8331,"Ġtau":8332,"hexdigest":8333,"compatible":8334,"73":8335,"tcp":8336,"Ġstar":8337,"Ġconfidence":8338,"Ġ500":8339,"LAN":8340,"impl":8341,"Ġbulk":8342,"ArgumentParser":8343,"wrapped":8344,"Ġhdr":8345,"Ġindexed":8346,"separated":8347,"zed":8348,"Ġtc":8349,"Ġfinish":8350,"Ġbroker":8351,"BE":8352,"execution":8353,"Total":8354,"Prefix":8355,"Ġlight":8356,"Att":8357,"Script":8358,"rea":8359,"ĠthisObj":8360,"UNT":8361,"ĠConfiguration":8362,"ĠYANGDynClass":8363,"YANGDynClass":8364,"_=":8365,"Ġcs":8366,"ĠCallable":8367,"localhost":8368,"Stack":8369,"Ġcipher":8370,"Ġproj":8371,"ĠBad":8372,"REC":8373,"Union":8374,"Ġstrategy":8375,"Ġphone":8376,"Ġtic":8377,"specified":8378,"Ġexpressions":8379,"llegal":8380,"spin":8381,"Ġextent":8382,"OPTION":8383,"Ġrepeat":8384,"hide":8385,"ĠSerial":8386,"xies":8387,"ä½":8388,"alo":8389,"plt":8390,"ĠCopy":8391,"Ġmasked":8392,"completed":8393,"ĠTakes":8394,"Ġsph":8395,"thro":8396,"ĠIterable":8397,"ĠĠĠĠĠĠĠĠĠĠĠĠĠĠĠĠĠĠĠĠĠĠĠĠĠĠĠĠĠĠĠĠĠĠĠĠĠĠĠĠĠĠĠĠĠĠĠĠĠĠĠĠĠĠ":8398,"classification":8399,"umption":8400,"Ġgeneration":8401,"iloc":8402,"information":8403,"Ġaws":8404,"flu":8405,"randint":8406,"take":8407,"intf":8408,"resolved":8409,"Generator":8410,"Ġtranscript":8411,"Dep":8412,"mul":8413,"Tool":8414,"grp":8415,"ctet":8416,"Ġdl":8417,"tailed":8418,"Ġappended":8419,"ĠProject":8420,"arrow":8421,"Ġcapture":8422,"Ġreduced":8423,"ĠCSV":8424,"pically":8425,"ĠUses":8426,"ĠĠĠĠĠĠĠĠĠĠĠĠĊ":8427,"Ġcorrespond":8428,"histogram":8429,"yntaxError":8430,"alancer":8431,"Ġ[('":8432,"grains":8433,"Ġlikely":8434,"Ġii":8435,"Ġproduce":8436,"eg":8437,"ĠAct":8438,"Ġprotein":8439,"compound":8440,"Ġsudo":8441,"Ġcores":8442,"interp":8443,"panel":8444,"Ġmk":8445,"']=":8446,"Ġxmax":8447,"KEN":8448,"}\",":8449,"Required":8450,"pretty":8451,"Ġflush":8452,"])))":8453,"lobs":8454,"Ġdeviation":8455,"Ġleaf":8456,"ĠNullArgument":8457,"Empty":8458,"Net":8459,"ĠStream":8460,"Login":8461,"Web":8462,"omin":8463,"Ġsubmit":8464,"Writ":8465,"_):":8466,"Ġexcluded":8467,"trl":8468,"between":8469,"rn":8470,"Ġcss":8471,"Ġduplicates":8472,"Ġsatis":8473,"DC":8474,"subplot":8475,"Ġdiv":8476,"contrib":8477,"population":8478,"ROOT":8479,"/<":8480,"dit":8481,"Ġmatrices":8482,"Ġusually":8483,"SR":8484,"decoder":8485,"ann":8486,"ĠVariable":8487,"recursive":8488,"Ġna":8489,"Ġ{}:":8490,"Ġjump":8491,"ashboard":8492,"inspect":8493,"SOURCE":8494,"ĠEC":8495,"Ġipv":8496,"ĠDoes":8497,"Ġpercentage":8498,"Ġwildcard":8499,"cepts":8500,"udit":8501,"Example":8502,"crease":8503,"izable":8504,"ordin":8505,"Unit":8506,"Failure":8507,"LAB":8508,"Ġvelocity":8509,"CATION":8510,"pin":8511,"Ġgl":8512,"Ġ180":8513,"Ġwho":8514,"minor":8515,"exact":8516,"apps":8517,"usted":8518,"minutes":8519,"Ġcleanup":8520,"notebook":8521,"SEPARATOR":8522,"Hist":8523,"least":8524,"Ġ18":8525,"Ġrm":8526,"ĠNotFound":8527,"MC":8528,"Ġsink":8529,"Retrieve":8530,"ĠKE":8531,"pacing":8532,"probs":8533,"unicate":8534,"Usage":8535,"Ġmi":8536,"uming":8537,"']}":8538,"anging":8539,"bases":8540,"TEST":8541,"Ġangles":8542,"FIN":8543,"mapper":8544,"literal":8545,"masked":8546,"COMP":8547,"adratic":8548,"Ġndim":8549,"Ġtools":8550,"Ġorientation":8551,"person":8552,"pie":8553,"ĠUsing":8554,"thernet":8555,"Ġgzip":8556,"preview":8557,"imension":8558,"duces":8559,"ITS":8560,"ĠTag":8561,"consumer":8562,"ARD":8563,"Ġbootstrap":8564,"'{":8565,"mpy":8566,"solve":8567,"åį":8568,"Ġfontsize":8569,":]:":8570,"}',":8571,"Ġjs":8572,"levation":8573,"cha":8574,"mous":8575,"variants":8576,"Layout":8577,"ĠHttpResponse":8578,"Cells":8579,"dy":8580,"lax":8581,"collections":8582,"ĠEnvironment":8583,"CMD":8584,"Ġplayer":8585,"...')":8586,"allele":8587,"Ġtrial":8588,"Ġfits":8589,"mtree":8590,"ĠAccess":8591,"gid":8592,"recognized":8593,"ĠTarget":8594,"Ġlaunch":8595,"Pi":8596,"rsplit":8597,"smooth":8598,"Ġtp":8599,"Ġhighest":8600,"ĠWith":8601,"Ġboard":8602,"Ġroutine":8603,"Title":8604,"nv":8605,"SSL":8606,"Timestamp":8607,"Interrupt":8608,"periods":8609,"letion":8610,"Ġrestriction":8611,"Ġomitted":8612,"asc":8613,"Ġlv":8614,"quad":8615,"Ġscene":8616,"Ġevaluated":8617,"Edit":8618,"ĠPost":8619,"under":8620,"abc":8621,"START":8622,"going":8623,"lapse":8624,"setLevel":8625,"rotation":8626,"aring":8627,"Ġ\"+":8628,"olding":8629,"Ġnor":8630,"mainder":8631,"should":8632,"></":8633,"allen":8634,"blank":8635,"Section":8636,"Ġavg":8637,"Ġcharset":8638,"ä¸º":8639,"registered":8640,"SSAGE":8641,"SPACE":8642,"Ġstand":8643,"Ġfigs":8644,"strain":8645,"theme":8646,"pabilities":8647,"developer":8648,"Ġpoll":8649,"but":8650,"wers":8651,"Ġide":8652,"intext":8653,"Ġorbit":8654,"Ġencryption":8655,"2000":8656,"inline":8657,"Ġothers":8658,"coverage":8659,"updates":8660,"Ġfilled":8661,"Ġobservations":8662,"åĽŀ":8663,"{'":8664,"Ġ','.":8665,"Ġdeployment":8666,"600":8667,"Top":8668,"ifiers":8669,"Ġcomplet":8670,"Entity":8671,"igs":8672,"tot":8673,"ctypes":8674,"lace":8675,"('\"":8676,"Ġdecoder":8677,"REF":8678,"special":8679,"Ġdirname":8680,"fragment":8681,"HI":8682,"samp":8683,"parallel":8684,"Ġuniform":8685,"Ġmappings":8686,"statements":8687,"rune":8688,"tzinfo":8689,"Ġbroadcast":8690,"routes":8691,"ocus":8692,"accounts":8693,"ĠColor":8694,"}\")":8695,"ripts":8696,"Ġcoverage":8697,"ĠDocument":8698,"ĠYAML":8699,"Ġperformance":8700,"Split":8701,"pas":8702,"syntax":8703,"Ġrr":8704,"boundary":8705,"Ġcombine":8706,"iline":8707,"Ġcontour":8708,"Ġchr":8709,"Ġinserted":8710,"GO":8711,"Writer":8712,"gui":8713,"vcs":8714,"Ġreject":8715,"routing":8716,"ota":8717,"Ġlearning":8718,"Ġcrop":8719,"Ġinject":8720,"Ġzoom":8721,"Ġ2016":8722,"lasticsearch":8723,"atural":8724,"strptime":8725,">>>":8726,"partitions":8727,"Ð°":8728,"ĠND":8729,"urname":8730,"Ġmv":8731,"Ġhad":8732,"spf":8733,"Stat":8734,"ambda":8735,"mongo":8736,"Ġary":8737,"istype":8738,"charge":8739,"Ġcpu":8740,"Ġlooks":8741,"Ġdatatype":8742,"Ġ;":8743,"Ġnamespaces":8744,"void":8745,"Shape":8746,"Volume":8747,"Ġexchange":8748,"ä¸Ģ":8749,"macro":8750,"46":8751,"éĢ":8752,"ĠMy":8753,"Ġbases":8754,"Lookup":8755,"DoesNotExist":8756,"((\"":8757,"Den":8758,"hits":8759,"Ġfar":8760,"prod":8761,"Ġobtained":8762,"MQ":8763,"bon":8764,"ament":8765,"caller":8766,"PM":8767,"hint":8768,"quis":8769,"pixels":8770,"mavlink":8771,"Mon":8772,"recur":8773,"()])":8774,"gradient":8775,"Ġ-----------":8776,"CHAR":8777,"ĠShow":8778,"Ġidentifiers":8779,"ising":8780,"hyper":8781,"vanced":8782,"59":8783,"Ġln":8784,"Ġhits":8785,"STATUS":8786,"Definition":8787,"ium":8788,"instrument":8789,"ĠSu":8790,"Jo":8791,"pex":8792,"ulations":8793,"provision":8794,"Ġ256":8795,"sensor":8796,"Ġclause":8797,"Stop":8798,"Ġvtk":8799,"ĠReplace":8800,"Ġcapacity":8801,"noun":8802,"ĠURLs":8803,"Items":8804,"Ġincoming":8805,"Ġthro":8806,"Ġdeli":8807,"ĠPAT":8808,"Ġlistener":8809,"COMM":8810,"exposure":8811,"seqs":8812,"ificant":8813,"Ġcod":8814,"ĠCustom":8815,"phan":8816,"Ġpreferred":8817,"illiseconds":8818,"Rect":8819,"unused":8820,"Ġmeasurements":8821,"Ġxs":8822,"Ġregard":8823,"Ġoverlay":8824,"Ġpys":8825,"Ġforms":8826,"readlines":8827,"shutdown":8828,"nom":8829,"vc":8830,"()['":8831,"projection":8832,"Ġshown":8833,"tas":8834,"Ġdeep":8835,"Ġcare":8836,"bindings":8837,"ĠPoint":8838,"Ġ[{'":8839,"Ġbeam":8840,"physical":8841,"starting":8842,"Ġidentified":8843,"raster":8844,"sci":8845,"ĠAS":8846,"middle":8847,"}:{":8848,"ĠReference":8849,"phot":8850,"player":8851,"ĠComm":8852,"located":8853,"999":8854,"DateTime":8855,"Ġincrease":8856,"follow":8857,"minute":8858,"ĠSplit":8859,"references":8860,"questions":8861,"Ġindependent":8862,"namespaces":8863,"\"]))":8864,"Ġplain":8865,"STRING":8866,"maybe":8867,"Ġ---":8868,"Ġcd":8869,"umor":8870,"igure":8871,"alysistype":8872,"factors":8873,"Ġsubsequent":8874,"typ":8875,"Ġaccuracy":8876,"Ġprojects":8877,"Ġartist":8878,"continue":8879,"Ð¾":8880,"Ġscheduler":8881,"Ġdeal":8882,"Ġ{:":8883,"mappings":8884,"ulus":8885,"Validate":8886,"Gra":8887,"Ġtries":8888,"Ġfoot":8889,"Ġpin":8890,"101":8891,"Mag":8892,"xi":8893,"Ġgrouped":8894,"ĠAnd":8895,"123":8896,"UTF":8897,"Ġ128":8898,"licable":8899,"iterations":8900,"directories":8901,"Ġadjac":8902,"good":8903,"mens":8904,"Ġnr":8905,"ERS":8906,"Ġpartitions":8907,"ĠJo":8908,"Ġ2015":8909,"lr":8910,"Ġinstruction":8911,"started":8912,"Namespace":8913,"quality":8914,"Ġaliases":8915,"!\"":8916,"}_":8917,"desk":8918,"Ġance":8919,"Ġperson":8920,"TT":8921,"izations":8922,"streams":8923,"hierarchy":8924,"Ġcrypto":8925,"phone":8926,"Ġ---------":8927,"Ġdescribe":8928,"spacing":8929,")['":8930,"One":8931,"Ġconvention":8932,"Ġaddition":8933,"Ġconverter":8934,"Space":8935,"æį":8936,"ANCE":8937,"plane":8938,"prime":8939,"LOAD":8940,"serialized":8941,"decorator":8942,"Ġpprint":8943,"ĠPY":8944,"Ġunexpected":8945,"Extra":8946,"deserialize":8947,"ĠPub":8948,"angular":8949,"Factor":8950,"Ġdistrib":8951,"Ġmeaning":8952,"received":8953,"pes":8954,"ĠSkip":8955,"Ġencountered":8956,"squeeze":8957,"lide":8958,"(\"[":8959,"initialize":8960,"chanism":8961,"Ġmer":8962,"ĠĠĠĠĠĠĠĠĠĠĠĠĠĠĠĠĠĠĠĠĠĠĠĠĠĠĠĠĠĠĠĠĠĠĠĠĠĠĠĠĠĠĠĠĠĠĠĠĠĠĠĠĠĠĠĠ":8963,"ĠEl":8964,"domains":8965,"URN":8966,"crop":8967,"ĠĠĊ":8968,"Ġcm":8969,"IDs":8970,"Comple":8971,"nick":8972,"åĬ":8973,"mpath":8974,"Ġcolour":8975,"Ġreadable":8976,"Pix":8977,"Ra":8978,"}-":8979,"leting":8980,"Ġins":8981,"Ġspatial":8982,"cus":8983,"Ġinfer":8984,"ĠInt":8985,"Ġupdating":8986,"Loc":8987,"Wh":8988,"_['":8989,"mix":8990,"Ġlinked":8991,"radians":8992,"Ġtenant":8993,"Ġfour":8994,"Ġgives":8995,"protein":8996,"Ġkill":8997,"Ġfc":8998,"Unexpected":8999,"WE":9000,"Ġlif":9001,"ĠRGB":9002,"Ġleave":9003,"snmp":9004,"Ġaggregate":9005,"incomplete":9006,"Ġ'(":9007,"Ġregistration":9008,"ATED":9009,"residue":9010,"Plugin":9011,"Ġui":9012,"Ġ\\\"":9013,"ĠValues":9014,"sgi":9015,"Cluster":9016,"Ġreaction":9017,"Ġhazard":9018,"Ġunion":9019,"Ġosid":9020,"iteration":9021,"Ġservers":9022,"Ġarticle":9023,"vtk":9024,"Ġcomps":9025,"TES":9026,"Ġaggregation":9027,"ads":9028,"scrib":9029,"Ġunused":9030,"runk":9031,"Ġremoving":9032,"68":9033,"Ġsolve":9034,"/',":9035,"scipy":9036,"fir":9037,"Ġ_(\"":9038,"='%":9039,"RECT":9040,"Ġfaster":9041,"Ġfu":9042,"ansion":9043,"Ġ'\\\\":9044,"Ġrhs":9045,"Ġymax":9046,"places":9047,"ĠLook":9048,"enotype":9049,"ĠNULL":9050,"Ġthreading":9051,"Transaction":9052,"vailable":9053,"Ðµ":9054,"illa":9055,"boxes":9056,"Analysis":9057,"tainty":9058,"Ġfire":9059,"DED":9060,"Ġquantity":9061,"trunc":9062,"attachment":9063,"Ġresidual":9064,"Pr":9065,"Ġrepos":9066,"Ġ\"#":9067,"hashes":9068,"Ġprobabilities":9069,"GIN":9070,"Ġmargin":9071,"Ġhold":9072,"Ġoverrides":9073,"Ġasyncio":9074,"Ġinvoked":9075,"ĠHelper":9076,"Wait":9077,"ĠFa":9078,"pients":9079,"Go":9080,"gi":9081,"Ġreload":9082,"Ġbs":9083,"Ġ([":9084,"SB":9085,"encryption":9086,"Ġskipped":9087,"ĠValidationError":9088,"activate":9089,"Ġsci":9090,"Ġsheet":9091,"Ġeq":9092,"}')":9093,"ups":9094,"irect":9095,"inux":9096,"gpu":9097,"CD":9098,"branches":9099,"resize":9100,"Ġcanvas":9101,"Ġminute":9102,"ANGE":9103,"associ":9104,"Ġphysical":9105,"Ġoptimization":9106,"CACHE":9107,"topics":9108,"ancy":9109,"termines":9110,"Float":9111,"MD":9112,"dry":9113,"klass":9114,"vpc":9115,"===":9116,"ĠUp":9117,"ftp":9118,"Ġprocessor":9119,"ä¸ª":9120,"180":9121,"lask":9122,"ĠMO":9123,"Ġcalendar":9124,":`~.":9125,"(':')":9126,"ĠOPTIONAL":9127,"stable":9128,"lest":9129,"reated":9130,"Ġfollowed":9131,"Ġdiagonal":9132,"fm":9133,"Ġsear":9134,"overlay":9135,"67":9136,"Flags":9137,"styles":9138,"celer":9139,"ĠINT":9140,"\")[":9141,"Ġreferenced":9142,"'+":9143,"clock":9144,"Ġhierarchy":9145,"rength":9146,"Ġscaled":9147,"OM":9148,"analysistype":9149,"Ġeg":9150,"ĠSSL":9151,"VA":9152,"half":9153,"Ġemit":9154,"llable":9155,"ĠPage":9156,"ĠDownload":9157,"Ġurlparse":9158,"Ġletter":9159,"400":9160,"PN":9161,"Ġhide":9162,"Ġspecimen":9163,"Ġlikelihood":9164,"ĠTimeout":9165,"Ġbi":9166,":`\\":9167,"ĠJob":9168,"seen":9169,"Ġcid":9170,"rogram":9171,"ĠAb":9172,"*,":9173,"Pay":9174,"Ġcompiled":9175,"Interval":9176,"pedia":9177,"newaxis":9178,"Ġhyd":9179,"/#":9180,"jar":9181,"Ġsd":9182,"tegr":9183,"Ġinteractive":9184,"PEN":9185,"secure":9186,"Rate":9187,"åº":9188,"Ġinf":9189,"perform":9190,"Ġpolynomial":9191,"cleanup":9192,"Ġshortcut":9193,"extended":9194,"Ġdead":9195,"orders":9196,"ĠMI":9197,"Mask":9198,"dynamic":9199,"finish":9200,"ĠInteger":9201,"Ġmarked":9202,"boardInterrupt":9203,"ParseError":9204,"candidates":9205,"Ġspi":9206,"queries":9207,"additional":9208,"Ġ\"{}\"":9209,"Attemp":9210,"predicate":9211,"ĠGu":9212,"stackoverflow":9213,"Ġglobals":9214,"Authorization":9215,"glyph":9216,"orb":9217,"Ġfrequencies":9218,"Ġsen":9219,"Ġworkers":9220,"=__":9221,"tls":9222,"Ġmouse":9223,"Checks":9224,"floor":9225,"300":9226,"Ġinvert":9227,"__'):":9228,"###":9229,"ĠGenerates":9230,"Ġplaceholder":9231,"Ġrespectively":9232,"æĹ¶":9233,"lopen":9234,"Ġassumes":9235,"ĠTrace":9236,"Cate":9237,"overwrite":9238,"vile":9239,"ygons":9240,"Ġembedded":9241,"Try":9242,"pmag":9243,"xt":9244,"poses":9245,"Ġ400":9246,"Word":9247,"Exp":9248,"Domain":9249,"Ġnc":9250,"Ġnn":9251,"anity":9252,"utures":9253,"Ġgeom":9254,"Ġmyminion":9255,"BB":9256,"Ġfin":9257,"Ġslices":9258,"Ġiteritems":9259,"IX":9260,"lb":9261,"listener":9262,"Ġencrypt":9263,"prefixes":9264,"Ġ'?":9265,"chart":9266,"Ġsaltenv":9267,")?":9268,"Ġ[%":9269,"artist":9270,"Ġens":9271,"logits":9272,"Buffer":9273,"Ġoptimizer":9274,"basis":9275,"km":9276,"Ġì":9277,"Ġ\"(":9278,"Ġrid":9279,"ĠPi":9280,"HOST":9281,"Ġdatastore":9282,"ĠCF":9283,"Ġsoup":9284,"Stats":9285,"Keep":9286,"Close":9287,"given":9288,"Package":9289,"Zone":9290,"rmtree":9291,"potential":9292,"feat":9293,"slices":9294,"]/":9295,"Ġdc":9296,"Ġfeat":9297,"è¿Ķ":9298,"Called":9299,"nic":9300,"Ġalphabet":9301,"scp":9302,"formula":9303,"pay":9304,"Loader":9305,"Ġaligned":9306,"authorization":9307,"Ġlargest":9308,"FE":9309,"GL":9310,"Ġsessions":9311,"nonce":9312,"Ġrenderer":9313,"Ġadapt":9314,"Ġprog":9315,"ĠVAL":9316,"Points":9317,"onom":9318,"arily":9319,"Ġincorrect":9320,"qubits":9321,"etic":9322,"Ġ404":9323,"ĠProper":9324,"Active":9325,"Random":9326,"WT":9327,"ech":9328,"Ġattention":9329,"Ġtreated":9330,"alchemy":9331,"Changed":9332,"Denied":9333,"lm":9334,"serts":9335,"Ġpars":9336,"Ġroutes":9337,"locator":9338,":{":9339,"Ġinherit":9340,"endpoints":9341,"ĠSelect":9342,"chdir":9343,"quantity":9344,"åıĸ":9345,"Accept":9346,"There":9347,"Ġtodo":9348,"entifiers":9349,"Creating":9350,"è¿ĶåĽŀ":9351,"cates":9352,"sam":9353,"Ġints":9354,"Ġrunner":9355,"Ġbelong":9356,"Raw":9357,"around":9358,"Ġslow":9359,"lexer":9360,"Ġtyping":9361,"estimator":9362,"****************":9363,"++":9364,"loy":9365,"csr":9366,"tests":9367,"Ġmedian":9368,"anchor":9369,"letter":9370,"Ġmix":9371,"ĠExtra":9372,"Success":9373,"Sk":9374,"datastore":9375,"ĠHere":9376,"ĠExecute":9377,"Ġrem":9378,"Ġrx":9379,"cmp":9380,"ories":9381,"Ġfrozen":9382,"Ġmm":9383,"Ġstuff":9384,"Ġnotify":9385,"ĠSimple":9386,"ĠRemoves":9387,"Database":9388,"heads":9389,"Ġrecommended":9390,".],":9391,"velope":9392,"ĠCurrently":9393,"97":9394,"Ġpossibly":9395,"bem":9396,"Http":9397,"Ġvcf":9398,"ValidationError":9399,"percentage":9400,"lored":9401,"ĠApi":9402,"moment":9403,"todo":9404,"Ġfigsize":9405,"Ġsuggest":9406,"Ġelect":9407,"Ġbranches":9408,"dialog":9409,"(\"<":9410,"linux":9411,"1234":9412,"gd":9413,"Ġttl":9414,"liers":9415,"cookies":9416,"Ġ[_":9417,"ĠCPU":9418,"ĠGO":9419,"nums":9420,"arginal":9421,"Ġupgrade":9422,"overlap":9423,"Ġintegration":9424,"ĠOptions":9425,"[\\":9426,"Ġè":9427,"allenge":9428,"Op":9429,"bio":9430,"Ġelapsed":9431,"ĠLength":9432,"Ġupon":9433,"Ġplus":9434,"TEN":9435,"peg":9436,"too":9437,"Ġpast":9438,"Ġâİ":9439,"ĠEd":9440,"Display":9441,"prediction":9442,"kb":9443,"atal":9444,"ĠYields":9445,"fraction":9446,"hn":9447,"ĠIte":9448,"Ġprefixes":9449,"relpath":9450,"Ġhighlight":9451,"Bin":9452,"upt":9453,"Ġlista":9454,"anitize":9455,"Msg":9456,"mf":9457,"aker":9458,"Bound":9459,"Ġtgt":9460,"Ġkv":9461,"vertical":9462,"ĠUpdates":9463,"Ġ':'":9464,"ĠStruct":9465,"covered":9466,"dients":9467,"Ġrpc":9468,"ĠMapping":9469,"ĠRPC":9470,"DecodeError":9471,"...)":9472,"graphic":9473,"Ġdependent":9474,"Ġvariants":9475,"ĠAssume":9476,"crs":9477,"restore":9478,"Ġstructures":9479,"-\\":9480,"Dial":9481,"Ġending":9482,"Ġversionchanged":9483,"Ġinitialization":9484,"inp":9485,"Ġinp":9486,"ĠSchema":9487,"Ġvo":9488,"tenant":9489,"Ġindicator":9490,"Ġexpired":9491,"=('":9492,"Ġ-->":9493,"RGB":9494,"erance":9495,"Ġreserved":9496,"mails":9497,"ivot":9498,"Ġlab":9499,"ĠLabel":9500,"Ġcorpus":9501,"optimizer":9502,"Ġquick":9503,"Ġ'&":9504,"sph":9505,"ĠLa":9506,"Ġenter":9507,"enchmark":9508,"Ã©":9509,"Ġpb":9510,"helpers":9511,"Ġimpro":9512,"Allow":9513,"Ġconverts":9514,"bulk":9515,"ellow":9516,"-----+":9517,",**":9518,"dv":9519,"ä¼":9520,"ĠAx":9521,"spice":9522,"Ġresolver":9523,"ĠOK":9524,"Ġfloating":9525,"TOKEN":9526,"cdf":9527,"ulary":9528,"Ġheat":9529,"Ġcheckpoint":9530,"datatype":9531,"tell":9532,"Ġdevelo":9533,"activation":9534,"Ġmail":9535,"Ġendpoints":9536,"epsilon":9537,"dependency":9538,"+\"":9539,"crit":9540,"hape":9541,"cipher":9542,"Ġerrno":9543,"Ġrequirement":9544,"Ġbalance":9545,"quid":9546,"HTML":9547,"mant":9548,"delimiter":9549,"Ġvpc":9550,"abort":9551,"substit":9552,"idxs":9553,"TIMEOUT":9554,"Ġshutdown":9555,"sphere":9556,"Report":9557,"Ġdeepcopy":9558,"outcome":9559,"timeseries":9560,"scene":9561,"ĠSession":9562,"NOWN":9563,"reload":9564,"ffe":9565,"Ġcontainers":9566,"issuer":9567,"ĠRaise":9568,"ĠGeo":9569,"Ġsqrt":9570,")})":9571,"Tags":9572,"Ġann":9573,"ĠSSH":9574,"KeyError":9575,"Ġmoving":9576,"Ġrand":9577,"Ġimpact":9578,"Ġgateway":9579,"Symbol":9580,"ĠĠĠĠĠĠĠĠĠĠĠĠĠĠĠĠĠĠĠĠĠĠĠĠĠĠĠĠĠĠĠĠĠĠĠĠĠĠĠĠĠĠĠĠĠĠĠĠĠĠĠĠĠĠĠĠĠ":9581,"Authentication":9582,"Ġresidue":9583,"icles":9584,"DOC":9585,"gov":9586,",%":9587,"ball":9588,"Ġiface":9589,"filen":9590,"')),":9591,"Ġrepeated":9592,"Ġhappens":9593,"ä»¶":9594,"ĠRegister":9595,"93":9596,"Site":9597,"each":9598,"tgt":9599,"Ġsel":9600,"eft":9601,"Ġsplits":9602,"batches":9603,"increment":9604,"ĠSec":9605,"peaks":9606,"Engine":9607,"infer":9608,"Ġthus":9609,"logfile":9610,"onymous":9611,"Ġcumulative":9612,"*\\":9613,"iface":9614,"lencode":9615,"ĠRFC":9616,"Using":9617,"uit":9618,"Ġspacing":9619,"runs":9620,"Protocol":9621,"breviation":9622,")\"\"\"":9623,"workspace":9624,"127":9625,"Ġ\\'{":9626,"'%":9627,"raries":9628,"Ġvalidated":9629,"BACK":9630,"subplots":9631,"Ġworkspace":9632,"vx":9633,"article":9634,"Running":9635,"Ġ``\"":9636,"Ġ...,":9637,"Ġ80":9638,"Ġ'').":9639,"ĠWait":9640,"mallest":9641,"wbem":9642,"ĠGra":9643,"Ġclosing":9644,"destroy":9645,"Ġvolumes":9646,"Assign":9647,"Ġsr":9648,"pagate":9649,"Ġimportant":9650,"ĠMAX":9651,"Ġpanel":9652,"za":9653,"magnitude":9654,"------+":9655,"ĠCalled":9656,"disconnect":9657,"Ġaccounts":9658,"cleaned":9659,"Attributes":9660,"uoa":9661,"Ġbc":9662,"Ġwebs":9663,"Ġsky":9664,"duplicate":9665,"LU":9666,"ĠASCII":9667,"Ġrefer":9668,"ADD":9669,"Ġimplicit":9670,"adapt":9671,"52":9672,"]\")":9673,"Ġoutcome":9674,"Ġsorting":9675,"Ġpublished":9676,"Parent":9677,"Ġassets":9678,"Ġkwarg":9679,"It":9680,"Pe":9681,"hdf":9682,"jd":9683,"yield":9684,"Ġhashes":9685,"Ġnonce":9686,"ĠChannel":9687,"PR":9688,"ĠImplemented":9689,"Ġproduced":9690,"focus":9691,"fac":9692,"translation":9693,"ĠInclude":9694,"Expression":9695,"53":9696,"ctype":9697,"ĠConnect":9698,"Custom":9699,"Doc":9700,"Ġtheme":9701,"Cond":9702,"stride":9703,"containers":9704,"ares":9705,"arp":9706,"Ġalert":9707,"Ġapps":9708,"Ġfake":9709,"OrderedDict":9710,"GRO":9711,"modify":9712,"portal":9713,"charset":9714,"Ġreceiver":9715,"rbridge":9716,"utcnow":9717,"87":9718,"Step":9719,"Windows":9720,"[[":9721,"orientation":9722,"aligned":9723,"figsize":9724,"Gui":9725,"QA":9726,"ariant":9727,"splits":9728,"SES":9729,"visions":9730,"rfc":9731,"writes":9732,"Ġnotifications":9733,"MAC":9734,"zh":9735,"Ġremain":9736,"Ġinvoke":9737,"tains":9738,"Ġcorrection":9739,"dense":9740,"naif":9741,"ggle":9742,"gain":9743,"uli":9744,"othing":9745,"mysql":9746,"constructor":9747,"Ġ17":9748,"Ġdetection":9749,"Ġseems":9750,"ĠVerify":9751,"43":9752,"DER":9753,"slots":9754,"Ġblocking":9755,"bian":9756,"restart":9757,"Ġ'@":9758,"']('":9759,"Ġstddev":9760,"Ġdidn":9761,"combine":9762,"encrypted":9763,"deli":9764,"vest":9765,"readable":9766,"ogen":9767,"Parses":9768,"blacklist":9769,"gres":9770,"topology":9771,"Ġ00":9772,"Loop":9773,"fault":9774,"tid":9775,"lick":9776,"ĠĠĠĠĠĠĠĠĠĠĠĠĠĠĠĠĠĠĠĠĠĠĠĠĠĠĠĠĠĠĠĠĠĠĠĠĠĠĠĠĠĠĠĠĠĠĠĠĠĠĠĠĠĠĠĠĠĠ":9777,"1024":9778,"Ġcustomer":9779,"Ġexpires":9780,"Ġstripped":9781,">=":9782,"Bit":9783,"My":9784,"ĠDep":9785,"SHA":9786,"Ġsubstitution":9787,"Cmd":9788,"atched":9789,"design":9790,"Ġliteral":9791,"abb":9792,"broadcast":9793,"MPLE":9794,"Ġrecipient":9795,"CLASS":9796,"Ġsense":9797,"Ġnt":9798,"Ġlit":9799,"artbeat":9800,"clients":9801,"initializer":9802,"ampling":9803,"Ġack":9804,"Ġste":9805,").\"\"\"":9806,"Ġvoltage":9807,"communicate":9808,"Quantity":9809,"Ġfactors":9810,"Ġrecurse":9811,"pod":9812,"distances":9813,"ĠINPUT":9814,"Global":9815,"verbosity":9816,"Ġgran":9817,"Ġnumerical":9818,"Ġapplicable":9819,"nowledge":9820,"Ġsampler":9821,"}.{":9822,"expires":9823,"ĠPandas":9824,"Ġxmin":9825,"Ġgrains":9826,"centers":9827,"Ġscopes":9828,"authorized":9829,"]{":9830,"etree":9831,"MESSAGE":9832,"subj":9833,"Ġorganization":9834,"Ġpalette":9835,"ĠCount":9836,"Ġstopped":9837,"('.',":9838,"functools":9839,">.":9840,"oi":9841,"rations":9842,"Ġpf":9843,"Ġpadded":9844,"Ġ({})":9845,"journal":9846,"pared":9847,"Ġuncer":9848,"renderer":9849,"llite":9850,"indicator":9851,"NC":9852,"chi":9853,"sudo":9854,"ora":9855,"otropy":9856,"returncode":9857,"Ġexpiration":9858,"ĠDisplay":9859,"bgp":9860,"Ġdynam":9861,"Ġbold":9862,"verb":9863,"Ġrng":9864,"foot":9865,"Ġxpath":9866,"markers":9867,"canonical":9868,"stricted":9869,",:]":9870,"Non":9871,"]\"":9872,"disabled":9873,"Ġcleaned":9874,"Ġlocator":9875,"ĠUTF":9876,"æł":9877,"Ġpot":9878,"Ġstrain":9879,"fileobj":9880,"aggregate":9881,"onts":9882,"Ġamb":9883,"Ġeta":9884,"Ġ{%":9885,"cycles":9886,"ITH":9887,"LINK":9888,"xmin":9889,"Ġpitch":9890,"isdigit":9891,"Ġdeci":9892,"ĠPop":9893,"positive":9894,"Ġdebugging":9895,"Ġaccum":9896,"submission":9897,"stock":9898,"'^":9899,"ä¿":9900,"amel":9901,"atellite":9902,"coeffs":9903,"Ġwhy":9904,"TRY":9905,"ny":9906,"oral":9907,"Ġbond":9908,"ĠInternal":9909,"Ġcurrency":9910,"Ġperiods":9911,"authenticated":9912,"+\\":9913,"CDF":9914,"Delta":9915,"Ġtopology":9916,"ĠAN":9917,"ĠAz":9918,"(\".\")":9919,"Ġxi":9920,"Ġnest":9921,"BEM":9922,"catch":9923,"Ġsing":9924,"('>":9925,"ĠFrom":9926,"Ġpay":9927,"Ang":9928,"sb":9929,"coped":9930,"chors":9931,"Ġstrand":9932,"Ġscripts":9933,"Ġqubits":9934,"hello":9935,"Ġoauth":9936,"responses":9937,"Ġauthenticate":9938,"Ġauthenticated":9939,"å¼":9940,"argspec":9941,"locked":9942,"widgets":9943,"Note":9944,"vv":9945,"ĠON":9946,"Columns":9947,"Ġticks":9948,"gos":9949,"mplements":9950,"Ġoperators":9951,"Ġexecutor":9952,"TODO":9953,"Region":9954,"Ġmixed":9955,"Ġ\"*":9956,"LENG":9957,"Ġstreams":9958,"ĠLocal":9959,"Properties":9960,"Ġcn":9961,"rier":9962,"loading":9963,"Ġwavelength":9964,"'m":9965,"49":9966,"tup":9967,"Ġ23":9968,"docstring":9969,"creation":9970,"See":9971,"roots":9972,"markup":9973,"æį®":9974,"Ġbatches":9975,"Ġticket":9976,"CG":9977,"Ip":9978,"fu":9979,"vstack":9980,"infile":9981,"Ġprofiles":9982,"ĠPRO":9983,"infos":9984,"POINT":9985,"writing":9986,"tunnel":9987,"TABLE":9988,"ele":9989,"guess":9990,"requires":9991,"Ġ[]):":9992,"Ġvisited":9993,"Len":9994,"xlarge":9995,"ilde":9996,"Ġexceed":9997,"Ġ%}":9998,"answer":9999,"LIB":10000,",\\":10001,"AX":10002,"Merge":10003,"UES":10004,"Reads":10005,"ĠNeed":10006,"Ġchromosome":10007,"LENGTH":10008,"bill":10009,"Ġsaving":10010,"viding":10011,"ĠOverride":10012,"converter":10013,"probability":10014,"Menu":10015,"lision":10016,"avig":10017,"SIS":10018,"scopes":10019,"MIT":10020,"Ġresize":10021,"Ġgenerating":10022,"Ġtimestamps":10023,"Perform":10024,"Ġgreen":10025,"LP":10026,"ook":10027,"Ġthird":10028,"nearest":10029,"chains":10030,"ji":10031,"uv":10032,"åľ":10033,"onic":10034,"Segment":10035,"Elements":10036,"ĠREQU":10037,"RT":10038,"ĠMatch":10039,"Ġcalibration":10040,"47":10041,"stp":10042,"cial":10043,"LAY":10044,"PARAM":10045,"Main":10046,"hp":10047,"palette":10048,"rome":10049,"Ġtok":10050,"ĠEND":10051,"marks":10052,"ĠLoop":10053,"transcript":10054,"+',":10055,"}_{":10056,"Ġpen":10057,"Ġparagraph":10058,"ĠLocation":10059,"Ġdiscrete":10060,"ĠMeas":10061,"Pop":10062,"RUN":10063,"mand":10064,"altern":10065,"entropy":10066,"upy":10067,"ĠLink":10068,"Converts":10069,"Ġpasses":10070,"ĠDevice":10071,"Ġrendering":10072,"SERVER":10073,"Ġapproximate":10074,"ĠPATH":10075,"{\\":10076,"LEV":10077,"Ġefficient":10078,"Ġaspect":10079,"Ġboxes":10080,"measurements":10081,"Ġnv":10082,"Ġll":10083,"Ġshif":10084,"ĠAccount":10085,"CIM":10086,"otypes":10087,"Ġquotes":10088,"pressure":10089,"scaled":10090,"tex":10091,"lam":10092,"assets":10093,"outh":10094,"possible":10095,"Ġvmax":10096,"ĠExp":10097,"PG":10098,"ĠView":10099,"Ġeffective":10100,"WORK":10101,"ĠKEY":10102,"=[\"":10103,"bri":10104,"contour":10105,"Ġchains":10106,"Ġascending":10107,"pct":10108,"wl":10109,"etect":10110,"ĠCalculates":10111,"../":10112,"Ġboundaries":10113,"Ġcorner":10114,"Extension":10115,"Axes":10116,"åŃĹ":10117,"TEMPLATE":10118,"Ġcnt":10119,"ĠPort":10120,"mplementation":10121,"ä¸Ń":10122,"Password":10123,"10000":10124,"Ġbb":10125,"rical":10126,"ĠPa":10127,"Ġneur":10128,"ĠExt":10129,"Ġmolecule":10130,"Seq":10131,"consts":10132,"ĠAttemp":10133,"Fore":10134,"Retry":10135,"Ġfaces":10136,"distrib":10137,"HTTPError":10138,"Dialog":10139,"83":10140,"got":10141,"reach":10142,"Ġcf":10143,"reddit":10144,"ĠVPC":10145,"ĠKeyboardInterrupt":10146,"Last":10147,"exchange":10148,"Ġlb":10149,"ĠAli":10150,"ifs":10151,"Ġintermediate":10152,"ticklabels":10153,"Ġbelongs":10154,"Comment":10155,"Ġtweet":10156,"scriptors":10157,"Security":10158,"æī":10159,"rics":10160,"exus":10161,"ATCH":10162,"ĠTransform":10163,"éĩ":10164,"éĹ":10165,"what":10166,"Nodes":10167,"cedure":10168,"Ġsecondary":10169,"sdk":10170,"Ġdetermines":10171,"Ġanim":10172,"Ġascii":10173,"ĠClean":10174,"calendar":10175,"Ġlazy":10176,"Ġflask":10177,"(?:":10178,"SCRIPTION":10179,"uc":10180,"Ġmapper":10181,"Ġaren":10182,"Ġintro":10183,"Ġintersect":10184,"Ġtriggered":10185,"today":10186,"Ġtt":10187,"Ġsurname":10188,"rout":10189,"ĠTer":10190,"tok":10191,"Ġymin":10192,"ĠMatrix":10193,"Ġintended":10194,"Ġ360":10195,"ĠMem":10196,"CCESS":10197,"Ps":10198,"folders":10199,"policies":10200,"ĠĠĠĠĠĠĠĠĠĠĠĠĠĠĠĠĠĠĠĠĠĠĠĠĠĠĠĠĠĠĠĠĠĠĠĠĠĠĠĠĠĠĠĠĠĠĠĠĠĠĠĠĠĠĠĠĠĠĠ":10201,"=\"{":10202,"Ġindexing":10203,"DEX":10204,"generators":10205,"LANG":10206,"mr":10207,"secut":10208,"etched":10209,"ĠIndic":10210,"Ġmaterial":10211,"IGNO":10212,"Ġdeclared":10213,"fontsize":10214,"Endpoint":10215,"ĠSetting":10216,":')":10217,"Sup":10218,"inverse":10219,"Ġhack":10220,"ĠAction":10221,"Ġnetworks":10222,"legate":10223,"Ġstores":10224,"normpath":10225,"'\",":10226,"sun":10227,"))):":10228,"Ġthough":10229,"ĠAB":10230,"ĠAfter":10231,"classname":10232,"ĠGaussian":10233,"ĠHE":10234,"Ġtopics":10235,"63":10236,"çĽ":10237,"coin":10238,"PASS":10239,"gw":10240,"itect":10241,"Ġ''))":10242,"ulator":10243,"indexer":10244,"ĠParses":10245,"TRAN":10246,"Ġ[-]":10247,"ĠPermissionDenied":10248,"Day":10249,"zzy":10250,"Ġretain":10251,"atable":10252,"rift":10253,"ĠSO":10254,"MAGE":10255,"2015":10256,"HOME":10257,"dropout":10258,"alert":10259,"Ġsystems":10260,"coeff":10261,"Ġstyles":10262,"Ġha":10263,"strategy":10264,"argparse":10265,"Ġbuilding":10266,"Ġwrites":10267,"ĠREST":10268,"!=":10269,"Ġexported":10270,"Ġlisting":10271,"acket":10272,"ULTI":10273,"COLOR":10274,"nado":10275,"Ġlicense":10276,"alm":10277,"observation":10278,"Invocation":10279,"ipt":10280,"Ġaway":10281,"ĠSample":10282,"prep":10283,"Ġ31":10284,"Ġplural":10285,"periments":10286,"Updates":10287,"ĠIterate":10288,"SKIP":10289,"Virtual":10290,"hub":10291,"}),":10292,"algo":10293,"alarm":10294,"Ġinfile":10295,"pore":10296,"Ġ||":10297,"Arn":10298,"cpus":10299,"similar":10300,"aggregation":10301,"attempts":10302,"Ġomega":10303,"isis":10304,"vey":10305,"ĠPAR":10306,"\"]]":10307,"inspe":10308,"atios":10309,"ctime":10310,"atever":10311,"ssue":10312,"iness":10313,"bc":10314,"kt":10315,"Ð¸":10316,"always":10317,"outdir":10318,"ĠNon":10319,"Ġcontinuous":10320,"ĠSaltCloud":10321,"REQUEST":10322,"69":10323,"scheduler":10324,"strs":10325,"__',":10326,"ĠMerge":10327,"acquire":10328,"Chain":10329,"Ġflu":10330,"merged":10331,"ĠFILE":10332,"Ġhint":10333,"scroll":10334,"Ġoverall":10335,"retrieve":10336,"Ġlattice":10337,"dirty":10338,"needed":10339,"Ġdestroy":10340,"RS":10341,"ĠMed":10342,"Ġplotted":10343,"ConnectionError":10344,"ĠIgnore":10345,"Ġbam":10346,"Ġwind":10347,"Ġ\":":10348,"ĠSP":10349,"ĠPDF":10350,"interpre":10351,"Ġarrow":10352,"nest":10353,"Ġshapes":10354,"volumes":10355,"Initialize":10356,"ko":10357,"Ġtm":10358,"stub":10359,"Ġinterpret":10360,"lc":10361,"lattice":10362,"vd":10363,"Ġclock":10364,"ugment":10365,"ĠRel":10366,"Install":10367,"itories":10368,"Ġmtf":10369,"into":10370,"ĠRandom":10371,"achine":10372,"regular":10373,"titles":10374,"Ġpiece":10375,"OPTIONS":10376,"encrypt":10377,"ĠUUID":10378,"subscribe":10379,"REQUIRED":10380,"both":10381,"Ġoprot":10382,"ĠThat":10383,"Ġcodecs":10384,"Ġsuppress":10385,"checked":10386,"Ġsimilarity":10387,"mutations":10388,"Ġpieces":10389,"à¸":10390,"Ġws":10391,"maker":10392,"Ġdeps":10393,"compar":10394,"Ġsampled":10395,"Sim":10396,"dum":10397,"ess":10398,"Ġhdu":10399,"ĠNx":10400,"photo":10401,")[-":10402,"Ġnice":10403,"Ġevidence":10404,"ĠFetch":10405,"Ġbuckets":10406,"Ġdigit":10407,"-+-+-+-+-+-+-+-+-+-+-+-+-+-+-+-+":10408,"Ġhealth":10409,"|\\":10410,"atar":10411,"ami":10412,"upgrade":10413,"ĠImp":10414,"ĠPmag":10415,"Ġtimeseries":10416,"Objects":10417,"Attr":10418,"andi":10419,"limin":10420,"Ġgrade":10421,"ĠQueue":10422,"Ġbackward":10423,"broker":10424,"Ġrotate":10425,"Binary":10426,"Has":10427,"holders":10428,"alty":10429,"lio":10430,"clination":10431,"placement":10432,"Ġgenerators":10433,"Ġabstract":10434,"Ġremoves":10435,"ĠReads":10436,"health":10437,"adi":10438,"ĠCorre":10439,"ĠClear":10440,"ĠOUTPUT":10441,"Created":10442,"Ġlanguages":10443,"Ġdetector":10444,"Ġforecast":10445,"creds":10446,"dh":10447,"æĿ":10448,"Ġuploaded":10449,"Operator":10450,"rash":10451,"ptide":10452,"Recs":10453,"ILD":10454,"clause":10455,"Ġ\"[":10456,"ĠCho":10457,"payment":10458,"trial":10459,"argmax":10460,"Ġlowest":10461,"priv":10462,"published":10463,"bootstrap":10464,"Memory":10465,"TING":10466,"getvalue":10467,"ĠSFrame":10468,"ĠSCons":10469,"Ġ22":10470,"ĠHost":10471,"doi":10472,"pkgs":10473,"DIRECT":10474,"uplicate":10475,"Ġlocated":10476,"Ġcollected":10477,"fallback":10478,"pem":10479,"ĠDNS":10480,"ĠOAuth":10481,"Ġgroupby":10482,"omega":10483,"THON":10484,"Ġremainder":10485,"ĠDynam":10486,"InvocationError":10487,"[...,":10488,"Ġtaking":10489,"ĠRef":10490,"Ġenc":10491,"compiler":10492,"Ġscatter":10493,"=[]":10494,"omatic":10495,"Ġexpects":10496,"ĠâĢ":10497,"multiplier":10498,"Ġfingerprint":10499,"Ġgas":10500,"modes":10501,"Ġlocally":10502,"ÑĤ":10503,"kew":10504,"ĠLet":10505,"Ġmodes":10506,"Draw":10507,"Ġum":10508,"Ġgrp":10509,"Ġsupply":10510,"Lock":10511,"SIGN":10512,")*(":10513,"DAT":10514,"Ġpts":10515,"registration":10516,"assigned":10517,")/(":10518,"Ġinterpreted":10519,"CHECK":10520,"(\"\"\"":10521,"??":10522,"urface":10523,"ĠTR":10524,"ased":10525,"notation":10526,"Ġloads":10527,"LIC":10528,"Ġdirective":10529,"ĠDocker":10530,"ticket":10531,"Structure":10532,"ifo":10533,"ino":10534,"Ġmol":10535,"Ġdet":10536,"fab":10537,"Ġ...]":10538,"Ġcolormap":10539,"2014":10540,"Fields":10541,"Datetime":10542,"fb":10543,"spark":10544,"silent":10545,"Ġcome":10546,"configured":10547,"rightness":10548,"dists":10549,"ĠDirectory":10550,"Ġexpire":10551,"MSG":10552,"voltage":10553,"/*":10554,"Ġdp":10555,"Ġdw":10556,"Indi":10557,"filer":10558,"Ġmultiprocessing":10559,"highlight":10560,"\"},":10561,"kwarg":10562,"''.":10563,"checkpoint":10564,"COUNT":10565,"TERN":10566,"xxxx":10567,"impact":10568,"Ġlittle":10569,"alker":10570,"Ġmilliseconds":10571,"signals":10572,"GEX":10573,"Ġmanaged":10574,"Ġconcaten":10575,"stroke":10576,"chines":10577,"elt":10578,"buckets":10579,"estimate":10580,"hardware":10581,"secutive":10582,"BLOCK":10583,"Cd":10584,"Fetch":10585,"SCHE":10586,"gzip":10587,"={\"":10588,"/:":10589,"hstack":10590,"ĠFlag":10591,"ĠOb":10592,"Ġconfigurations":10593,"fromstring":10594,"ĠComple":10595,"MAIN":10596,"Configure":10597,"afka":10598,"Ġ\"/\"":10599,"ĠPrepare":10600,"receiver":10601,"BER":10602,"Mod":10603,"iet":10604,"xb":10605,"predictions":10606,"fed":10607,"ores":10608,"Ġtup":10609,"ascript":10610,"duplicates":10611,"Ġbecomes":10612,"Cal":10613,"Ġswap":10614,"Ġintensity":10615,"Ġsubclasses":10616,"percentile":10617,"POR":10618,"east":10619,"wit":10620,"Ġsf":10621,"define":10622,"REG":10623,"Ġtrajectory":10624,"while":10625,"Execute":10626,"Zip":10627,"ae":10628,"dynam":10629,"qte":10630,"caling":10631,"ĠVector":10632,"ARCH":10633,"crets":10634,"Ġscroll":10635,"Ġlegacy":10636,"horizontal":10637,"æŀ":10638,"Ġground":10639,"ippet":10640,"comps":10641,"placeholder":10642,"Ġ'_'":10643,"ĠComputes":10644,"Signature":10645,"nounce":10646,"Hub":10647,"jump":10648,"udf":10649,"Ġpseudo":10650,"Ġ_('":10651,"aching":10652,"ĠDEBUG":10653,"Geometry":10654,"ĠAzure":10655,"Double":10656,"cri":10657,"inel":10658,"TRA":10659,"Member":10660,"LEVEL":10661,"Ġnick":10662,"setText":10663,"``).":10664,"Ġ{}\\":10665,"COD":10666,"Ġvoxel":10667,"SUP":10668,"TL":10669,"mgr":10670,"Ġflip":10671,"Ġ==========":10672,"ĠModule":10673,"requested":10674,"Ġobserver":10675,"ĠUnique":10676,"Ġradians":10677,"PP":10678,"iro":10679,"ima":10680,"å¯":10681,"reaction":10682,"conversion":10683,"kws":10684,"Ġdiscard":10685,"Ġinterp":10686,"Weight":10687,"dummy":10688,"æģ":10689,"atively":10690,"Ġtell":10691,"Ġaf":10692,"through":10693,"Ġcoef":10694,"Ġcookies":10695,"Ġcategorical":10696,"Registry":10697,"Partition":10698,"+=":10699,"inity":10700,"TAG":10701,"needs":10702,"Off":10703,"elect":10704,"iate":10705,"Ġconsumed":10706,"Ġtransformer":10707,"82":10708,"alformed":10709,"Ġsib":10710,"Ġdialect":10711,"Ġentropy":10712,"reqs":10713,"}.'.":10714,"coordinate":10715,"Art":10716,"OD":10717,"wsgi":10718,"ĠSize":10719,"fobj":10720,"Ġgetter":10721,"loglevel":10722,"graphy":10723,"Ġconditional":10724,"Temporary":10725,"Ġamplitude":10726,"Ġoverridden":10727,"FD":10728,"Ġemp":10729,"Ġbr":10730,"rapping":10731,"Ġchi":10732,"Ġpaired":10733,"Ġbackwards":10734,"vox":10735,"receive":10736,"['__":10737,"ĠFlask":10738,"Ġvmin":10739,"latent":10740,"Identity":10741,"mtp":10742,"sessions":10743,"Ġappears":10744,"Ġele":10745,"Ġgrant":10746,"baz":10747,"ĠIS":10748,"Ġdecrypt":10749,"Ġgenerates":10750,"Ġfitting":10751,"dct":10752,"Ġcube":10753,"inten":10754,"Ġmemo":10755,"subtype":10756,"192":10757,"FORM":10758,"snapshots":10759,"ĠOptionParser":10760,"Ġaffected":10761,"ĠItem":10762,"Ġdic":10763,"etime":10764,"Integer":10765,"rend":10766,"Ġassoc":10767,"qualifier":10768,"polygon":10769,"]]:":10770,"have":10771,"ÑĢ":10772,"Ġsong":10773,"lens":10774,"ĠBut":10775,"Ġcompiler":10776,"Ġexecuting":10777,"Ġunders":10778,"realpath":10779,"ĠNDArray":10780,"BLE":10781,"Pattern":10782,"oser":10783,"stmts":10784,"Retrieves":10785,"starts":10786,"transitions":10787,"Ġindentation":10788,"Ġrecipe":10789,"Ġazimuth":10790,"Ob":10791,"Ġimports":10792,"ACTION":10793,"ĠGoogle":10794,"ĠFlow":10795,"Ġgrab":10796,"weighted":10797,"networks":10798,"Bucket":10799,"Ġlongest":10800,"Ġinternally":10801,"Ġmarket":10802,"ardi":10803,"ĠAuto":10804,"Ġsigning":10805,"wp":10806,"Ġspecs":10807,"Redirect":10808,"Basic":10809,"Sort":10810,"avascript":10811,"Ġdists":10812,"Ġoptimize":10813,"199":10814,"qos":10815,"sink":10816,"Ġylabel":10817,"='')":10818,"Ġpolicies":10819,"ĠMon":10820,"Named":10821,"Ġmock":10822,"pkt":10823,"Render":10824,"Ġslave":10825,"ĠTH":10826,"ĠSite":10827,"Ġyi":10828,"Ġsignificant":10829,"riterion":10830,"Ġdifferences":10831,"Ġsentences":10832,"Lvl":10833,"Ġtip":10834,"Ġix":10835,"Ġche":10836,"dip":10837,"Ġcontrols":10838,"Ġsymmetric":10839,"scaling":10840,"Ġmismatch":10841,"512":10842,">')":10843,"BS":10844,"Qual":10845,"Ġfolders":10846,"vie":10847,"astropy":10848,"timestamps":10849,"Processing":10850,"ĠAppend":10851,"unctuation":10852,"!'":10853,"cannot":10854,"Init":10855,"Insert":10856,"authors":10857,"DIS":10858,"Trace":10859,"Orig":10860,"]')":10861,"bands":10862,"ĠALL":10863,"argsort":10864,"ANT":10865,"Ġvim":10866,"UTC":10867,"ĠOptionally":10868,"Ġtransforms":10869,"Ġfastq":10870,"sf":10871,"Ġ204":10872,"plays":10873,"Ġcapt":10874,"imag":10875,"Ġseason":10876,"profiles":10877,"ĠLay":10878,"Ġperforming":10879,"isoformat":10880,"optimize":10881,"ĠCache":10882,"spatial":10883,"Ġask":10884,"ĠEvalu":10885,"Ġcomputing":10886,"ensities":10887,"Ġcenters":10888,"BIN":10889,"ateway":10890,"redge":10891,"omic":10892,"filt":10893,"beled":10894,"Arg":10895,"Ġcolorbar":10896,"Controller":10897,"SystemExit":10898,":<":10899,"hdu":10900,"exponent":10901,"Ġzipfile":10902,"Ġtriggers":10903,"ĠFeature":10904,"AWS":10905,"Down":10906,"Ġinferred":10907,"Ġsit":10908,"Ġgiving":10909,"ĠEngine":10910,"reading":10911,"traffic":10912,"Ġverification":10913,"TENT":10914,"Ġmigration":10915,"Ġslope":10916,"Ġwater":10917,"ERY":10918,"Ġcompared":10919,"METH":10920,"Ġviews":10921,"Ġwidgets":10922,"firmware":10923,"Ġcircle":10924,"precationWarning":10925,"{{":10926,"Ġtensors":10927,"Ġtouch":10928,"ĠNV":10929,"ĠMissing":10930,"psi":10931,"Ġlinewidth":10932,"Expr":10933,"decla":10934,"Asset":10935,"Ġ\\'%":10936,"61":10937,"Cho":10938,"SPE":10939,"bond":10940,"Ġinference":10941,"locs":10942,"edu":10943,"Ġgt":10944,"occur":10945,"contig":10946,"organization":10947,"specimens":10948,"Ġescaped":10949,"_\"":10950,"secs":10951,"orient":10952,"desired":10953,"pyplot":10954,"cedence":10955,"ĠOrder":10956,"ĠStringIO":10957,"Git":10958,"PRI":10959,"eth":10960,"Ġprepend":10961,"RENT":10962,"authentication":10963,"Ġpkt":10964,"Ġmimetype":10965,"ĠTraceback":10966,"æģ¯":10967,"*',":10968,"Enum":10969,"UAGE":10970,"Ġmutation":10971,"portion":10972,"indexed":10973,"ORM":10974,"Ġdistinct":10975,"ĠShape":10976,"Socket":10977,"Ġ';":10978,"ĠTCP":10979,"Ġexclusive":10980,"strand":10981,"(\"#":10982,"Ġ21":10983,"Ġkm":10984,"{}\\":10985,"Ġfinding":10986,"market":10987,"Folder":10988,"Sto":10989,"who":10990,"**(":10991,"combo":10992,"Ġhowever":10993,"Ġ'{}'\".":10994,"dup":10995,"å½":10996,"Ġfocus":10997,"Ġsg":10998,"Ġburn":10999,"Repository":11000,"ĠFAST":11001,"mouse":11002,"Ġprotobuf":11003,"Ġpc":11004,"ĠRece":11005,"='/":11006,"ĠStatus":11007,"Ġce":11008,"-------+":11009,"Ġ28":11010,"Ġlag":11011,"ĠRow":11012,"Ġscenario":11013,"DOWN":11014,"Must":11015,"gle":11016,"qdm":11017,"oll":11018,"ĠAST":11019,"pause":11020,"paired":11021,"compose":11022,"whitespace":11023,"Ġthumbnail":11024,"Ġguest":11025,"Ġdeg":11026,"Ġbaseline":11027,"overrides":11028,"ĠGraphQL":11029,"Ġfq":11030,"Ġffi":11031,"Ġ###":11032,"ĠInstall":11033,"ĠUnknown":11034,"Ġ'/'.":11035,"Groups":11036,"Ġfunctools":11037,"pic":11038,"Ġdropout":11039,"('__":11040,"gramm":11041,"TypeId":11042,"visual":11043,"NET":11044,"İ·":11045,"ĠStep":11046,"accuracy":11047,"Ġrunas":11048,"Progress":11049,"viz":11050,"Ġmechanism":11051,"etches":11052,"Ġfunctionality":11053,"\"]),":11054,"executor":11055,"','')":11056,"ĠTemp":11057,"]].":11058,"Ġtd":11059,"ĠERR":11060,"())[":11061,"Selection":11062,"mathbf":11063,"Ġapplying":11064,"Ġpurposes":11065,"Ġnic":11066,"Ġ`%":11067,"Ġreports":11068,"ĠMinimum":11069,"iam":11070,"magn":11071,"Ġgid":11072,"Ġmav":11073,"Ġdoi":11074,"monic":11075,"Ġrelations":11076,"hicle":11077,"inventory":11078,"ldp":11079,"ĠStorage":11080,"ducer":11081,"jections":11082,"Ġcoroutine":11083,"deployment":11084,"intenance":11085,"Ġtherefore":11086,"ularity":11087,"savefig":11088,"gorithms":11089,"Ġletters":11090,"tolerance":11091,"WD":11092,"fold":11093,"sector":11094,"ales":11095,"protected":11096,"Ġpayment":11097,"ĠGPU":11098,"acters":11099,"Ġissuer":11100,"Ġacceptable":11101,"æĺ¯":11102,"Opt":11103,"recent":11104,"-----":11105,"ĠNet":11106,"ĠRET":11107,"mods":11108,"observed":11109,"2010":11110,"ĠApplication":11111,"operational":11112,"Email":11113,"Tab":11114,"Ġfresh":11115,"**:":11116,"structures":11117,"ĠWhat":11118,"Ġdomains":11119,"Ġheading":11120,"anisotropy":11121,"epochs":11122,"]_":11123,"atleast":11124,"Ġdpi":11125,"Ġassessment":11126,"netloc":11127,"CREATE":11128,"Ġtruncate":11129,"Ġdom":11130,"Ġ\".\"":11131,"ĠDraw":11132,"ĠNothing":11133,"ĠMongo":11134,"Ġcampaign":11135,"beam":11136,"ENCE":11137,"Ġagg":11138,"Ġlowercase":11139,"Ġpacked":11140,"Counter":11141,"Ġ'.'.":11142,"ĉĉĉĉĉĉ":11143,"Ada":11144,"']])":11145,"='\\":11146,"Conv":11147,"checker":11148,"linked":11149,"ĠQtCore":11150,"Ġstudent":11151,"lator":11152,"Ġdeletion":11153,"ĠFinal":11154,"__()":11155,"latex":11156,"Apply":11157,"92":11158,"Ġdm":11159,"Ġtranslated":11160,"Starting":11161,"EE":11162,"PH":11163,"Scan":11164,"Rep":11165,"Ġelt":11166,"ĠThread":11167,"ĠSaltInvocationError":11168,"Ġflattened":11169,"Summary":11170,"033":11171,"ology":11172,"Ġquoted":11173,"FUN":11174,"OFF":11175,"[~":11176,"eper":11177,"Ġposterior":11178,"INST":11179,"INVALID":11180,"ĠDecimal":11181,"Encoder":11182,"cern":11183,"Ġjoined":11184,"emu":11185,"ilation":11186,"istant":11187,"Ġxlabel":11188,"LEN":11189,"Ġbehaviour":11190,"attempt":11191,"olation":11192,"Ġorth":11193,"perf":11194,"owns":11195,"Ġoutdir":11196,"ARK":11197,"quisition":11198,"62":11199,"Ġci":11200,"Ġsun":11201,"Ġwish":11202,"identifiers":11203,"keh":11204,"][-":11205,"alleli":11206,"endian":11207,"ambig":11208,"ĠSto":11209,"outs":11210,"Ġproducts":11211,"Ġregardless":11212,"Null":11213,"hparam":11214,"kers":11215,"Ġcrit":11216,"ana":11217,"Ġtoday":11218,"ĠCA":11219,"Ġblacklist":11220,"FN":11221,"='.":11222,"compression":11223,"Ġextras":11224,"MAIL":11225,"Ġsmart":11226,"consumed":11227,"clusion":11228,")>":11229,")].":11230,"maries":11231,"Ġpw":11232,"Ġinstructions":11233,"assis":11234,"relu":11235,"Ġrespond":11236,"Ġsmallest":11237,"launch":11238,"Ġcoeffs":11239,"INET":11240,"Setting":11241,"Ġmodname":11242,"Ġtriangle":11243,"Ġterminate":11244,"whitelist":11245,"iator":11246,"Ġawait":11247,"\"]],":11248,"blocking":11249,"saltenv":11250,"Ġtot":11251,"isation":11252,"confidence":11253,"virt":11254,"sentences":11255,"Ġdescend":11256,"Ġsnapshots":11257,"Ġsecure":11258,"Ġconvenience":11259,"Ġskipping":11260,"First":11261,"Filename":11262,"hw":11263,"Ġutf":11264,"reed":11265,"Ġ&=":11266,"Ġapproach":11267,"legacy":11268,"SUCCESS":11269,"GROUP":11270,"GHT":11271,"did":11272,"kl":11273,"decrypt":11274,"Ġshuffle":11275,"corpus":11276,"ĠMeasRec":11277,"tweet":11278,"Ġcamera":11279,"ĠEmpty":11280,"cmds":11281,"azimuth":11282,"camera":11283,"slash":11284,"ĠProtocol":11285,"cleot":11286,"Ġkept":11287,"Ġensures":11288,"Full":11289,"Vert":11290,"qt":11291,"Ġ#################################":11292,"Ġair":11293,"Ġpm":11294,"ĠVolume":11295,"backward":11296,"Iterable":11297,"gapic":11298,"roi":11299,"ĠBinary":11300,"stem":11301,"trained":11302,"Ġcaption":11303,"conflict":11304,"consistent":11305,"Ġscheduled":11306,"755":11307,"hd":11308,"åĩ":11309,"Ġsam":11310,"Ġlw":11311,"Analy":11312,"Ġsqlite":11313,"lipse":11314,"ĠSELECT":11315,"erator":11316,"Ġdetailed":11317,"stringutils":11318,"Ġparsers":11319,"herited":11320,"toolkit":11321,"wikipedia":11322,"ietf":11323,"Ġdr":11324,"Ġ}}":11325,"Ġeasy":11326,"CUR":11327,"getenv":11328,"ĠTHE":11329,"Ġbeg":11330,"codec":11331,"xp":11332,"ĠSQ":11333,"Ġray":11334,"ĠProgram":11335,"imports":11336,"âĢĻ":11337,"quoted":11338,"ĠPl":11339,"fopen":11340,"moot":11341,"NODE":11342,"Ġdaily":11343,"rotate":11344,"GT":11345,"pitch":11346,"Ã¡":11347,"æİ":11348,"Ġhar":11349,"Center":11350,"emp":11351,"fort":11352,"reject":11353,"Ġcritical":11354,"Ġny":11355,"Ġmt":11356,"REGEX":11357,"SOCK":11358,"Ġstudy":11359,"bn":11360,"zA":11361,"ĠPos":11362,"Ġprints":11363,"licity":11364,"correction":11365,"vt":11366,"capture":11367,"Ġclassifier":11368,"æľī":11369,"Term":11370,"xaxis":11371,"coeffici":11372,"Ġgain":11373,"ĠCH":11374,"Enter":11375,"onomy":11376,"Take":11377,"inplace":11378,"traj":11379,"Ġadj":11380,"flows":11381,"polar":11382,"atern":11383,"NULL":11384,"atalog":11385,"lfile":11386,"Ġdatacenter":11387,"Ġresample":11388,"Ġunsigned":11389,"Export":11390,"ĠUseful":11391,"heading":11392,"Gen":11393,"declaration":11394,"Ġprom":11395,"Ġ``.":11396,"Ġnear":11397,"relations":11398,"StringIO":11399,"8601":11400,"pability":11401,"/{}/":11402,"Received":11403,"Multiple":11404,"MULTI":11405,"Ġnotation":11406,"parm":11407,"Ġchip":11408,"ĠForce":11409,"Ġsometimes":11410,"=\"\"):":11411,"]\\":11412,"cube":11413,"Ġpul":11414,"Ġwor":11415,"']).":11416,"Ġdecoding":11417,"ĠDI":11418,"ople":11419,"Ġcomposite":11420,"graphs":11421,"Ġphoto":11422,"zones":11423,"Signal":11424,"inspection":11425,")._":11426,"Github":11427,"xff":11428,"¦Ĥ":11429,"eng":11430,"Ġfriendly":11431,"Ġmgr":11432,"ĠSIG":11433,"ProcessError":11434,")==":11435,"nost":11436,"stors":11437,"Ġrecogn":11438,"3333":11439,"Ġdistributions":11440,"Ġsymbolic":11441,"Ġyears":11442,"autif":11443,"dead":11444,"decl":11445,"Ġrup":11446,"occ":11447,"startup":11448,"ĠSeq":11449,"Permission":11450,"ĠRedis":11451,"CLO":11452,"Mixin":11453,"udio":11454,"åĮ":11455,"Ġfac":11456,"peed":11457,"Ġcollector":11458,"irth":11459,"ertificates":11460,"Ġbroken":11461,"Ġhooks":11462,"ĠAssign":11463,"Ġsucceed":11464,"EW":11465,"eye":11466,"Ġassuming":11467,"Ġ['-":11468,"Notification":11469,"Ġreplic":11470,"Ġconstructed":11471,"moothed":11472,"Card":11473,"YPE":11474,"brain":11475,"idle":11476,"ĠReset":11477,"Ġuserid":11478,"RESS":11479,"Dest":11480,"Ġdrawn":11481,"Util":11482,"gas":11483,"district":11484,"('=":11485,"vides":11486,"\")]":11487,"ockets":11488,"ERT":11489,"2018":11490,"+)":11491,"caps":11492,"Debug":11493,"Ġstops":11494,"Ġutc":11495,"Ġhardware":11496,"pf":11497,"tpl":11498,"ç¬":11499,"Ġdct":11500,"Remote":11501,"])):":11502,"Ġsubtype":11503,"modname":11504,"ĠDefine":11505,"ĠManage":11506,"rating":11507,"Ġcontig":11508,"Construct":11509,"Ġmoved":11510,"queues":11511,"Ġopcode":11512,"APP":11513,",,,,":11514,"autiful":11515,"51":11516,"urses":11517,"Ġchanging":11518,"scriber":11519,"FileName":11520,"Environment":11521,"Ġearly":11522,"[^":11523,"fwd":11524,"ky":11525,"wf":11526,"Ġlearn":11527,"ĠNOQA":11528,"Exists":11529,"ominator":11530,"DT":11531,"DX":11532,"cron":11533,"{\"":11534,"decay":11535,"Ġopp":11536,"ĠVis":11537,"Ġsubtract":11538,"customer":11539,"counters":11540,"ĠMetadata":11541,"Ġcompletely":11542,"Future":11543,"ĠKeep":11544,"inet":11545,"once":11546,"stre":11547,"Ġaa":11548,"pole":11549,"fromtimestamp":11550,"closing":11551,"ĠJava":11552,"hop":11553,"unix":11554,"Ġorient":11555,"intersect":11556,"colorbar":11557,"Ġpolar":11558,"Ġpairwise":11559,"Ġoptimal":11560,"Utils":11561,"Ġolder":11562,"Simple":11563,"\\.":11564,"):]":11565,"quit":11566,"psd":11567,"Ġ----------------------------------------":11568,"markdown":11569,"expired":11570,"Ġfine":11571,"Ġpow":11572,"Ġem":11573,"lazy":11574,"pow":11575,"Ġ`.":11576,"bsException":11577,"Ġrandomly":11578,"LAST":11579,"Ġplaces":11580,"ĠIPython":11581,"}\"'.":11582,"Soup":11583,"Category":11584,">{":11585,"deep":11586,"unlink":11587,"that":11588,"Conver":11589,"İ·åıĸ":11590,"ering":11591,"arse":11592,"uric":11593,"tabs":11594,"Ġpag":11595,"combined":11596,"asafe":11597,"LABEL":11598,"Ġpod":11599,"ä¸į":11600,"Ġconverting":11601,"Ġinterpolate":11602,"Ġrespective":11603,"Ġsemi":11604,"Ġleader":11605,"Ġopening":11606,"ĠDetermines":11607,"Axis":11608,"ĠNumPy":11609,"yml":11610,"Ð½":11611,"Ġot":11612,"raction":11613,"ĠĠĠĠĠĠĠĠĠĠĠĠĠĠĠĠĠĠĠĠĠĠĠĠĠĠĠĠĠĠĠĠĠĠĠĠĠĠĠĠĠĠĠĠĠĠĠĠĠĠĠĠĠĠĠĠĠĠĠĠĠĠ":11614,"ENTI":11615,"Ġreflect":11616,"Ġmodifications":11617,"lhs":11618,"Short":11619,"itecture":11620,"Area":11621,"MAN":11622,"wheel":11623,"Ġconsensus":11624,"Ġattack":11625,"LOB":11626,"PROTO":11627,"capital":11628,"(\"\")":11629,"Ġfo":11630,"Ġwf":11631,"Ġwire":11632,"Ġoften":11633,"{}_":11634,"sibl":11635,"Ġprimitive":11636,"ickness":11637,"terminate":11638,"Ġsymlink":11639,"ĠSaltCloudSystemExit":11640,"!\".":11641,"Left":11642,"Ġconj":11643,"Regex":11644,"ĠEOF":11645,"Proto":11646,"prom":11647,"Ġflo":11648,"Ġproxies":11649,"ĠFigure":11650,"Ġrefs":11651,"NAMES":11652,"Ġreported":11653,"EVENT":11654,";\\":11655,"resample":11656,"disp":11657,"discard":11658,"community":11659,"ĠGenerator":11660,"Ġtruth":11661,"UPDATE":11662,"builtin":11663,"also":11664,"Ġ\"&":11665,"('\\\\":11666,"Ġcomes":11667,"Ġdeferred":11668,"pywbem":11669,"Inf":11670,"stddev":11671,"leton":11672,"rollment":11673,"Runtime":11674,"sqlite":11675,"secondary":11676,"Ġaltitude":11677,"fileno":11678,"Ġ\"$":11679,"Ġring":11680,"Ġ2000":11681,"ĉĉĠĠĠ":11682,"caption":11683,"ĠInst":11684,"Ġconnecting":11685,"Ġmaintain":11686,"Ġcombinations":11687,"Ġsolar":11688,"Relation":11689,"LANGUAGE":11690,"GEN":11691,"RU":11692,"every":11693,"guid":11694,"ldap":11695,"ras":11696,"olves":11697,"Ġexe":11698,"Ġupstream":11699,"Ġforeign":11700,"calibration":11701,"Ġreshape":11702,"Ġlogfile":11703,"DEF":11704,"printer":11705,"fullname":11706,"Ġgoes":11707,"Ġrectangle":11708,"managed":11709,"meter":11710,"Ġinventory":11711,"plate":11712,"Ġcommunic":11713,"Append":11714,"Ġperforms":11715,"DULE":11716,"Ġsingular":11717,"mutation":11718,"uids":11719,"reversed":11720,"shif":11721,"Ġplaced":11722,"transformer":11723,"ĠMove":11724,"RM":11725,"invert":11726,"preprocess":11727,"ifies":11728,"Ġneither":11729,"extras":11730,"Ġlatent":11731,"=\",":11732,"wire":11733,"oned":11734,"Ġtranspose":11735,"__),":11736,"Ġpkgs":11737,"ORDER":11738,"Ġpurpose":11739,"57":11740,"instr":11741,"Ġcle":11742,"anner":11743,"Ġmc":11744,"['--":11745,"centric":11746,"individual":11747,"aneous":11748,"treatment":11749,"Body":11750,"âķ":11751,"ĠPDB":11752,"litlet":11753,"ORI":11754,"SETTING":11755,"Ġanalyses":11756,"guide":11757,">/":11758,"Bot":11759,"grant":11760,"wv":11761,"xfer":11762,"ĠSymbol":11763,"Ġvrf":11764,"{}.":11765,"lashes":11766,"transforms":11767,"ĠEntry":11768,"CN":11769,"Clean":11770,"Certificate":11771,"Like":11772,"]})":11773,"chast":11774,"Ġstable":11775,"Ġdeclaration":11776,"ĠĠĠĠĠĠĠĠĠĠĠĠĠĠĠĠĠĠĠĠĠĠĠĠĠĠĠĠĠĠĠĠĠĠĠĠĠĠĠĠĠĠĠĠĠĠĠĠĠĠĠĠĠĠĠĠĠĠĠĠ":11777,"Ġdirected":11778,"Icon":11779,"]\",":11780,"thumbnail":11781,"providers":11782,"presence":11783,"ĠBit":11784,"Ġimportlib":11785,"LIMIT":11786,"Move":11787,"Got":11788,"IMAGE":11789,"bidden":11790,"Ġcredential":11791,"ĠMultiple":11792,"DOUT":11793,"flask":11794,"168":11795,"Ġatomic":11796,"ĠAccept":11797,"UNKNOWN":11798,"oting":11799,"yperedge":11800,"Ġunchanged":11801,"soup":11802,"chedul":11803,"Ġinstantiate":11804,"ĠNVML":11805,"=\\":11806,"brid":11807,"mic":11808,"Ġlogits":11809,"observations":11810,"Ġwhitelist":11811,"æĸĩä»¶":11812,"ivari":11813,"Ġobjs":11814,"Ġexpansion":11815,"residual":11816,"fabric":11817,"dw":11818,"pu":11819,"Ġtrees":11820,"colour":11821,"Ġconsecutive":11822,"Ġys":11823,"frozen":11824,"(\">":11825,"Ġwhatever":11826,"ONT":11827,"computed":11828,"ĠContainer":11829,"Ġplate":11830,"ĠQA":11831,"explicit":11832,"overla":11833,"Ġinsertion":11834,"(.*":11835,"OUTPUT":11836,"dget":11837,"Ġlhs":11838,"Ġgaussian":11839,"Ġcoerce":11840,"ĠMUST":11841,"Ġauthors":11842,"Ġtwice":11843,"Ġseparators":11844,"æĪ·":11845,"Fl":11846,"Sa":11847,"VS":11848,"egg":11849,"hg":11850,"Ġping":11851,"ĠPay":11852,"Ġyes":11853,"Ġ``_":11854,"Ġ{}.":11855,"Ġconsume":11856,"Statement":11857,"waiting":11858,"KEYS":11859,"Ġprincipal":11860,"Clear":11861,"bd":11862,"tumor":11863,"Ġnm":11864,"Ġgr":11865,"Replace":11866,"Ġphot":11867,"Ġshows":11868,"replic":11869,"Features":11870,"Ġamong":11871,"ĠMagRec":11872,"TemporaryFile":11873,"aco":11874,"bold":11875,"flip":11876,"yd":11877,"Conf":11878,"subs":11879,"arer":11880,"Ġ\",\".":11881,"Ġtypically":11882,"ISO":11883,"neur":11884,"{},":11885,"episode":11886,"LOCAL":11887,"Enable":11888,"abbix":11889,"Err":11890,"GG":11891,"ä¹":11892,"deprecated":11893,"isted":11894,"preferred":11895,"ĠUP":11896,"weep":11897,"Ġtransactions":11898,"ĠConst":11899,"facet":11900,"ĠSection":11901,"specification":11902,"æĪĲ":11903,"lue":11904,"æĶ":11905,"orbit":11906,"look":11907,"Ġdrive":11908,"Ġproviding":11909,"ĠJust":11910,"Ġtitles":11911,"sampled":11912,"Events":11913,"Ġ2017":11914,"Ġinstallation":11915,"Ġoccurrences":11916,"ISTORY":11917,"ĠDecorator":11918,"]|":11919,"blast":11920,"Ġreuse":11921,"Ġfiletype":11922,"Ġcomputes":11923,"Ġlimited":11924,"Encoding":11925,"OLD":11926,"Ġiv":11927,"iters":11928,"Ġweld":11929,"rie":11930,"mas":11931,"odata":11932,"ĠFuture":11933,"ĠPut":11934,"Ġxx":11935,"Ġpackets":11936,"tsv":11937,"manent":11938,"}\\'":11939,"correlation":11940,"ĠEnable":11941,"ĠLoads":11942,"onto":11943,"legram":11944,"Ġrt":11945,"ĠHDF":11946,"posix":11947,"passwd":11948,"Ġplaintext":11949,"Ġhelpers":11950,"NONE":11951,"ays":11952,"provenance":11953,"shuffle":11954,"ĠSecond":11955,"Ġsearching":11956,"POSE":11957,"Byte":11958,"Ġcycles":11959,"Ġmeasured":11960,"Calculates":11961,"gray":11962,"ullable":11963,"Ġhunt":11964,"certs":11965,"è¡¨":11966,"PORTED":11967,"Ġdn":11968,"('',":11969,"Ġ`{":11970,"scr":11971,"ĠOpt":11972,"ĠWS":11973,"diagonal":11974,"Ġsmoothing":11975,"RDF":11976,"hr":11977,"yr":11978,"Ġstroke":11979,"Ġholds":11980,"ages":11981,"interactive":11982,"AttributeError":11983,"Ġpmagplotlib":11984,"torch":11985,"handled":11986,"Driver":11987,"Ġrecognized":11988,"Ġsemant":11989,"ĠDes":11990,"ĠBY":11991,"Ġpassphrase":11992,"requester":11993,"CONST":11994,"Ġcircuit":11995,"chip":11996,"viations":11997,"ĠLambda":11998,"Ġportal":11999,"Ġfailures":12000,"Ġ123":12001,"Ġautomatic":12002,"Ġrecursion":12003,"BA":12004,"`.\"\"\"":12005,"human":12006,"Ġfid":12007,"Ġfpath":12008,"Ġreward":12009,"ĠWhere":12010,"Provider":12011,"Shk":12012,"Ġfluxes":12013,"æŀľ":12014,"Calcul":12015,"Ġprt":12016,"())))":12017,"Ġalg":12018,"\")):":12019,"ĠMD":12020,"Ġcoll":12021,"Ġunsupported":12022,"tracker":12023,"Ġcauses":12024,"Ġclassname":12025,"Ġrealm":12026,"ĠZero":12027,"Ġdropped":12028,"Ġshe":12029,"pache":12030,"agents":12031,"MEN":12032,"planation":12033,"ĠERROR":12034,"WIN":12035,"å°":12036,"Ġunset":12037,"ĠGen":12038,"Ġoverwritten":12039,"Ġgrammar":12040,":]))":12041,"Variant":12042,"ock":12043,"vp":12044,"inject":12045,"stype":12046,"urlopen":12047,"Reset":12048,"ĠFl":12049,"ĠThey":12050,"Ġpaper":12051,"Ġqubit":12052,"qualified":12053,"Ġ${":12054,"Iterator":12055,"ĠMAV":12056,"TM":12057,"UUID":12058,"fingerprint":12059,"rates":12060,"Ġwcs":12061,"Ġwallet":12062,"Ġmarginal":12063,"called":12064,"ĠFOR":12065,"Ġclustering":12066,"Ġnamedtuple":12067,"Ġmodifier":12068,"crc":12069,"gh":12070,"Ġfr":12071,"Ġ''),":12072,"Ġalarm":12073,"Ġ2018":12074,"Ġconvergence":12075,"uricreate":12076,"\"``":12077,"Ign":12078,"Ġimt":12079,"ĠTree":12080,"ĠLinux":12081,"mini":12082,"Ġpointing":12083,"Ġsubjects":12084,"Ġscales":12085,"?\\":12086,"Reply":12087,"pread":12088,"Ġjid":12089,"TIVE":12090,"ĠSetup":12091,"symlink":12092,"SCRIPT":12093,"CLIENT":12094,"Ġalbum":12095,"Ġunix":12096,"Ġdirections":12097,"Ġintercept":12098,"transactions":12099,"strained":12100,"Ġmarkdown":12101,"Ġregexp":12102,"Lines":12103,"assembly":12104,"Ġrd":12105,"ĠEstim":12106,"ĠBytes":12107,"Ġpeaks":12108,"ä¿¡":12109,"anza":12110,"libs":12111,"Ġfirm":12112,"ĠSame":12113,"ĠCannot":12114,"material":12115,"Ġ300":12116,"Ġindexer":12117,"forum":12118,"discrete":12119,"2016":12120,"Price":12121,"Long":12122,"nk":12123,"Ġcsr":12124,"ĠPID":12125,"Ġenforce":12126,"abbreviation":12127,"Ġsphere":12128,"closure":12129,"ĠJson":12130,"delt":12131,"Ġoccurrence":12132,"Ġpotentially":12133,"Poly":12134,"Ġblueprint":12135,"DK":12136,"Language":12137,"itivity":12138,"Ġ10000":12139,"Ġpagin":12140,"psa":12141,"Conn":12142,"Headers":12143,"Ġeffects":12144,"Rows":12145,"Depend":12146,"was":12147,"Ġbrain":12148,"Ġsess":12149,"ĠNS":12150,"newline":12151,"Ġverified":12152,"Ġquadratic":12153,"FIL":12154,"Ġexpressed":12155,"NotSet":12156,"Ġauthorized":12157,"Ġbindings":12158,"Ġtiles":12159,"ĠBecause":12160,"Ġthrown":12161,"Termin":12162,"cart":12163,"hold":12164,"iff":12165,"âĸ":12166,"itches":12167,"ĠTotal":12168,"ĠBig":12169,"Ġcmds":12170,"pubkey":12171,"CONTENT":12172,"writerow":12173,"Public":12174,"Cdlib":12175,"invoke":12176,"losses":12177,"Ġsector":12178,"tections":12179,"Ġtransitions":12180,"Ġfluid":12181,"Ġindicated":12182,"ĠProperty":12183,"trees":12184,"arb":12185,"Ġlvl":12186,"ĠRetrieves":12187,"abstract":12188,"ternet":12189,"Ġminions":12190,"Ġinteractions":12191,"...\"":12192,"Ġgraphs":12193,"Ġsimulated":12194,"2017":12195,"languages":12196,"Ġearlier":12197,"drive":12198,"tmpl":12199,"arter":12200,"Ġ(?":12201,"Ġholding":12202,"Ġ*/":12203,"ĠFix":12204,"Ġcontrib":12205,"ĠCond":12206,"rollback":12207,"Height":12208,"Abstract":12209,"PACK":12210,"dk":12211,"will":12212,"')])":12213,"Errors":12214,"ĠĠĠĠĠĠĠĠĠĠĠĠĠĠĠĠĠĠĠĠĠĠĠĠĠĠĠĠĠĠĠĠĠĠĠĠĠĠĠĠĠĠĠĠĠĠĠĠĠĠĠĠĠĠĠĠĠĠĠĠĠ":12215,"Ġpainter":12216,"ATURE":12217,"Expi":12218,"Ġperiodic":12219,"Details":12220,"Ġframework":12221,"Ġcalculating":12222,"annotate":12223,"Ġqueues":12224,"Ġserialization":12225,"Ġfrac":12226,"ASK":12227,"ĠTransfer":12228,"cumsum":12229,"ĠStructure":12230,"hh":12231,"tlen":12232,"Ġpsd":12233,"adm":12234,"Ġconstruction":12235,"Ġsubs":12236,"REE":12237,"1111":12238,"finalize":12239,"Credentials":12240,"SyntaxError":12241,"citation":12242,"Ġmn":12243,"consensus":12244,"ĠSV":12245,"ĠSum":12246,"Ġva":12247,"addHandler":12248,"fee":12249,"å¾":12250,"ately":12251,"minus":12252,"workdir":12253,"Decimal":12254,"circle":12255,"alogs":12256,"81":12257,"gal":12258,"tions":12259,"illed":12260,"ĠTw":12261,"))),":12262,"asses":12263,"Ġfileobj":12264,"Ġjava":12265,"Ġsubmitted":12266,"Product":12267,"')).":12268,"ĠStandard":12269,"Ġnormally":12270,"ĠRuns":12271,"Loading":12272,"Ġreplication":12273,"Ġseparately":12274,"Polygon":12275,"firmed":12276,"Scale":12277,"Some":12278,"TU":12279,"ggreg":12280,"ystemd":12281,"schemas":12282,"Arguments":12283,"Generates":12284,"éĹ´":12285,"FACT":12286,"ILED":12287,"Release":12288,"ĠFrame":12289,"addrs":12290,"ĠME":12291,"ĠCollect":12292,"Decorator":12293,"ico":12294,"jinja":12295,"trunk":12296,"ĠâĶ":12297,"song":12298,"INPUT":12299,"spawn":12300,"Ġshouldn":12301,"Ġquit":12302,"Ġworksheet":12303,"antiate":12304,"purpose":12305,"({})":12306,")``.":12307,"dent":12308,"sz":12309,"ymin":12310,"Ġgaps":12311,"ĠAut":12312,"ĠSI":12313,"Ġpropag":12314,"Ġraising":12315,"texts":12316,"Ġbyref":12317,"ĠQgs":12318,"ĠHeader":12319,"autifulSoup":12320,"evidence":12321,"kn":12322,"Ġtpl":12323,"Require":12324,"Ġfilt":12325,"Produce":12326,"servable":12327,"ĠCollection":12328,"Ġcopies":12329,"Geo":12330,"+')":12331,"]_.":12332,"patches":12333,"wide":12334,"yaxis":12335,"secho":12336,"kes":12337,"vect":12338,"nthe":12339,"ĠFull":12340,"Ġdefer":12341,"Ġknot":12342,"ĠWhich":12343,"hesis":12344,"SERVICE":12345,"('.')[":12346,"åĲį":12347,"aternion":12348,"far":12349,"łģ":12350,"intro":12351,"Ġ```":12352,"Ġretcode":12353,"Ġdiscovery":12354,"Idx":12355,"Ġutility":12356,"Ġexpectation":12357,"predicted":12358,"Sync":12359,"elastic":12360,"hance":12361,"qm":12362,"||":12363,"Ġdense":12364,"ĠTABLE":12365,"('$":12366,"ets":12367,"Ġ3600":12368,"Ġcontexts":12369,"cdlib":12370,"shortcut":12371,"rupted":12372,"Ġrecipients":12373,"}</":12374,"Ġcmp":12375,"urable":12376,"ĠTI":12377,"=====":12378,"Ġtranslations":12379,"aven":12380,"populate":12381,"Dim":12382,"æĮ":12383,"segs":12384,"Ġff":12385,"upd":12386,"touch":12387,"ä¸ĭ":12388,"ivariate":12389,"Ġinclusive":12390,"Ġbon":12391,"ĠCor":12392,"ĠRequires":12393,"Ġcurves":12394,"Ġsaf":12395,"xFF":12396,"decess":12397,"ĠStack":12398,"provided":12399,"allery":12400,"Ġ`{}":12401,"boost":12402,"CONT":12403,"Ġ2014":12404,"PyCdlib":12405,"Ġfirmware":12406,"Life":12407,"ycle":12408,"Ġcx":12409,"ingu":12410,"could":12411,"shake":12412,"rigger":12413,"fetchall":12414,"Ġtornado":12415,"Ġinterpreter":12416,"pexpect":12417,"Dump":12418,"Ġfault":12419,"ito":12420,"ATTR":12421,"Ġpycdlib":12422,"Ġspans":12423,"TICAL":12424,"SCHEMA":12425,"GithubObject":12426,".{":12427,"Ġdtypes":12428,"Integr":12429,"tokenize":12430,"LAl":12431,"ximal":12432,"Activity":12433,"Commit":12434,"Library":12435,"alone":12436,"uns":12437,"toc":12438,"collector":12439,"userid":12440,"Ġanalyze":12441,"Ġrisk":12442,"Ġpycdlibexception":12443,"Ġcron":12444,"Ġetag":12445,"ĠCate":12446,"Ġprocedure":12447,"Ġ`_":12448,"Ġminim":12449,"Ġtrade":12450,"ENV":12451,"characters":12452,"Ġcalculations":12453,"svc":12454,"åı¯":12455,"=.":12456,"[%":12457,"pment":12458,"Ġunt":12459,"Ġdelim":12460,"Ġ`'":12461,"molecule":12462,"ĠBatch":12463,"Ġstartup":12464,"ĠDatabase":12465,"Ġcorrected":12466,"throat":12467,"'%(":12468,"BL":12469,"Hz":12470,"dpi":12471,"intable":12472,"Ġfft":12473,"ĠSingle":12474,"ĠCOL":12475,"Ġlibraries":12476,"Ġlocked":12477,"Ġdistributed":12478,"dtypes":12479,"Ġresume":12480,"Ġregression":12481,"Ġcharge":12482,"handles":12483,"Ġapplications":12484,"spectrum":12485,"5678":12486,"oDB":12487,"uce":12488,"Ġhp":12489,"orted":12490,"Ġrad":12491,"ĠPUR":12492,"DESCRIPTION":12493,"Ġalive":12494,"multiply":12495,"EMP":12496,"Evalu":12497,"dna":12498,"è´":12499,"stick":12500,"Ġreview":12501,"mpp":12502,"adjac":12503,"Ġprovision":12504,"inality":12505,"Coordin":12506,"ĠLookup":12507,"Ġseqs":12508,"SERT":12509,"Attach":12510,"uris":12511,"Ġwheel":12512,"Ġ[]:":12513,"Ġsubplot":12514,"webs":12515,"finder":12516,"Ġepisode":12517,"LAlchemy":12518,"'\")":12519,"onym":12520,"Ġweather":12521,"Ġgeome":12522,"study":12523,"ĠFailed":12524,"Ġdiameter":12525,"Ġproduces":12526,"ĠInsert":12527,"IOError":12528,"TERS":12529,"Cor":12530,"Done":12531,"WR":12532,"vfs":12533,"çłģ":12534,"Ġctype":12535,"Ġgc":12536,"Ġ`(":12537,"META":12538,"Ġinitializer":12539,"LAGS":12540,"stopped":12541,"Edge":12542,"ĠREQUIRED":12543,"¦ģ":12544,"alphabet":12545,"Ġblast":12546,"listing":12547,"Ġextraction":12548,"ĠCounter":12549,"ordering":12550,"Diff":12551,"CONNE":12552,"ĠIdentifier":12553,"*)":12554,"Single":12555,"]`":12556,"bid":12557,"eig":12558,"Ġtiming":12559,"(\":\")":12560,"usic":12561,"prof":12562,"problems":12563,"Ġtimed":12564,"DEN":12565,"Ġthresholds":12566,"$\",":12567,"/{}'.":12568,"Corre":12569,"La":12570,"dT":12571,"yellow":12572,"Ġstoring":12573,"ĠVirtual":12574,"rsa":12575,"ĠUnit":12576,"ĠFinds":12577,"41":12578,"SCA":12579,"Ġreplica":12580,"attachments":12581,"Ġeasier":12582,"WRI":12583,"Ġmtime":12584,"oney":12585,"ĠEN":12586,"Processor":12587,"Upload":12588,"Pick":12589,"bust":12590,"Ġstages":12591,"Ġhydpy":12592,"dag":12593,"included":12594,"Ġctrl":12595,"simp":12596,"Ġquad":12597,"Determine":12598,"notifications":12599,"cx":12600,"cas":12601,"arct":12602,"utter":12603,"ĠPe":12604,"ĠPackage":12605,"Ġsetter":12606,"Ġtech":12607,"REAM":12608,"Ġperms":12609,"Ġparticipant":12610,"Ġ\"%(":12611,"Ġassociate":12612,"Ġqualified":12613,"WID":12614,"Ġinds":12615,"Ġuint":12616,"pypi":12617,"Ġperf":12618,"Segments":12619,"vlc":12620,"Ġattachments":12621,"ĠClose":12622,"Curve":12623,"ĠElementTree":12624,"Ġartifacts":12625,"Ġvocabulary":12626,"Media":12627,"Ġoverlapping":12628,"*'":12629,"Callable":12630,"tan":12631,"Ġé":12632,"Ġft":12633,"Ġproceed":12634,"mock":12635,"Ġprivile":12636,"Setup":12637,"explo":12638,"Ġcommunity":12639,"lons":12640,"Ġconvolution":12641,"selves":12642,"Distribution":12643,"LF":12644,"frequencies":12645,"Ġtopo":12646,"quential":12647,"compact":12648,"Ġestimation":12649,"xd":12650,"aspect":12651,"Ġdisconnect":12652,"Ġcreator":12653,"ĠDomain":12654,"Ġmanagement":12655,"away":12656,"minions":12657,"Ġsubparsers":12658,"{}]":12659,"visibility":12660,"Validation":12661,"BytesIO":12662,"Ġcas":12663,"umin":12664,"exclusive":12665,"Restricted":12666,"ĠPA":12667,"Ġlam":12668,"Ġundefined":12669,"ĠWrap":12670,"translations":12671,"Ġsends":12672,"NaN":12673,"Ġpatches":12674,"ĠTop":12675,"daily":12676,"Ġorders":12677,"=(),":12678,"Right":12679,"ture":12680,"åĨ":12681,"Ġfetched":12682,"ĠTri":12683,"Ġther":12684,"__')":12685,"extractor":12686,"truth":12687,"}{\\":12688,"ĠPerforms":12689,"RAY":12690,"SpecRec":12691,"Ġxyz":12692,"Ġtriple":12693,"SF":12694,"gps":12695,"ucli":12696,"vmin":12697,"asn":12698,"isect":12699,"ĠEmail":12700,"itertools":12701,"foreign":12702,"writel":12703,"clarations":12704,"ĠSignal":12705,"bz":12706,"Ġstra":12707,"placing":12708,"INSERT":12709,"Ġinteraction":12710,"Ġrecording":12711,"Ġdfs":12712,"----------------------------":12713,"cbc":12714,"Ġfrozenset":12715,"Master":12716,"rna":12717,"parsing":12718,"traverse":12719,"Too":12720,"Ġconnectivity":12721,"Ġstatistic":12722,"expire":12723,"imshow":12724,"Ġpagination":12725,"ĠPURPOSE":12726,">%":12727,"DL":12728,"elapsed":12729,"macs":12730,"Ġmagn":12731,"folio":12732,"Inst":12733,"Ġnoinspection":12734,"masks":12735,"blueprint":12736,"Break":12737,"lw":12738,"ĠTYPE":12739,"Ġ>,":12740,"Std":12741,"IDE":12742,"Ġportion":12743,"Ġprefixed":12744,"Ġtruncated":12745,"lipsis":12746,"fork":12747,"rg":12748,"Ġjoint":12749,"Ġslots":12750,"Ġlr":12751,"Ġpause":12752,"Ġ42":12753,"ALT":12754,"Ð¾Ð":12755,"PD":12756,"pst":12757,"suggest":12758,"lain":12759,"oping":12760,"matic":12761,"Ġtexts":12762,"coroutine":12763,"Adding":12764,"overall":12765,"sampler":12766,"Ġpopulated":12767,"æķ°æį®":12768,"wk":12769,"online":12770,"Ġsubdomain":12771,"within":12772,"Ġvalidity":12773,"Ġgrouping":12774,"Ġassociation":12775,"Records":12776,"expiration":12777,"Ġmiddleware":12778,"elded":12779,"abi":12780,"reports":12781,"Ġcorr":12782,"Counts":12783,"Ġpermutation":12784,"Skipping":12785,"xmax":12786,"Ġfout":12787,"Ġnatural":12788,"idity":12789,"('@":12790,"Ġphrase":12791,"tmpdir":12792,"Ġpublisher":12793,"management":12794,"HH":12795,"rms":12796,"datacenter":12797,"ĠCur":12798,"ĠFilename":12799,"ignored":12800,"Feed":12801,"Ġpercentile":12802,"Ġapproximation":12803,"Ġconflicts":12804,"hunt":12805,"Ġsay":12806,"jectories":12807,"Ġchunksize":12808,"UNI":12809,"PATTERN":12810,"Ġzones":12811,"Consts":12812,")[:":12813,"OPEN":12814,"Press":12815,"cats":12816,"rink":12817,"Ġincomplete":12818,"ssian":12819,"Ġhi":12820,"via":12821,"Ġprefer":12822,"baseline":12823,"genus":12824,"ĠProfile":12825,"ClassType":12826,"MODULE":12827,"Ġspawn":12828,"codon":12829,"PASSWORD":12830,"?',":12831,"EMAIL":12832,"Ġ==================================":12833,"Ġvary":12834,"ĠReport":12835,"__':":12836,"Ġminimal":12837,"Ġpriv":12838,"Checked":12839,"cases":12840,"Ġcreds":12841,"71":12842,"OIN":12843,"Route":12844,"mst":12845,"spot":12846,"buses":12847,"Arch":12848,"})'.":12849,"Ġmanual":12850,"assoc":12851,"ĠHeat":12852,"Ġactivate":12853,"Ġtzinfo":12854,"PAGE":12855,"tensors":12856,"Ġrl":12857,"([-":12858,"discovery":12859,"Ġ'%(":12860,"={}):":12861,"Ġtracking":12862,"SW":12863,"Ġdu":12864,"dialect":12865,"asm":12866,"ĠSH":12867,"owel":12868,"signing":12869,"ĠDeprecationWarning":12870,"raining":12871,"radiance":12872,"OO":12873,"Tr":12874,"air":12875,"season":12876,"Ġdh":12877,"iden":12878,"Ġgradients":12879,"alleles":12880,"ĠWritten":12881,"Condition":12882,">'.":12883,"dll":12884,"ĠTwo":12885,"paragraph":12886,"0001":12887,"wav":12888,"Ġanyway":12889,"Ġtokenize":12890,"Ġqry":12891,"Ġhasher":12892,"Ġloops":12893,"Ġconsistency":12894,"tlene":12895,"review":12896,"Ġnaming":12897,"dated":12898,"Ġensemble":12899,"Ġcodec":12900,"ENABLE":12901,"expanded":12902,"Ġwanted":12903,"serving":12904,"Reading":12905,"implicit":12906,"(':',":12907,"Ġblobxfer":12908,"ĠSimilar":12909,"ĠKeys":12910,"aln":12911,"ĠTurn":12912,"Ġgf":12913,"undant":12914,"Ġfunctional":12915,"Ġacceler":12916,"SSH":12917,"medium":12918,"PathSpec":12919,"Ġvirtualenv":12920,"Subject":12921,"-',":12922,"Snapshot":12923,"Ġcaching":12924,"Ġrepl":12925,"wavelength":12926,"SED":12927,"ĠDeletes":12928,"tracks":12929,"Ġcircular":12930,"Help":12931,"Ġtranspa":12932,"\"',":12933,"Ġmention":12934,"Ġstub":12935,"Ġparticle":12936,"ListType":12937,"Bus":12938,"ham":12939,"including":12940,"Ġtcp":12941,"Ġbridge":12942,"Ġbands":12943,"adir":12944,"assemble":12945,"Ġlmax":12946,"Ġpolygons":12947,"auge":12948,"Ġtrust":12949,"Percent":12950,"products":12951,"Fit":12952,"Ġomit":12953,"chk":12954,"Ġgpg":12955,"Ġallocated":12956,"chem":12957,"ĠHISTORY":12958,"Ġscr":12959,"=[]):":12960,"Ġcentral":12961,"lane":12962,"SPON":12963,"Ġsimpli":12964,"carded":12965,"circuit":12966,"student":12967,",(":12968,">\",":12969,"?)":12970,"Case":12971,"Fill":12972,"Wrong":12973,"Ġgather":12974,"Ġpara":12975,"Ġprecedence":12976,"Ġtested":12977,"Ġbuilds":12978,"Ġdrawing":12979,"Imp":12980,"hc":12981,"har":12982,"ĠTab":12983,"ĠAL":12984,"ubic":12985,"ĠUt":12986,"Ġlead":12987,"posal":12988,"decoded":12989,"RequestException":12990,"Ġ2019":12991,"Ġnetloc":12992,"'``,":12993,"wargs":12994,"album":12995,"preference":12996,"Ġmatcher":12997,"mirror":12998,"ARGET":12999,"------------------------":13000,"snr":13001,"ĠQtGui":13002,"requirement":13003,"mimetype":13004,"NORM":13005,"å¹":13006,"Ġpv":13007,"divide":13008,"asp":13009,"ĠMain":13010,"derived":13011,"Ġsubj":13012,"bsolute":13013,"ARG":13014,"SEC":13015,"Dev":13016,"frag":13017,"ĠFileNotFoundError":13018,"Ġannotated":13019,"authenticate":13020,"ĠSNMP":13021,"Ġspherical":13022,"Estim":13023,"jax":13024,"Ġpres":13025,"Ġsynchron":13026,"('~":13027,"Ġ[<":13028,"ipment":13029,"Ġendian":13030,"osa":13031,"Ġfullname":13032,"migration":13033,"Ġuncertainty":13034,"<=":13035,"Bank":13036,"Machine":13037,"Ġ'='":13038,"ĠCons":13039,"misc":13040,"ĠSystemExit":13041,"Ġancestor":13042,"\"')":13043,"bm":13044,"Ġodd":13045,"ĠDATA":13046,"Ġnewer":13047,"trade":13048,"Ġchecker":13049,"REL":13050,"Prop":13051,"...'":13052,"PK":13053,"Syn":13054,"Ġinfinite":13055,"chmod":13056,"ĠSET":13057,"Ġcontribution":13058,"Ġjinja":13059,"Ġ','":13060,"Ġdecorate":13061,"ĠUnicodeDecodeError":13062,"................":13063,"city":13064,"lims":13065,"isnull":13066,"Ġ\":\"":13067,"ĠSArray":13068,"Ġpreference":13069,"***":13070,"directed":13071,"ĠMedia":13072,"91":13073,"TF":13074,"Ġacl":13075,"amaz":13076,"ĠMV":13077,"fake":13078,"(((":13079,"MET":13080,"Ġ''}":13081,"NDArray":13082,"Ġdecision":13083,"MENTS":13084,"Ġadjusted":13085,"FIELDS":13086,"è¡Į":13087,"Ġimprove":13088,".'))":13089,"acon":13090,"das":13091,"friendly":13092,"ilo":13093,"Ġants":13094,"Ġalter":13095,"ĠComponent":13096,"Ġfnmatch":13097,"Ġways":13098,"Ġcity":13099,"urst":13100,"lider":13101,"(';":13102,"Ġhot":13103,"ĠSyntaxError":13104,"erson":13105,"ĠWBEM":13106,"scales":13107,"Ġbuttons":13108,"^{-":13109,"subscriptions":13110,"hemical":13111,"ĠAttempt":13112,"etag":13113,"tilt":13114,"zilla":13115,"Ġ'|":13116,"quake":13117,"Ġylim":13118,"ĠNumpy":13119,"Ġareas":13120,"Ġcomposition":13121,"Ġignoring":13122,"Ġmedium":13123,"Worker":13124,"Angle":13125,"Place":13126,"hib":13127,"INDEX":13128,"120":13129,"Ġexplo":13130,"diffs":13131,"Objective":13132,"Ġremoval":13133,"ĠShort":13134,"IPv":13135,"surf":13136,"ĠCalls":13137,"åĪĹ":13138,"Serialize":13139,"Ġsearched":13140,"ĠFASTA":13141,"RestrictedClassType":13142,"Scope":13143,"Ñģ":13144,"Ġlost":13145,"ĠSHA":13146,"Ġvendor":13147,"coll":13148,"])),":13149,"ĠBovy":13150,"ĠROOT":13151,"-~":13152,"GING":13153,"Ã³":13154,"æŃ":13155,"Ġmpl":13156,"Ġprepared":13157,"ĠWarning":13158,"ouch":13159,"intercept":13160,"Ġextractor":13161,"ĠAnalysis":13162,"supp":13163,"ĠNamespace":13164,"Checking":13165,"åıĤ":13166,"Ġincreasing":13167,"Private":13168,"FROM":13169,"Hook":13170,"dri":13171,"rpm":13172,"cture":13173,"ĠCre":13174,"ĠRender":13175,"ĠLV":13176,"curse":13177,"Ġsignatures":13178,"ĠChar":13179,"regexp":13180,"Ġspectral":13181,"Maximum":13182,"Ġmultiplier":13183,"fluence":13184,"Ġmirror":13185,"ä¸Ģä¸ª":13186,"jk":13187,"swap":13188,"uing":13189,"åĢ":13190,"already":13191,"('^":13192,"ĠPr":13193,"00000":13194,"ĠHist":13195,"corded":13196,"generation":13197,"Ġcyl":13198,"Ġsvc":13199,"å®ļ":13200,"LM":13201,"TC":13202,"venv":13203,"Ġurn":13204,"rection":13205,"qubit":13206,"ĠCluster":13207,"backends":13208,"ĠExpected":13209,"ĠHigh":13210,"defaultdict":13211,"processors":13212,"letters":13213,"Ġscalars":13214,"Visible":13215,")^":13216,"=<":13217,"AMP":13218,"Lat":13219,"è·":13220,"Ġbio":13221,"Ġdeleting":13222,"ĠBE":13223,"Ġatol":13224,"reement":13225,"subclass":13226,"Ġblocksize":13227,"ideo":13228,"cidr":13229,"'`":13230,"?\"":13231,"gaussian":13232,"vendor":13233,"Ġhdf":13234,"ppers":13235,"ĠCould":13236,"ĠCSS":13237,"ĠFill":13238,"plural":13239,"ĠMeta":13240,"Ġequals":13241,"ĠPossible":13242,"persist":13243,"%%%%":13244,"tleneck":13245,"rhs":13246,"sas":13247,"yper":13248,"Ġwants":13249,"replacement":13250,"Tools":13251,"FAIL":13252,"Unicode":13253,"Ġrestricted":13254,"Ġgpu":13255,"brief":13256,"!='":13257,"grouped":13258,"slope":13259,"Ġck":13260,"Ġreduction":13261,"Ġpx":13262,"ĠAttributes":13263,"tostring":13264,"ĠStri":13265,"ĠRange":13266,"Ġlem":13267,"Ġleaves":13268,"ĠIndi":13269,"tagged":13270,"Ġretrieving":13271,"avigation":13272,"lunk":13273,"padded":13274,"metri":13275,"indx":13276,"ĠNu":13277,"Ġprece":13278,"ĠBasic":13279,"Ġduplicated":13280,"Ġpersistent":13281,"shards":13282,"ĠWrites":13283,"Ġadjacency":13284,"å¯¹":13285,"Available":13286,"water":13287,"iny":13288,"Ġdup":13289,"Ġgrow":13290,"Ġlosses":13291,"ĠFound":13292,"Ġintent":13293,"Ġprinting":13294,"ĠBEL":13295,"Ġoperating":13296,"participant":13297,"isson":13298,"serialization":13299,"Ġaccessible":13300,"Preview":13301,"Ġepochs":13302,"ĠSQLAlchemy":13303,"rng":13304,"turb":13305,"delim":13306,"Ġorb":13307,"Removes":13308,"ĠĠĠĠĠĠĠĠĠĠĠĠĠĠĠĠĠĠĠĠĠĠĠĠĠĠĠĠĠĠĠĠĠĠĠĠĠĠĠĠĠĠĠĠĠĠĠĠĠĠĠĠĠĠĠĠĠĠĠĠĠĠĠ":13309,"Ġaccessed":13310,"argmin":13311,"Coord":13312,"tempdir":13313,"ABASE":13314,"}'\".":13315,"Labels":13316,"interpolate":13317,"squared":13318,"datas":13319,"ĠWord":13320,"retch":13321,"Ġassignments":13322,"Generic":13323,"Ġalternate":13324,"recipe":13325,"}-{":13326,"nasa":13327,"Ġti":13328,"uro":13329,"Ġbill":13330,"Ret":13331,"Ġ26":13332,"Ġcollapse":13333,"...]":13334,"Ġ&&":13335,"Ġsplitting":13336,"sider":13337,"versation":13338,"Ġheads":13339,"6666":13340,"Ġterminated":13341,"Ġguaranteed":13342,"Ġtid":13343,"Ġdecay":13344,"Ġpathname":13345,"Ġseek":13346,"ConfigParser":13347,"normalization":13348,"BYTES":13349,"History":13350,"middleware":13351,"sease":13352,"Ġcrc":13353,"Ġcoeff":13354,"Ġkeyed":13355,"RET":13356,"conditional":13357,"Ġtagged":13358,"Threshold":13359,"Ġ\"-\"":13360,"Metric":13361,"ĠDynamoDB":13362,":(":13363,"Fn":13364,"dos":13365,"lng":13366,"lvl":13367,"tbl":13368,"Ġrates":13369,"Ġatlas":13370,"REGI":13371,"Ġreasons":13372,"Ġrelationships":13373,"warded":13374,"chastic":13375,"Atom":13376,"jpg":13377,"dean":13378,"Ġspark":13379,"ĠFast":13380,"Ġjar":13381,"Ġregisters":13382,"DataArray":13383,"Ġflash":13384,"Ġfacet":13385,"btn":13386,"Ġldap":13387,"ĠMAC":13388,"sential":13389,"posts":13390,"Ġvariation":13391,"Ġsyllable":13392,"dispatcher":13393,"representation":13394,"dashboard":13395,"vg":13396,"Ġnorth":13397,"Ġkeras":13398,"âĶĢâĶĢâĶĢâĶĢ":13399,"Ġie":13400,"Ġvoid":13401,"ĠEnum":13402,"feats":13403,"linesep":13404,"rowse":13405,"finditer":13406,"('/',":13407,"orizon":13408,"FLAG":13409,"Ġconfirmation":13410,"ç±":13411,"stored":13412,"ĠCallback":13413,"uber":13414,"rollers":13415,"Contents":13416,"Ġenvironments":13417,"perture":13418,"~~~~~~~~":13419,"ĠINTO":13420,"Fault":13421,"RST":13422,"Tri":13423,"don":13424,"npy":13425,"Ġstmts":13426,"ĠPIL":13427,"ĠRemote":13428,"filesystem":13429,"disks":13430,"Ġbreakpoint":13431,"Ġwidths":13432,"POSI":13433,"Ġfitted":13434,"ĠParseError":13435,"Editor":13436,"________________":13437,"uptools":13438,"uclidean":13439,"vr":13440,"Ġinstr":13441,"Ġsaves":13442,"verified":13443,"ĠLD":13444,"Ġadv":13445,"ĠSpecial":13446,"gradebook":13447,"ĠHandles":13448,"25519":13449,"NUMBER":13450,"passed":13451,"\"+":13452,"Cancel":13453,"hl":13454,"arith":13455,"leave":13456,"memo":13457,"Ġslash":13458,"rast":13459,"Ġlm":13460,"ĠSc":13461,"ety":13462,"trajs":13463,"Ġmaxiter":13464,"Ġliquid":13465,"Depth":13466,"ĠHEAD":13467,"ograms":13468,"Ł¥":13469,"stations":13470,"Ġprune":13471,"Ġsatellite":13472,"Ġmysql":13473,"calib":13474,"ĠPopen":13475,"creator":13476,"Ġadvanced":13477,"Ġmanip":13478,"Ġstructured":13479,"Ġgenotype":13480,"Ġvisibility":13481,"weekday":13482,"zmq":13483,"à®":13484,"ros":13485,"Ġconcurrent":13486,"spike":13487,"Ġmeters":13488,"Ġhashed":13489,"grammar":13490,"Ġ------------":13491,"Ġdiffer":13492,"Ġrefers":13493,"Ġmonths":13494,"bigquery":13495,"TRIBU":13496,"Dimension":13497,"inherit":13498,"Ġrp":13499,"capabilities":13500,"Ġabsent":13501,"Ġdisks":13502,"replica":13503,"Bool":13504,"Ġestab":13505,"amazon":13506,"Potential":13507,"versible":13508,"igab":13509,"{}\"":13510,"flash":13511,"bars":13512,"Ġviewer":13513,"Des":13514,"LC":13515,"NEL":13516,"]``":13517,"Ġcitation":13518,"Ġ'^":13519,"ramid":13520,"toggle":13521,"CONF":13522,"documentation":13523,"ĠTimeSeries":13524,"llegalState":13525,"åįķ":13526,"sive":13527,"}$":13528,"ĠMat":13529,"ĠMore":13530,"STREAM":13531,"gpg":13532,"PROCESS":13533,"Ġlexer":13534,"HITE":13535,"Ġwall":13536,"Ġhs":13537,"scenario":13538,"Ġweak":13539,":`<":13540,"((-":13541,"Ġ45":13542,"ampRec":13543,"Ġcombo":13544,"ĠValidation":13545,"software":13546,"Ġmotor":13547,"(\"/\")":13548,"RESULT":13549,"Packet":13550,"credential":13551,"ea":13552,"qry":13553,"zs":13554,"leader":13555,"Ġcart":13556,"Ġcartesian":13557,"Ġrenamed":13558,"Ġptr":13559,"ĠAT":13560,"perly":13561,"Ġxarray":13562,"phen":13563,"classifier":13564,"ONG":13565,"Constraint":13566,"ĠInstead":13567,"======":13568,"filled":13569,"Ġgrace":13570,"111":13571,"={}\".":13572,"Ġstock":13573,"RECASE":13574,"FFIX":13575,"Saml":13576,"gran":13577,"Ġ'['":13578,"Ġgray":13579,"ĠSY":13580,"ĠInit":13581,"closest":13582,"Ġstacklevel":13583,"Ġshutit":13584,"Distance":13585,"Ġmicroseconds":13586,"7554":13587,"GA":13588,"eLife":13589,"å¸":13590,"instructions":13591,"Ġrecall":13592,"Ġini":13593,"pathname":13594,"Ġinterpolated":13595,"contacts":13596,"modifier":13597,"similarity":13598,"EK":13599,"Ste":13600,"dj":13601,"sx":13602,"invoice":13603,"reward":13604,"Ġsz":13605,"ĠIF":13606,"Ġprobe":13607,"ipament":13608,"Ġheap":13609,"ĠWCS":13610,"ĠBio":13611,"latin":13612,"(_(\"":13613,"attery":13614,"Ġtriangles":13615,"RAW":13616,"Assessment":13617,"Ġtmpl":13618,"Ġsca":13619,"vecs":13620,"Ġrg":13621,"ĠFLAGS":13622,"urllib":13623,"Ġ``<":13624,"logo":13625,"ĠLimit":13626,"ĠUI":13627,"pename":13628,"LEFT":13629,"FAILED":13630,"TERM":13631,"Ġdimensional":13632,"ĠTimestamp":13633,"Ġstopping":13634,"ĠElse":13635,"above":13636,"qc":13637,"getitem":13638,"ipy":13639,"colon":13640,"areas":13641,"ADATA":13642,"={}'.":13643,"Ġsnmp":13644,"Ġqualifier":13645,"Ġevt":13646,"Ġsoftware":13647,"FUNCTION":13648,"AV":13649,"}(":13650,"Ġvote":13651,"undles":13652,"pyc":13653,"ĠRole":13654,"ĠLike":13655,"grads":13656,"Ġbackends":13657,"Ġfinds":13658,"Chunk":13659,"Ġangular":13660,"subjects":13661,"ĠTherefore":13662,"Ġtarfile":13663,"gm":13664,"warm":13665,"Ġosp":13666,"unwrap":13667,"Ġyy":13668,"ĠOP":13669,"varname":13670,"zonefile":13671,"Ġrelpath":13672,"QUERY":13673,"ĠTransaction":13674,"Override":13675,"scribed":13676,"IGNORECASE":13677,">`.":13678,"Score":13679,"ming":13680,"Ġdum":13681,"pep":13682,"Ġ(\\":13683,"Ġstim":13684,"Ġrval":13685,"posterior":13686,"shp":13687,"categorical":13688,"Units":13689,"Ġcalculates":13690,"Ġ'{}'.":13691,"ctrlpts":13692,"balancer":13693,"Ġips":13694,"ĠSupported":13695,"ntime":13696,"validators":13697,"{}:":13698,"labelsize":13699,"Problem":13700,"Ġalleles":13701,"recipient":13702,"Serializer":13703,"MARY":13704,"bt":13705,"Ġorm":13706,"Ġlc":13707,"msgs":13708,"Ġpreview":13709,"ĠGlobal":13710,"Ġentered":13711,"Ġforced":13712,"devops":13713,"TOP":13714,"Ġexcludes":13715,"ĠQuantity":13716,"freqs":13717,"Hello":13718,"Constants":13719,"Ġdivmod":13720,"ĠAlign":13721,"eigen":13722,"octet":13723,"erc":13724,"dere":13725,"Ġ'):":13726,"Ġbenchmark":13727,"Ġ\"@":13728,"Ġlocate":13729,"Ġpref":13730,"ĠRA":13731,"ĠParser":13732,"Ġgenerally":13733,"includes":13734,"Ġissued":13735,"AIL":13736,"El":13737,"More":13738,"even":13739,"hints":13740,"reindex":13741,"itations":13742,"Ġlot":13743,"Ġprovenance":13744,"agin":13745,"RIGHT":13746,"2013":13747,"ĠRegion":13748,"ĠMemory":13749,"ç±»":13750,"'[":13751,"Glyph":13752,"gather":13753,"Ġncols":13754,"ToChar":13755,"Ġcommits":13756,"realm":13757,"Algorithm":13758,"apt":13759,"Ġspread":13760,"Ġthink":13761,"__']":13762,"ONLY":13763,"curves":13764,"Ġoperand":13765,"omatically":13766,"åıĳ":13767,"ĠBeautifulSoup":13768,"Ġeigenvalues":13769,"ĠLinear":13770,"upyter":13771,"Adapter":13772,"erated":13773,"arches":13774,"Instances":13775,"ĠGitHub":13776,"LOBAL":13777,"you":13778,"Ġlp":13779,"Ġsubcommand":13780,"Ġserve":13781,"FFER":13782,"Ġdescending":13783,"dropna":13784,"PARE":13785,"Ġbracket":13786,"pieces":13787,"Ġadjacent":13788,"Supported":13789,"vault":13790,"æ³":13791,"Ġtk":13792,"Ġmen":13793,"ĠTy":13794,"ĠAD":13795,"mmutable":13796,"ĠMult":13797,"php":13798,"Ġnetworkx":13799,"Ġshowing":13800,"Ġreplacements":13801,"ĠOnce":13802,"tiles":13803,"stores":13804,"Ġmsgs":13805,"detector":13806,"Ġcodon":13807,"Spect":13808,"Skip":13809,"}))":13810,"Ġlf":13811,"setFormatter":13812,"ĠVert":13813,"Ġaccordingly":13814,"pdating":13815,"\"%(":13816,"DY":13817,"gca":13818,"ospf":13819,"ĠdP":13820,"three":13821,"']})":13822,"Ġdecl":13823,"Ġkeyboard":13824,"shadow":13825,"addWidget":13826,"Ġpathlib":13827,"ternational":13828,"registers":13829,"cumulative":13830,"Alignment":13831,"Ġfooter":13832,"pul":13833,"Ġtube":13834,"Ġfut":13835,"Ġnom":13836,"vip":13837,"uby":13838,"ĠBoth":13839,"acle":13840,"uresystems":13841,"Ġscra":13842,"125":13843,"documents":13844,"Modified":13845,"PYTHON":13846,"Ġstrides":13847,"ĠEntity":13848,"aospy":13849,"Ġsatisfy":13850,"uresystemslib":13851,",):":13852,"]][":13853,"reserved":13854,"Ġsmoothed":13855,"isin":13856,"ĠOF":13857,"matcher":13858,"Ġroots":13859,"testing":13860,"ByName":13861,"longest":13862,"YANGListType":13863,"lbl":13864,"rw":13865,"};":13866,"ctr":13867,"Ġlng":13868,"untu":13869,"ogonal":13870,"envs":13871,"Ġtxn":13872,"CRET":13873,"Ġoverriding":13874,"Topic":13875,"-{":13876,"PING":13877,"PUB":13878,"dark":13879,"either":13880,"kk":13881,"rdd":13882,"vnetwork":13883,"ĠAvailable":13884,"Repo":13885,"Ġpropagate":13886,"ĠPSD":13887,"linewidth":13888,"fitness":13889,"ĠSoft":13890,"-~-~":13891,"234":13892,"votes":13893,"wid":13894,"Ġnrows":13895,"Ġdivide":13896,"ĠCI":13897,"apper":13898,"ĠGUI":13899,"ĠWARNING":13900,"energies":13901,"STEM":13902,"Ġtokenizer":13903,"Cookie":13904,"distinct":13905,"releases":13906,"failures":13907,"Ġdotted":13908,"ĠRegistry":13909,"NEW":13910,"ĠManager":13911,"Writes":13912,"COMMAND":13913,"bol":13914,"oids":13915,"rerun":13916,"Ġfm":13917,"Ġ_(":13918,"Ġpore":13919,"Ġsound":13920,"RESPON":13921,"contiguous":13922,"manual":13923,"Ġacceptance":13924,"Ġplacement":13925,"qqq":13926,"CFG":13927,"ĠMultiIndex":13928,"-'":13929,"Cl":13930,"guest":13931,"jwt":13932,"ãģ":13933,"Ġproviders":13934,"usually":13935,"__'":13936,"Ġvalidators":13937,"npack":13938,"Ġstreaming":13939,"Ġreceiving":13940,"truncate":13941,"delivery":13942,"]._":13943,"yond":13944,"¡ç":13945,"erry":13946,"quares":13947,"Ġargspec":13948,"Ġavailability":13949,"Env":13950,"Ġknowledge":13951,"Backend":13952,"MODEL":13953,"effective":13954,"/>":13955,"ĠRSA":13956,"SECON":13957,"ĠHTTPError":13958,"iliary":13959,"weld":13960,"velocity":13961,"ĠACL":13962,"ĠVLAN":13963,"Ġexistence":13964,"forecast":13965,"embedded":13966,"Activ":13967,"amilies":13968,"IABLE":13969,"Transport":13970,"dur":13971,"dscp":13972,"mor":13973,"ining":13974,"Ġelevation":13975,"Ġwrapping":13976,"ĠSpark":13977,"necessary":13978,"INE":13979,"subparsers":13980,"issub":13981,"seqid":13982,"ĠAuthorization":13983,"EVT":13984,"integration":13985,"Ġtunnel":13986,"DOCTEST":13987,"+(":13988,"CV":13989,"CAP":13990,"_*":13991,"vmax":13992,"xls":13993,"Ġbas":13994,"olving":13995,"Ġexceeded":13996,"ĠCR":13997,"mathrm":13998,"EventData":13999,"Ġoptimized":14000,"ï¼ļ":14001,"multipart":14002,"âĸĪ":14003,".]":14004,"imap":14005,"ljust":14006,"Ġrelax":14007,"Ġsanity":14008,"Ġland":14009,"ĠPRE":14010,"pagin":14011,"Console":14012,"Ġaccur":14013,"Ġdiscover":14014,"Ġtraverse":14015,"years":14016,"JLink":14017,"xFFFF":14018,"sex":14019,"arwin":14020,"Ġsx":14021,"coerce":14022,"Ġ\"\\\\":14023,"Ġhl":14024,"quota":14025,"ĠCase":14026,"ĠFloat":14027,"urlparse":14028,"ĠLanguage":14029,"Ġ[]))":14030,"itervalues":14031,"DataType":14032,"MAG":14033,"ĠInputs":14034,"fficiency":14035,"continuous":14036,"Ġazure":14037,"clicked":14038,"ĠResults":14039,"ĠNormalize":14040,"Ġelectro":14041,"/')":14042,"bw":14043,"oct":14044,"ymax":14045,"Ġfold":14046,"Ġslight":14047,"Ġsanit":14048,"utors":14049,"Ġdashboard":14050,"thumb":14051,"andbox":14052,"paque":14053,"Ġboost":14054,"Ġagents":14055,"ĠDest":14056,"Runner":14057,"Ġannotate":14058,"Period":14059,"Entries":14060,"Dispatch":14061,"ĠInterface":14062,"Origin":14063,"Binds":14064,"mble":14065,"Ã°":14066,"covariance":14067,"ptides":14068,"esh":14069,"intensity":14070,"ĠDrop":14071,"pical":14072,"statuses":14073,"replication":14074,"icipants":14075,"lsp":14076,"zation":14077,"hemer":14078,"ulates":14079,"Ġ{}'":14080,"basedir":14081,"STO":14082,"Ġqqqq":14083,"Users":14084,"Couldn":14085,"havior":14086,"Ġdiagram":14087,"YYY":14088,"ĠMIME":14089,"JS":14090,"MON":14091,"Sm":14092,"Ġpn":14093,"ĠExport":14094,"Ġmatter":14095,"Ġprojected":14096,"GroupName":14097,"assignments":14098,"Ġinstantiated":14099,"Ġsucceeded":14100,"Ġresiduals":14101,"FL":14102,"GPS":14103,"want":14104,"Ġdivision":14105,"fileName":14106,"Ġjc":14107,"Ġcompose":14108,"strictions":14109,"FIER":14110,"publication":14111,"Ġestimates":14112,"Ġequality":14113,"('-',":14114,"phanum":14115,"ç¬¦":14116,"tics":14117,"rez":14118,"Ġrating":14119,"Ġparses":14120,"ĠFore":14121,"phinx":14122,"ĠGrid":14123,"Expect":14124,"directive":14125,"datum":14126,"Ġrecv":14127,"IGN":14128,"reduced":14129,"ENDPOINT":14130,"Ġforeground":14131,"publisher":14132,"piece":14133,"TASK":14134,"bility":14135,"futures":14136,"rins":14137,"your":14138,"Ġcg":14139,"Ġcolored":14140,"Ġ==================":14141,"ĠVER":14142,"Ġnewlines":14143,"Ġjac":14144,"{}'":14145,"ĠContains":14146,"Subnet":14147,"CHANGE":14148,"tended":14149,"ĠFiles":14150,"Ġsegmentation":14151,"Ġmotif":14152,"cand":14153,"fx":14154,"ission":14155,"¾ç":14156,"semi":14157,"atypes":14158,"urlencode":14159,"Ġbid":14160,"Ġwit":14161,"Ġstick":14162,"ĠWrapper":14163,"primitive":14164,"'$":14165,".-":14166,"Surface":14167,"WM":14168,"Ġjo":14169,"Ġfld":14170,"icast":14171,"bert":14172,"ĠLE":14173,"LES":14174,"xxx":14175,"Ġsymmetry":14176,"Pair":14177,"capitalize":14178,"SUM":14179,"bine":14180,"she":14181,"Ġcand":14182,"anim":14183,"concern":14184,"Ġdecrypted":14185,"Ġru":14186,"ĠHz":14187,"filing":14188,"does":14189,"slc":14190,"MessageBox":14191,"speech":14192,"ensemble":14193,"tracking":14194,"Metrics":14195,"Ġenergies":14196,"ToCharP":14197,"Rot":14198,"rated":14199,"oling":14200,"ĠLib":14201,"locks":14202,"Ġlisteners":14203,"listeners":14204,"ĠAxes":14205,"ĠIndicates":14206,"arctan":14207,"Am":14208,"CRI":14209,"ua":14210,"umi":14211,"ĠExpression":14212,"weak":14213,"ĠAltern":14214,"marize":14215,"Ġpsutil":14216,"Bro":14217,"lxc":14218,"èĢ":14219,"Ġrebuild":14220,"Ġifo":14221,"utron":14222,"Ġprox":14223,"ĠDump":14224,"stringToCharP":14225,"Ġhasn":14226,"lats":14227,"ĠJWT":14228,"ElementTree":14229,"Ġlocus":14230,"Already":14231,"skipped":14232,"Ġhexa":14233,"CalledProcessError":14234,"CODING":14235,"jpl":14236,"tight":14237,"otion":14238,"Ġassembly":14239,"ĠNB":14240,"campaign":14241,"ably":14242,"Ġspot":14243,"Ġ...}":14244,"ACCESS":14245,"icrosoft":14246,"Ġlatex":14247,"åľ¨":14248,")()":14249,"TCP":14250,"slave":14251,"adv":14252,"Ġhmac":14253,"ĠFrequency":14254,"ushed":14255,"shipping":14256,"ugate":14257,"RESET":14258,"softmax":14259,"Ġsphinx":14260,"DIRECTORY":14261,"High":14262,"Mac":14263,"SING":14264,"Wrap":14265,"bash":14266,"uk":14267,"Ġtre":14268,"Ġcraw":14269,"Ġcertificates":14270,"\"\",":14271,"Ġproportion":14272,"ĠPEM":14273,"pref":14274,"Ġcompact":14275,"160":14276,"Addr":14277,"ĠRaw":14278,"permutation":14279,"credit":14280,"ĠComment":14281,"ĠMongoDB":14282,"Scalar":14283,"TARGET":14284,"Ġaudit":14285,"ĠSends":14286,"Ġalgo":14287,"pio":14288,"Ġlease":14289,"Ġ33":14290,"STDOUT":14291,"Ġblockchain":14292,"Ġallowing":14293,"DBSession":14294,"ĠConfigure":14295,"Ġplatforms":14296,"ĠInterval":14297,"Ġmotion":14298,"ĠFinally":14299,"BAD":14300,"Kind":14301,"kargs":14302,"xticks":14303,"Ġwd":14304,"uncer":14305,"]]]":14306,"Ġpublication":14307,"breakpoint":14308,"scheduled":14309,"Ġeasily":14310,"ĠSecurity":14311,"ZipFile":14312,"DN":14313,"Omega":14314,"Watch":14315,"qp":14316,"Ġcance":14317,"olated":14318,"Ġrbridge":14319,"Ġrobot":14320,"levelname":14321,"broad":14322,"Ġdirty":14323,"ĠMakes":14324,"segmentation":14325,"FormatError":14326,"ĠĠĠĊ":14327,"itors":14328,"Ġprot":14329,"Ġproduction":14330,"Ġxlim":14331,"ĠLat":14332,"Annotation":14333,"EXEC":14334,"Ġsqlalchemy":14335,"ĠAsset":14336,"FILES":14337,"Specification":14338,"ĠSupport":14339,"Ġrepositories":14340,"ĠCFG":14341,"Ġwebsocket":14342,"_\\":14343,"eried":14344,"Ġsquared":14345,"vim":14346,"ĠOper":14347,"Ġmembership":14348,"Overlay":14349,"ĠUpload":14350,"METHOD":14351,"\")))":14352,"Amount":14353,"}})":14354,"spans":14355,"probe":14356,"ĠEvery":14357,"Ġtimestep":14358,"ĠVi":14359,"ĠHas":14360,"Ġinteract":14361,"Ġ401":14362,"Ġdiffs":14363,"InvalidArgument":14364,"hexlify":14365,"Verify":14366,"è®¤":14367,"When":14368,"routine":14369,":/":14370,"Finished":14371,"Lambda":14372,"Side":14373,"draft":14374,"vote":14375,"ĠTEXT":14376,"ĠNext":14377,"ĠLast":14378,"\"]):":14379,"smart":14380,"Ġanswers":14381,"calculated":14382,"LookupSession":14383,"WRITE":14384,">``":14385,"Db":14386,"xf":14387,"è¦ģ":14388,"Ġamin":14389,"Ġinherited":14390,"uts":14391,"excluded":14392,"Ġcontinuation":14393,"Ġsingleton":14394,"Ġnonzero":14395,"ested":14396,"Ġfragments":14397,"Ġconvex":14398,"ĠOneLogin":14399,"Duplicate":14400,"Ġfcoe":14401,"ĠDimension":14402,"ĠGP":14403,"agers":14404,"([('":14405,"REMO":14406,"(_('":14407,"packets":14408,"BUILD":14409,"twitter":14410,"autos":14411,"Ġvoice":14412,"adjacency":14413,"jj":14414,"pdu":14415,"Ã¤":14416,"readed":14417,"fish":14418,"dies":14419,"Ġ+\\":14420,"ĠSci":14421,"Ġ27":14422,"ĠRule":14423,"Ġidle":14424,"cordance":14425,"creasing":14426,"centroid":14427,"locities":14428,"Ġdatabases":14429,"QUE":14430,"Ġ[]).":14431,"marsh":14432,"CLU":14433,"DAY":14434,"*:":14435,"cg":14436,"Ġtqdm":14437,"Ġplist":14438,"unities":14439,"rack":14440,"teins":14441,"(\".\",":14442,"Ġtraffic":14443,"genotype":14444,"Ġlibspice":14445,"gramming":14446,"arbage":14447,")[:,":14448,"hull":14449,"meters":14450,"Ġmiss":14451,"Ġpyh":14452,"PEG":14453,"sqlalchemy":14454,"TeX":14455,"something":14456,"substitution":14457,"Ġ`{}`":14458,"`_":14459,"ache":14460,"wi":14461,"Ã£":14462,"Ġdeserialize":14463,"Ġxr":14464,"Ġcaught":14465,"beats":14466,"nergy":14467,"Ġ\"\").":14468,"venio":14469,"fetchone":14470,"atomic":14471,";\"":14472,"drag":14473,"elevation":14474,"gates":14475,"timing":14476,"regs":14477,"Ġ:],":14478,"Ġ199":14479,"Ġpores":14480,"ĠML":14481,"ĠRDF":14482,"ATTRIBU":14483,"subdomain":14484,"ongodb":14485,"accepted":14486,"Ġnucleot":14487,"ĠVALUES":14488,"+)\\":14489,"Sys":14490,"audit":14491,"bench":14492,"hz":14493,"heartbeat":14494,"Ġremember":14495,"Ġdash":14496,"Ġthin":14497,"Ġub":14498,"Real":14499,"ĠScan":14500,"proxies":14501,"Ġ35":14502,"rons":14503,"authority":14504,"membership":14505,"Ġdenom":14506,"pca":14507,"atk":14508,"Ġ({}":14509,"umidity":14510,"ĠMac":14511,"ĠLi":14512,"Ġkappa":14513,"thedocs":14514,"ĠGeneric":14515,"Ġpartially":14516,"thresholds":14517,"Ġurlencode":14518,"Ġsilently":14519,"Ġsearches":14520,"cartesian":14521,"cspice":14522,"sanitize":14523,"undefined":14524,"ĠTF":14525,"setEnabled":14526,"Ġdivided":14527,"Experiment":14528,"argins":14529,"ĠStat":14530,"Ġflavor":14531,"Ġzonefile":14532,"shares":14533,"mcclient":14534,"Ġciphertext":14535,"Ġconcatenated":14536,"æİ¥":14537,"ĠWSGI":14538,"NL":14539,"Xml":14540,
[...]
